<unk>
<s>
</s>
the
of
,
.
and
to
in
a
for
on
that
The
)
(
is
with
by
as
be
/
was
are
at
its
:
;
or
&quot;
&apos;s
from
it
have
an
United
not
I
has
their
which
Nations
this
In
all
will
Committee
you
had
been
also
were
States
international
other
A
should
development
would
countries
It
rights
Council
his
such
report
can
more
work
under
women
including
1
-
he
one
they
human
information
support
resolution
into
national
General
?
but
out
State
made
we
Assembly
new
2
session
through
implementation
Government
between
people
system
time
activities
any
This
those
against
per
Convention
who
there
may
about
up
Commission
no
International
law
3
than
country
well
some
these
Secretary-General
them
could
your
so
meeting
He
two
We
our
measures
only
said
shall
security
use
my
children
$
cooperation
organizations
her
number
economic
do
efforts
resources
&apos;
need
Conference
cent
Mr.
programme
if
process
years
must
financial
when
right
provide
order
over
take
Development
social
Security
4
services
regional
first
5
draft
Republic
issues
&apos;t
ensure
management
assistance
public
10
further
me
party
members
Rights
within
most
provided
make
Group
during
areas
6
level
b
year
As
world
developing
article
being
Office
many
education
important
like
period
paragraph
programmes
Special
To
China
health
Human
relevant
staff
s
particular
held
At
political
before
training
see
part
persons
policy
both
7
what
where
legal
action
review
protection
him
adopted
taken
situation
after
parties
following
December
decision
used
among
continue
she
very
same
regard
related
community
President
agenda
effective
special
way
access
role
15
global
now
Programme
8
established
set
accordance
three
12
recommendations
without
They
Organization
respect
working
peace
reports
present
Article
progress
each
Member
data
There
9
30
11
view
good
life
i
how
-@@
But
technical
million
Africa
For
On
us
June
place
necessary
local
while
c
National
based
basis
cases
since
violence
Board
item
budget
&#91;
case
20
If
d
possible
You
area
institutions
groups
14
2005
full
general
appropriate
policies
needs
World
end
control
2008
did
increase
trade
!
2006
Parties
because
just
&#93;
available
13
un@@
meetings
group
include
capacity
region
New
Economic
developed
July
Social
African
provisions
society
2009
upon
issue
concerned
18
And
--
field
2010
proposed
nuclear
2007
project
2004
continued
government
still
current
16
e
water
consideration
specific
change
plan
account
future
framework
high
noted
However
considered
S@@
levels
May
gender
required
military
various
re@@
different
promote
European
day
importance
know
particularly
address
Court
delegation
even
sector
’
October
help
sustainable
September
Department
Working
Fund
given
technology
She
own
requirements
child
much
addition
2000
2011
operations
2003
Women
17
major
November
conditions
projects
authorities
means
civil
participation
Secretariat
population
submitted
19
21
Law
bodies
humanitarian
2002
31
last
family
then
does
poverty
able
men
agencies
man
go
total
business
service
approach
get
result
March
additional
towards
impact
25
That
police
Action
attention
2012
weapons
2001
systems
All
E
document
organization
small
private
market
These
above
note
environment
Mission
whether
Governments
22
P@@
conflict
Union
second
force
agreed
food
member
better
received
down
key
concern
context
growth
research
results
especially
improve
With
person
costs
status
G@@
Report
resolutions
B@@
in@@
representatives
domestic
application
increased
24
January
April
requested
question
might
23
give
personnel
risk
1999
every
establishment
long
problems
rules
II
request
monitoring
several
study
fully
therefore
reporting
representative
S
Chinese
mandate
best
contained
existing
statement
age
Protocol
legislation
consider
terms
next
care
comprehensive
%
responsibility
rate
A@@
Rapporteur
production
concerning
standards
land
great
main
become
environmental
t
found
discrimination
justice
Affairs
expressed
quality
coordination
put
D@@
back
strengthen
o
procedures
included
common
another
Executive
example
T@@
funds
recent
relating
provision
1998
criminal
What
fact
26
often
implement
mechanisms
subject
already
least
due
South
When
called
principles
Declaration
2013
come
response
taking
practices
27
foreign
amount
challenges
days
M@@
reported
less
form
energy
agreement
provides
America
together
28
problem
Act
administrative
took
5@@
F@@
Ministry
L@@
develop
armed
addressed
significant
One
regarding
k@@
four
UNDP
five
No.
large
think
obligations
entitled
K@@
investment
providing
performance
rule
too
space
past
decided
analysis
planning
however
strategy
line
off
decisions
practice
Advisory
February
contributions
assessment
matter
school
August
While
power
N@@
His
am
equipment
meet
state
cultural
lack
treatment
don
light
E@@
want
office
adoption
mission
paper
cost
early
effect
secretariat
position
consultations
“
always
reform
free
indigenous
around
victims
Palestinian
29
needed
economy
strengthening
C
H@@
actions
interest
value
regular
focus
R@@
employment
documents
commitment
High
establish
Information
Arab
disarmament
initiatives
non-@@
Service
matters
point
body
C@@
say
building
s@@
An
making
equality
company
No
prevention
certain
missions
little
forces
W@@
property
here
others
Israel
peacekeeping
individual
B
author
Centre
basic
laws
few
er
living
using
People
es
annual
third
dialogue
6@@
clear
50
prevent
.@@
again
serious
funding
7@@
responsible
knowledge
plans
East
Other
crime
experience
Representative
arms
non-governmental
young
date
Some
y@@
expected
income
”
peoples
yet
priority
achieve
para
never
months
supported
procedure
organized
course
joint
involved
home
*
reduction
potential
workers
trafficking
greater
Iraq
partners
Ms.
Central
principle
biennium
annex
acts
natural
During
list
carried
communication
promotion
operational
official
discussion
60
cannot
recommended
steps
section
notes
sexual
nature
far
previous
requests
changes
strategic
violations
Asia
d@@
strategies
exchange
forms
until
promoting
affected
led
evaluation
o@@
find
de
&apos;m
issued
mechanism
open
agreements
HIV
according
crisis
girls
statements
implemented
having
today
essential
products
enhance
facilities
done
approved
higher
4@@
Bank
g
limited
officials
ing
old
e@@
rural
40
implementing
call
opportunities
ate
aimed
understanding
forward
1996
Division
behalf
offices
terrorism
objectives
committed
purpose
communities
1997
treaty
whole
US
i@@
thus
play
instruments
Management
prepared
facilitate
&apos;re
stated
going
table
adequate
increasing
experts
climate
benefits
Treaty
8@@
ed
My
arrangements
protect
Agenda
posts
informed
money
hours
below
strong
proposals
opportunity
media
presented
Minister
Covenant
Europe
a@@
functions
conduct
safety
processes
court
overall
pay
y
1994
g@@
material
medical
American
goals
Panel
equal
Permanent
individuals
currently
remain
conducted
O@@
independent
Commissioner
AIDS
Tribunal
t@@
recommendation
assist
III
Japan
Democratic
Global
wish
away
aspects
Millennium
bring
questions
proposal
reduce
exercise
evidence
English
financing
six
guidelines
air
face
hand
authority
team
Trade
delegations
design
undertaken
operation
remains
ensuring
York
capital
contribute
ways
transfer
look
p@@
manner
Director
2014
Russian
effects
administration
Review
close
act
Support
&apos;@@
Chairman
an@@
negotiations
1995
war
&apos;ll
positive
students
rates
Plan
concerns
structure
death
method
love
So
direct
recommends
labour
primary
items
n@@
return
dated
once
recognized
Geneva
Since
regions
Implementation
fundamental
awareness
Cooperation
freedom
reference
integrated
lead
poor
materials
internal
connection
ability
low
contribution
m
things
9@@
active
officers
f
infrastructure
ting
Criminal
ers
dis@@
difficult
believe
share
language
articles
final
al
companies
communications
itself
term
asked
regulations
p.m.
identified
resource
J@@
methods
By
Charter
de@@
real
ts
former
industry
rather
1993
A.
refugees
model
After
times
Regional
came
letter
Federation
crimes
achieved
text
UNICEF
allow
pursuant
Public
effectively
hope
introduced
Meeting
How
kind
says
detention
range
views
Justice
activity
vote
ated
preparation
commitments
Forum
keep
effort
Health
I@@
words
judicial
referred
claims
goods
multilateral
Israeli
en@@
informal
–
indicated
throughout
construction
leave
Such
schools
critical
Code
Hong
drug
Unit
purposes
interests
live
conference
families
left
outside
enforcement
integration
Sudan
across
UNCTAD
55
entities
benefit
side
57
let
V@@
participate
themselves
name
b@@
circumstances
submit
follow-up
According
improving
Services
create
objective
Section
Kong
provisional
India
room
require
f@@
got
sessions
governance
Agreement
relations
directly
institutional
h@@
58
assets
35
mind
brought
al@@
outcome
compliance
job
met
Institute
territory
k
apply
c@@
Kingdom
First
elements
ongoing
central
Protection
participants
enable
ch@@
centres
whose
demand
similar
factors
disabilities
culture
contract
m@@
65
Summit
week
includes
applied
show
59
soon
substantive
sectors
sources
debt
100
Constitution
deal
Canada
price
parts
D
travel
u@@
points
Agency
n
balance
guidance
seen
network
33
ar@@
efficiency
62
welcomed
along
Z@@
paid
61
B.
later
improved
discussions
situations
really
ating
estimated
house
stability
32
supply
post
effectiveness
complete
technologies
paragraphs
scope
Re@@
64
build
traditional
Party
half
billion
delivery
markets
continues
events
ation
63
proceedings
physical
revised
either
transport
head
something
stakeholders
Also
w@@
oil
maintenance
initiative
city
distribution
aid
University
expert
Korea
52
53
combat
why
claim
34
3@@
standard
indicators
civilian
average
45
36
THE
Political
went
Force
developments
peaceful
associated
cause
Education
responsibilities
48
source
discussed
l@@
capacity-building
Administrative
priorities
inter
Furthermore
alia
month
relation
hold
thought
collaboration
UNHCR
UNEP
investigation
Children
relationship
urban
z@@
di@@
54
Many
or@@
abuse
core
legislative
torture
56
Foreign
receive
likely
leaders
practical
fund
universal
Although
h
Goals
known
on@@
it@@
carry
reached
step
j@@
comments
encourage
intergovernmental
extent
states
achieving
u
completed
loss
OF
elections
&apos;ve
66
success
ground
Please
2@@
debate
l
studies
prior
positions
Crime
designed
identify
citizens
emergency
stage
Pacific
vulnerable
37
housing
type
Room
growing
long-term
ted
Second
scientific
invited
continuing
makes
units
transition
goal
Civil
threat
p
Annex
Environment
economies
religious
ever
maintain
compensation
France
addressing
39
—
supporting
woman
calls
prices
personal
successful
enough
Headquarters
encouraged
Afghanistan
reasons
Caribbean
function
specialized
IV
51
periodic
partnership
Congo
opinion
almost
visit
raised
U@@
task
beyond
lower
night
reason
...
establishing
single
adopt
Joint
In@@
solution
appreciation
Y@@
voluntary
67
remained
signed
feel
external
requires
Disarmament
event
majority
thing
follows
cover
ethnic
advice
serve
Under
start
approval
son
creation
er@@
recently
consultation
longer
obligation
permanent
Administration
violation
initial
Beijing
seek
created
hard
although
educational
41
49
concluded
challenge
en
test
ti@@
road
sent
38
expenditure
Secretary
Recalling
recovery
West
47
leadership
es@@
Peace
46
Moreover
applicable
Islamic
Countries
covered
caused
big
Iran
skills
doing
French
art
bilateral
consensus
Sustainable
heart
courts
Latin
displaced
detailed
move
Germany
read
enterprises
ad
compared
1@@
Do
commercial
treaties
Cuba
export
achievement
44
68
lives
jurisdiction
product
offer
sufficient
am@@
female
at@@
clearly
professional
over@@
suggested
Draft
reflected
terrorist
youth
UNFPA
tell
statistics
regime
v@@
focused
began
respective
th@@
settlement
net
improvement
history
reach
Child
accountability
e-@@
plenary
takes
destruction
mainly
heard
avoid
red
beginning
Our
applications
Australia
wide
Syrian
actors
ac@@
Persons
leading
site
Mexico
Discrimination
written
Note
insurance
run
C.
though
turn
told
operating
mother
42
Middle
parents
bank
Optional
aim
F
Requests
movement
tools
Table
agricultural
ago
43
measure
efficient
im@@
ic
concept
presence
short
illegal
consistent
mentioned
credit
sound
approaches
ar
procurement
series
monitor
target
temporary
please
resulting
conferences
ates
submission
duty
science
audit
Financial
Federal
el@@
disaster
1992
sea
phase
scale
judges
implications
finance
partnerships
ro@@
North
criteria
mass
From
Vienna
committee
Association
trust
T
negative
involving
closely
useful
record
types
st@@
ly
Prevention
class
God
appeal
Chair
payment
System
king
launched
generally
border
conflicts
contact
Police
independence
instrument
Pakistan
observations
damage
Coordination
ations
lot
se@@
host
safe
r@@
co@@
understand
consequences
a.m.
content
described
shown
Legal
fight
risks
added
Then
formal
tax
complex
70
ad@@
nothing
is@@
unit
capacities
Those
stressed
timely
P
Brazil
reduced
industrial
sanctions
actively
coming
Lebanon
Internet
followed
trial
election
entry
exploitation
try
Now
advance
reflect
difficulties
conclusion
late
learning
gave
transparency
cash
minimum
planned
rise
base
1990
registration
dollars
father
Bureau
competition
raise
UNIDO
concrete
77
Authority
relief
sub@@
Asian
Technology
Further
determined
causes
pressure
Western
placed
collection
Research
word
democratic
10@@
ri@@
illicit
governments
decision-making
`@@
defined
elected
subregional
aircraft
determine
Somalia
NGOs
senior
electronic
alternative
actual
absence
component
saw
ra@@
true
intended
con@@
island
donors
ii
seven
survey
waste
Chief
banks
Policy
welcome
urgent
rest
Members
departments
80
as@@
1991
Labour
18@@
sure
fields
Al@@
Operations
recognition
1.@@
Third
Community
despite
Training
accounts
increasingly
O
near
Elimination
x
charge
published
follow
deployment
lost
ant
prepare
summary
shared
allowed
extended
possibility
top
forest
mean
R
mutual
shows
languages
Of
Technical
Its
owing
nor
respond
idea
fair
immediately
enhancing
ic@@
accepted
reviewed
broad
discuss
enhanced
enterprise
sex
immediate
works
Territory
V
attacks
reducing
sense
assessments
69
2015
represented
fourth
car
ag@@
prison
civilians
forced
gas
expertise
round
involvement
0@@
started
mandates
Most
percent
produced
fire
Item
solutions
Assistance
Officer
al-@@
Strategy
consumption
be@@
size
workshops
centre
engaged
definition
book
00
Mr
migration
si@@
uses
membership
2.@@
&apos;d
places
rehabilitation
welcomes
highest
M
marriage
Let
sh@@
affairs
Where
strengthened
emerging
usually
became
failure
Egypt
values
ha@@
modern
per@@
ine
entire
estimates
options
direction
occupied
conclusions
I.
Rules
Therefore
democracy
participated
guarantee
urged
high-level
racial
accounting
express
friends
representation
undertake
crucial
Rwanda
emphasized
Experts
pre@@
coordinated
computer
affect
looking
organs
et
chemical
documentation
remaining
ask
learned
ready
fall
himself
recruitment
Is
le@@
morning
workshop
Objective
press
expression
separate
imposed
resulted
90
occupation
setting
dealing
Palestine
approximately
targets
Fifth
&amp;
records
sharing
executive
networks
De@@
listed
produce
highly
op@@
origin
board
inclusion
deep
bl@@
UN
li@@
respectively
earlier
holding
headquarters
alone
wife
won
assess
didn
Kuwait
appointed
13@@
felt
eyes
Kosovo
behind
worked
ul@@
spirit
category
conventions
refugee
structures
Two
processing
constitute
influence
cooperate
19@@
looked
Gender
Another
findings
eight
enjoy
organizational
perspective
AND
weeks
limit
self-@@
examination
components
Indonesia
contributed
Total
ab@@
ap@@
requirement
ous
Their
observers
inter@@
grounds
OHCHR
closed
tool
Mar@@
quite
participating
contracts
indicate
Staff
interested
L.@@
stop
disease
om@@
Peacekeeping
offences
Islands
integrity
collective
observed
courses
registered
combating
Turkey
factor
faced
floor
Liberia
degree
offered
contains
Great
Space
girl
emphasis
15@@
14@@
threats
Weapons
tasks
Letter
website
encourages
authorized
corruption
Thus
comes
speak
Add.1
easy
freedoms
donor
opening
Ireland
funded
Territories
N
highlighted
Her
eliminate
reforms
75
pro@@
Italy
users
Framework
to@@
campaign
specifically
played
Finally
Financing
honour
creating
ol@@
zone
trying
whom
declaration
internationally
fuel
ding
Cultural
entered
agriculture
seems
giving
drugs
Food
candidates
An@@
department
Field
nations
subsequent
em@@
sites
bad
Control
competent
Chapter
ten
Introduction
Any
accept
punishment
significantly
sought
recorded
engage
Con@@
le
Fourth
condition
Sierra
responses
employees
existence
EU
G
daily
Well
statistical
cut
century
Ambassador
More
learn
outcomes
trends
namely
secondary
chapter
interpretation
categories
software
D.
agency
etc
widely
obtained
secure
Spain
diseases
confidence
Congress
unless
spoke
vehicles
agree
ratification
flow
inform
original
ds
te
speaking
failed
Switzerland
investigations
ans
mental
details
percentage
hear
_
moment
ons
lo@@
visits
experiences
alleged
us@@
recognize
minorities
strength
granted
Chamber
cities
mine
obtain
substantial
Your
door
se
element
r
considers
completion
outstanding
seeking
Population
extend
migrants
Several
largest
proper
availability
allegations
Why
forum
supports
3.@@
begin
writing
anything
ex@@
COP
Zealand
pe@@
il@@
Adoption
vital
release
advisory
religion
rapid
stock
IAEA
stay
complaints
facing
appointment
ter
aware
Following
consent
Leone
losses
Don
lessons
expenditures
ia
Nuclear
identification
der
talk
Summary
inclusive
sometimes
cycle
delay
news
database
Even
Rule
Netherlands
territories
marine
decide
Ch@@
opened
killed
defence
payments
everyone
Argentina
Internal
Despite
traffic
teaching
enter
Haiti
Deputy
Ministers
hands
Trust
regulation
territorial
gross
norms
urges
jobs
functioning
Gaza
attack
linked
announced
actually
simple
Year
Parliament
Decides
teachers
maintained
Status
pointed
Norway
numbers
regulatory
specified
instance
except
exist
non-proliferation
teams
als
Humanitarian
otherwise
firm
ator
considering
populations
sovereignty
considerable
topic
minority
selected
trend
emissions
L
VI
electoral
Bosnia
amounts
te@@
theme
British
supplies
expenses
preventing
institution
Indigenous
showed
confirmed
front
code
expansion
previously
Each
Part
containing
res
carrying
determination
strongly
Burundi
nation
differences
reproductive
mis@@
decrease
diplomatic
Cyprus
flows
unable
thematic
Day
realization
engagement
characteristics
re-@@
located
Regulations
convened
presentation
coverage
investments
station
advantage
Yugoslavia
draw
victim
ta@@
duties
theory
ship
formulation
Questions
See
friend
stations
Assistant
sentence
inside
thank
elimination
search
ge@@
minutes
reintegration
oversight
targeted
someone
subprogramme
Because
nationality
Project
lines
delivered
protected
comply
dissemination
advanced
everything
ideas
introduction
no@@
17@@
ones
restrictions
fifth
par@@
complainant
Not
Darfur
rich
aims
ownership
birth
stand
enjoyment
x@@
happy
Decade
mortality
subsidiary
Sea
fulfil
reasonable
sustained
maximum
Prime
Supreme
latest
equitable
endorsed
instead
technological
amendments
wishes
generation
72
Herzegovina
wanted
Lebanese
built
t-@@
reconciliation
troops
guide
Can
Nigeria
quickly
program
heads
Monitoring
satisfaction
sign
offence
disasters
maintaining
choice
getting
appear
arising
ing@@
receiving
tried
allocation
designated
sale
identity
older
sides
Britain
link
ance
judge
16@@
Resources
Prosecutor
Colombia
nearly
ec@@
surface
attend
simply
73
names
Noting
Yes
v
worldwide
online
Ukraine
productive
buy
initiated
trading
frameworks
heavy
changed
he@@
Monday
kept
latter
assessed
ment
Northern
returned
tion
um
z
character
race
numerous
convention
sales
me@@
Ex@@
constitutional
normal
ou@@
budgetary
primarily
ratified
out@@
commission
Ethiopia
answer
enabling
attended
th
ren@@
transportation
globalization
paras
UNODC
Governing
id@@
concluding
reservations
Côte
Sweden
favour
71
amended
Based
helped
la@@
updated
internally
tic
outer
governing
200
commissions
ling
penalty
achievements
ILO
believes
background
seem
version
IN@@
boy
encouraging
investigate
Family
diversity
changing
bed
stress
contain
ah
unique
Energy
resolve
white
object
saying
accused
disability
occurred
difference
partner
speakers
pl@@
systematic
Friday
ve@@
unemployment
est
ma@@
blood
preparing
forth
green
gap
turned
ent
relatively
FAO
born
76
ed@@
y-@@
Morocco
committees
allocated
formed
ir@@
managers
under@@
cold
eradication
becoming
Developing
thereby
entity
ter@@
protecting
po@@
passed
bi@@
combined
Chairperson
fish
variety
verification
ity
prosecution
Principles
selection
examine
figure
exports
gives
incidents
mainstreaming
IC@@
impacts
pursue
6.@@
corporate
represent
spread
join
Spanish
stable
figures
qu@@
fine
proportion
Ar@@
empowerment
sustainability
Promotion
En@@
voice
drafting
ks
released
hoped
regularly
Thailand
transparent
location
mo@@
acting
H
town
send
Initiative
principal
man@@
Use
UNESCO
believed
publications
jointly
&apos;Ivoire
fear
drawn
ch
chemicals
tive
ness
reservation
preliminary
raising
publication
manage
contributing
74
liability
Y
dispute
amendment
20@@
controls
nine
arrest
Kenya
charges
fell
vision
geographical
Azerbaijan
intention
refer
racism
keeping
Di@@
Power
examined
yourself
conformity
ph@@
increases
facilitating
ended
powers
legitimate
obstacles
perform
Both
structural
Un@@
ist
City
patients
Military
ve
game
UN@@
attempt
ton
expand
reconstruction
IS@@
testing
Refugees
affecting
clean
declared
Uganda
suffering
books
scheduled
reviews
WHO
Scientific
sets
adaptation
ICT
rose
improvements
hour
coordinate
C.2
extensive
leaving
CEDAW
Myanmar
thinking
el
severe
governmental
message
Comprehensive
4.@@
ne@@
Strategic
ot@@
binding
beautiful
Subcommittee
innovative
ses
attached
X@@
add
Iraqi
Guinea
inspection
=
multiple
pending
substances
boys
transactions
sp@@
pollution
option
Accordingly
served
appears
Network
disputes
examples
expanded
husband
abroad
violated
98
e.g.
Chile
capabilities
85
Philippines
constructive
Paris
Drugs
facts
plant
vehicle
transit
weight
prisoners
joined
grant
pre-@@
Jerusalem
doesn
map
tourism
links
Lord
constraints
Only
Pro@@
managed
extension
bo@@
ism
la
covering
worth
Partnership
Given
Russia
bringing
St@@
bear
Georgia
Number
Resolution
Statistics
Planning
identifying
ally
explained
speed
Eastern
pilot
spent
treated
grave
Recognizing
master
meaning
U.S.
reiterated
investors
bit
image
iii
recalled
Having
Professional
+
wall
Algeria
remedies
arrested
burden
for@@
Today
95
observer
London
ors
radio
sanitation
trained
equity
tions
Through
Q@@
valuable
ba@@
safeguards
mines
welfare
Strengthening
soldiers
Informal
ahead
choose
78
Increased
NPT
extremely
reality
largely
Oh
os
Forms
Universal
savings
Safety
consultative
Forces
Expert
currency
self-determination
guarantees
ages
preventive
WTO
OIOS
Taking
interim
migrant
South-South
scheme
anti-@@
represents
car@@
standing
distributed
notice
launch
gu@@
re
Inter@@
su@@
ak@@
id
ur@@
experienced
Tuesday
easily
explore
goes
Austria
page
letters
Budgetary
Over
running
preparatory
panel
roles
Science
Measures
Task
79
limits
adjustment
El
decade
focal
music
looks
demands
president
.2
innovation
ings
story
indeed
sensitive
ded
perpetrators
knew
co-@@
satellite
Sh@@
Saudi
82
train
Malaysia
Paragraph
dignity
customs
eat
extreme
99
indicates
utilization
file
0.@@
Mo@@
decline
import
belief
Thursday
thousands
probably
settlements
Independent
larger
locations
300
pa@@
campaigns
advocacy
83
Th@@
wrong
trans@@
Right
Movement
um@@
we@@
authors
moving
AR@@
seemed
Bangladesh
programming
offers
Foundation
reading
truth
John
teacher
81
Coordinator
suffered
permit
Jordan
employed
Preparatory
AN@@
ge
male
judiciary
ten@@
Wednesday
ry
helping
earth
Co@@
television
overcome
ob@@
Calls
seriously
Activities
black
officer
ver@@
techniques
decades
transmitted
features
dangerous
s-@@
broader
mandated
performed
periods
Small
staffing
proliferation
fighting
academic
introduce
cl@@
talks
volume
chance
village
Belarus
Earth
Nairobi
ative
fl@@
schedule
1,@@
reply
aged
ves
quarter
Al-@@
C.3
association
assigned
humanity
comment
VII
imprisonment
methodology
ty
socio-economic
ber@@
demonstrated
break
reflects
supervision
popular
Work
Peoples
.1
Se@@
asset
acceptance
gold
96
Car@@
greatly
High-level
ke
track
hoc
fiscal
directed
vi@@
sections
district
outlined
transferred
machine
controlled
mining
orders
Violence
studied
storage
84
seminars
involve
LDCs
Additional
Gu@@
a-@@
Mechanism
update
Ad
operate
ep@@
serving
monthly
bearing
Statute
chief
neither
associations
else
enemy
relative
budgets
suitable
foundation
U
starting
do@@
died
posed
subjected
E.
oc@@
93
ence
gone
pleased
Torture
buildings
Le@@
historical
salary
ters
subsequently
papers
deliver
gaps
Local
assisting
corresponding
remote
ology
impunity
coordinating
continuous
southern
biological
hi@@
vulnerability
platform
Croatia
5.@@
Southern
Ad@@
contrary
phone
Climate
ian
鈥
Notes
Are
ies
UNOPS
balanced
composition
alization
ker
é@@
Finance
men@@
K
88
Integrated
user
Budget
career
ble
Peru
sing
Indeed
Building
weather
Society
grow
et@@
Finland
via
Equality
pass
Business
Observer
micro@@
acquisition
complaint
models
charged
Red
card
mobile
87
Yet
rising
recommend
topics
noting
focusing
functional
output
Japanese
Water
arbitrary
detained
constitutes
allows
regards
CN.4
fast
engineering
Page
des
Once
purchase
deployed
dead
successfully
ators
hospital
army
federal
mobilization
soil
prohibited
coherence
ard
Just
completely
resumed
i.e.
non@@
warning
dealt
disabled
92
competitive
societies
94
finding
modalities
hot
doubt
widespread
street
V.
write
deliberations
97
industries
Change
sa@@
spending
segment
sixth
post-@@
Follow-up
stocks
ice
reaffirmed
ps
invitation
remember
Communications
Cambodia
anniversary
execution
loans
wished
w
ise
relevance
gain
competence
evaluate
conservation
legally
recognizes
solidarity
Li@@
91
Sri
hit
Eritrea
greatest
Model
premises
check
witnesses
promoted
web
danger
W
prostitution
conventional
Angola
-based
Operation
tu@@
fishing
airspace
substance
temperature
path
opposition
homes
dynamic
visited
&gt;
farmers
intellectual
UNRWA
moved
Environmental
89
86
Representatives
properly
GDP
Nepal
household
healthy
pattern
Platform
CD
finally
Ministerial
Poland
dec@@
oral
foster
formulated
bill
sc@@
wind
university
insufficient
fixed
hearing
harm
disposal
Every
Guatemala
Under-Secretary-General
Singapore
Agriculture
NGO
Region
rapidly
covers
claimed
Before
du@@
nationals
objects
ig@@
Nevertheless
Among
becomes
firms
seminar
huge
realize
tor
ang@@
acknowledged
productivity
500
picture
suggestions
ful
anyone
qualified
Turkish
German
calling
appeared
playing
ish
speech
interventions
reliable
accessible
inflation
kinds
ical
can@@
barriers
input
camps
ite
conducting
envisaged
School
student
summer
Excellency
Shanghai
embargo
Peacebuilding
wider
faith
save
businesses
explain
organize
stages
slow
tr@@
perhaps
patterns
Hoc
stood
ong
Have
maternal
drive
incorporated
inventory
Czech
digital
voting
yesterday
box
intervention
ked
crises
v.
vocational
zones
rape
residence
War
pension
married
bound
Su@@
dedicated
ged
liberty
asylum
ster
expect
film
relationships
package
port
12@@
plants
s.@@
Three
myself
unilateral
phenomenon
ak
length
toward
ang
Reaffirming
Belgium
ati@@
cluster
laid
lasting
P-4
ci@@
facility
Kyoto
com@@
conclude
circulated
so@@
Auditors
ho@@
allowing
equally
degradation
P-3
appeals
representing
undertaking
style
die
friendly
financed
inter-agency
reserve
Ecuador
Sixth
ary
detail
occur
gains
ud@@
residents
Par@@
significance
Good
ka
deeply
Here
customers
sports
walk
reaching
species
Dis@@
carbon
res@@
integrate
Oversight
understood
preparations
District
rejected
Team
ill
newly
adverse
j
212
allowance
households
SR.@@
Ma@@
C.5
composed
withdrawal
exception
movements
resident
Official
transnational
Lanka
Serbia
tri@@
ying
format
estimate
interaction
well-being
dollar
formation
e-mail
copies
devoted
fees
agents
ma
6,@@
commodity
middle
Take
Standing
integral
C.1
adopting
weak
desire
drawing
Greece
counsel
forums
inadequate
ke@@
manufacturing
advancement
ments
considerations
proved
Ab@@
Recommendation
mon@@
devices
frequently
Issues
suggest
les
House
sur@@
carefully
drew
programs
demonstrate
Island
Venezuela
equivalent
assisted
explanation
Olympic
replace
ON
gi@@
lies
sell
arts
bar@@
Election
Denmark
flexible
guaranteed
bu@@
lay
refers
begun
discriminatory
tomorrow
Costa
anti@@
Treatment
1989
acceptable
ministerial
certainly
X
borders
fill
flexibility
ships
negotiation
duration
sts
feeling
copy
ban
TV
tree
briefing
Ro@@
--@@
ending
leader
Indian
ars
@
behaviour
moral
Employment
in-@@
outreach
professionals
south
double
Reduction
willing
Annual
organ
Consideration
ya
injury
Taiwan
happened
well-@@
consumer
window
ality
lose
revenue
Man@@
up@@
doctor
applying
grateful
wealth
Armed
deaths
Pursuant
telephone
ministries
SBI
ins
HRC
Assessment
wants
arrangement
ized
urge
Afghan
Palestinians
video
Youth
northern
8,@@
Acting
powerful
lands
strict
spend
tests
ties
skin
Statement
manager
Encourages
psychological
Intergovernmental
sun
go@@
Main
sleep
Rome
Provisional
expresses
flight
impossible
title
eye
marked
Bo@@
mitigation
on-@@
commended
arbitration
Investment
memory
define
tra@@
cancer
ordinary
capable
presents
au@@
machinery
lawyers
TO
Har@@
end@@
2008-2009
CO@@
properties
cor@@
Process
forests
piece
cell
ratio
presidential
producing
watch
outputs
Welcomes
determining
sponsors
lists
remedy
dependent
Defence
hair
ving
adequately
occasion
Kazakhstan
projected
UNCITRAL
lived
pen@@
adjustments
Arabia
signing
é
gh@@
mostly
CRC
Roma
above-mentioned
dy
Within
solid
index
cells
Delegations
Procedure
reiterates
incident
requiring
Tanzania
finds
managing
proceed
aspect
d-@@
heat
seeks
thanks
entering
Me@@
sed
missing
Transport
der@@
peacebuilding
generated
hundred
Guidelines
revision
north
fe@@
collected
IT@@
Similarly
wage
Senegal
expanding
Data
command
Rev.1
ca@@
.4
requesting
translation
correct
accurate
seventh
intolerance
commit
Ghana
Bar@@
secret
Provision
custody
high-@@
provinces
millions
aggression
Mrs.
post-conflict
extradition
wait
1,000
denied
Washington
tolerance
Uruguay
belonging
arrived
Tunisia
CH@@
transfers
Be@@
the@@
Portugal
excellent
subjects
prohibition
root
ni@@
pain
Trafficking
remove
accession
separation
Web
mercury
owned
Evaluation
brother
Armenia
Original
generate
iz@@
relate
protocol
ver
www.un.org
2,@@
gen@@
intelligence
combination
schemes
Occupied
transmission
sion
SBSTA
ale
store
Study
medicine
-related
counter
procedural
coastal
detainees
Doha
medium
reserves
meant
ER@@
RE@@
shift
ent@@
ra
applies
1988
2010-2011
handling
overview
houses
shares
biggest
IN
ESCAP
reviewing
7,@@
filed
Non-@@
Decision
ring
banking
closer
investigated
removal
Constitutional
talking
Rica
feet
consolidated
maritime
Industrial
Who
28@@
surveys
journalists
Progress
Add.@@
az@@
hopes
valid
ta
receipt
Mali
union
Committees
ir
Air
exists
realized
Procurement
color
ana
none
division
Urges
award
electricity
Resource
Conventions
all@@
reportedly
derived
Be
bus
chain
S-@@
consolidation
AP@@
war@@
responded
capability
submissions
1-@@
accountable
offering
resolved
Rio
List
Head
filled
solve
Ba@@
waiting
stronger
Bill
sky
conjunction
9,@@
divided
balances
WFP
hazardous
har@@
mark
cooperative
0
instances
Heads
demobilization
depends
displacement
dog
www.@@
da
distance
Poverty
college
5,@@
destroyed
evaluations
administering
exploration
headed
Country
annually
Analysis
sis
鈥@@
exposure
stone
win
EC@@
MDGs
hunger
transmitting
depend
alized
consists
sovereign
eligible
regardless
suggests
Per@@
dark
trees
transmit
anticipated
exchanges
marketing
steel
plays
ay@@
regarded
violent
delays
tenth
constituted
ment@@
animals
replaced
river
Road
suffer
ging
accordingly
universities
dream
Reports
gradually
League
cur@@
struggle
renewed
sold
brief
vast
notification
western
recognizing
ously
proof
municipal
driven
convinced
isn
AT@@
constant
customary
atmosphere
gonna
wood
square
alternatives
employers
amounted
..
27@@
biodiversity
device
Libyan
agent
observation
liabilities
mothers
ges
repatriation
heading
ES
frame
ina
eastern
facilitated
neighbouring
branch
Developed
seized
short-term
4,@@
connected
cra@@
Inspection
2006-2007
2-@@
Racial
pertaining
tables
multi-@@
accompanied
invite
harassment
fit
enforced
biennial
thousand
parameters
pose
ven@@
Regarding
shape
Mu@@
commodities
Document
decides
allegedly
restricted
attempts
Am@@
Romania
assembly
Center
brain
wastes
Land
daughter
Adviser
harmful
province
Chad
fisheries
ran
Audit
advantages
counter-terrorism
season
summit
incurred
recalls
ordered
smaller
era
transitional
explosive
continent
prospects
400
frequency
assessing
pursued
motion
non
instructions
transaction
il
grants
120
Invites
tend
150
drop
lie
Bolivia
incentives
fresh
Obama
600
GEF
Takes
Salvador
IT
drinking
prove
baby
nutrition
linkages
coherent
distinction
negotiating
dimensions
concepts
expectations
EN@@
gender-based
ru@@
underlying
grade
collect
vacancy
Qatar
providers
terrorists
rec@@
falling
analytical
merely
researchers
reflecting
Sa@@
awareness-raising
consultants
Emergency
genuine
As@@
tor@@
pace
rely
accident
refused
organizing
deemed
Legislative
rain
7.@@
respected
uc@@
removed
200@@
wa@@
contacts
sub-@@
discharge
injured
3,@@
electric
evening
ore
animal
Mauritius
dimension
afternoon
3-@@
renewable
difficulty
texts
Mon@@
Transitional
S.
driving
scientists
ants
sions
Recommendations
Consequently
environmentally
ay
Director-General
witness
Guide
Session
camp
extrabudgetary
famous
Appeals
necessity
happen
Qu@@
05
gained
register
wear
citizen
inputs
monetary
couple
Drug
Customs
Application
limitations
min@@
col@@
wh@@
formulate
involves
Conclusion
perfect
o-@@
UN-Habitat
signature
Army
accelerate
normally
inter-@@
AS@@
Basic
5-@@
OECD
sen@@
Medical
ow@@
restructuring
st
Life
helps
FCCC
ess
lawyer
match
unto
ari@@
attributable
judgement
Statements
mid-@@
defenders
clothes
advances
acquired
compulsory
Company
Jo@@
opinions
transformation
objection
relates
bar
dry
comparison
spring
customer
certificate
nuclear-weapon
parallel
incorporate
consumers
votes
mar@@
director
Lo@@
mutually
adults
bridge
sort
warm
responding
av@@
Upon
sw@@
broken
sight
Senior
Hungary
tors
For@@
putting
F.
ize
work@@
shot
tic@@
ammunition
AC@@
system-wide
observe
Contents
elderly
holders
Habitat
beings
inequality
Corr.1
af@@
multi@@
contractual
fi@@
Nam
issuance
Yemen
ization
PR@@
ill-treatment
signs
2012-2013
San
twice
whatever
ju@@
notably
Greek
medium-term
Relations
Ordinance
accommodation
prescribed
knows
description
mode
Nicaragua
Cameroon
securities
Americans
Ombudsman
Mongolia
mandatory
24@@
waters
facilitation
freely
1st
speaker
operative
permitted
blue
killing
9.@@
bottom
http
ically
den@@
comprising
emphasize
FDI
Without
truly
ancient
Meanwhile
meaningful
2004-2005
unity
deprived
Jamaica
Hu@@
detection
ie
clients
2nd
autonomous
feature
29@@
Signed
mention
glass
invasion
overseas
cultures
Ensure
thereof
exclusion
air@@
resistance
VIII
attitude
tin@@
fied
strictly
mat@@
Outer
heritage
arise
excessive
harmonization
mobilize
xenophobia
Viet
center
fraud
self
trouble
makers
showing
so-called
closing
Terrorism
Disabilities
assume
ST@@
pregnancy
Uzbekistan
possession
8.@@
Penal
Euro@@
aries
afraid
profit
sectoral
ba
propose
hospitals
dates
ou
ation@@
provincial
conducive
Street
iv
loan
Voluntary
holds
stresses
Arms
AL@@
Cor@@
NLB
ninth
necessarily
liaison
handle
tons
Access
Last
fail
diverse
quantity
drink
Migration
Participation
immigration
Between
Province
ung
David
ratify
literacy
Sha@@
aw@@
Ac@@
Area
tion@@
seat
villages
Montreal
Least
politics
mouth
Non-Self-Governing
desertification
sentenced
pregnant
introducing
mobility
Q
measurement
themes
careful
ste@@
reductions
yuan
ped
gra@@
Non-Proliferation
disseminate
Dr.
Lu@@
orientation
guided
labor
occupying
secured
gets
Guinea-Bissau
manufacture
900
ping
Pe@@
alism
ly@@
confidence-building
nuclear-weapon-free
Educational
sorry
Welcoming
ner
ess@@
ball
technique
DP
declarations
sit
one-@@
seats
Interim
Regulation
consistently
IMF
prosperity
gr@@
roads
happiness
consequence
Standards
ats
ys
breach
Statistical
remarks
abuses
entirely
ms
Will
pi@@
paying
thy
preserve
Chemical
mu@@
causing
ill@@
ourselves
River
replacement
orally
hotel
Zambia
hosted
assumed
accomplishments
Closed
ics
oriented
IPSAS
Protocols
landlocked
Basel
Lastly
09
appreciate
attitudes
1990s
client
decreased
persistent
Com@@
Thank
Korean
minute
citizenship
stands
No@@
forget
Articles
revealed
prisons
Target
ved
leaves
ai
Burkina
unions
signal
beneficiaries
bio@@
focuses
ach@@
count
eventually
Faso
continuation
ines
chosen
lu@@
ban@@
IA@@
Organizations
ched
suspected
Mor@@
Industry
supplementary
ODA
700
genocide
minor
competitiveness
imports
ky
obvious
30@@
A.@@
ff@@
channels
Saint
parliamentary
ster@@
year-old
kill
massive
targeting
Communication
candidate
and@@
UNIFIL
Question
airport
5,000
He@@
prejudice
named
interesting
ching
Organized
interactive
arm
complement
105
declined
tics
mediation
coal
ES@@
00@@
logistics
generations
approve
conviction
Establishment
closure
cu@@
servants
patient
treat
absolute
pages
P-5
behavior
Fe@@
subparagraph
clearance
sum
trials
contrast
Dialogue
mer@@
stopped
CP@@
Would
contents
ites
indicator
briefings
eighth
sal@@
favourable
classes
CE@@
fulfilment
owners
Tajikistan
mountain
ler
emphasizes
Survey
impose
herself
forthcoming
EC
101
ME@@
credibility
Studies
ple@@
measured
01
ran@@
repeated
ational
ches
juvenile
faces
elsewhere
ur
historic
survival
analyses
logistical
800
sat
rent
ber
threatened
boat
wages
Figure
stipulated
Library
Settlements
consult
addresses
gs
Date
convening
proceeds
cre@@
IL@@
e.@@
Like
metal
pool
easier
IS
sentences
leads
enabled
sphere
Counter-Terrorism
Cross
-up
ls
TR@@
Proposed
firmly
CO
elaboration
calculated
decent
taxes
Games
macroeconomic
salaries
employee
Col@@
subsidies
health-care
un.org
merits
cruel
hundreds
6-@@
grown
clinical
radiation
players
intensify
Bush
safeguard
adult
Branch
Sector
Combat
clarify
indicating
replies
twenty-first
trip
regimes
La@@
liberalization
ming
Slovenia
ministers
Montenegro
eliminating
eg@@
Bulgaria
are@@
Sahara
IC
Efforts
describe
fo@@
applicant
ocean
12.@@
surveillance
contractors
,0@@
shop
argument
Against
occasions
recall
1986
exposed
systematically
oo@@
weapon
emergencies
ing-@@
shelter
counselling
st-@@
Mozambique
accounted
sister
reinforce
ye
low-@@
Facility
repair
earthquake
penalties
External
Timor-Leste
pu@@
UK
UNIFEM
vessels
dropped
Property
Instead
foot
suggestion
exceed
offset
Conduct
error
Time
obtaining
den
MONUC
thereto
4-@@
PO@@
wrote
Officers
expulsion
08
USD
reaction
tangible
convicted
ned
nice
satisfied
load
restore
underlined
complexity
therein
Zimbabwe
UR@@
momentum
Did
fruit
Strip
El@@
undermine
ye@@
9-@@
Prohibition
atic
110
to-@@
prosecutors
mail
ders
entrusted
imperative
clarification
Ocean
SE@@
scene
7-@@
library
acquire
26@@
her@@
disadvantaged
prompt
Ne@@
fired
enhancement
adolescents
Alliance
replied
chap
Goal
architecture
brings
Go@@
cards
Open-ended
11.@@
Former
Participants
interview
durable
Bi@@
Biological
files
1967
listen
Housing
thereon
winter
ali@@
Ta@@
Advancement
ning
ley
memorandum
bs
promptly
recruited
enormous
willingness
50@@
appoint
Consultative
H.E.
Po@@
delayed
couldn
ide
characterized
mainstream
NEPAD
promise
administered
inquiry
deals
manual
ger
feasible
CC@@
disclosure
inhuman
tly
ely
sick
cast
Australian
Atomic
PA
ut@@
suspended
monitored
facto
Electoral
in-depth
Arabic
hu@@
municipalities
102
serves
prevented
strike
integrating
Common
reiterate
Benin
potentially
cutting
Her@@
fa@@
enshrined
Reaffirms
comparative
College
SA@@
caught
3rd
Sub@@
deadline
protocols
concerted
peace-keeping
plane
Capital
seeing
M.
wave
han@@
block
tribunal
emerged
claimant
br@@
concentration
slightly
suppliers
drought
Syria
troop-contributing
delegates
invites
catch
progressive
appointments
gl@@
sufficiently
estate
layer
selling
complementary
employer
corporations
Disaster
admissibility
appropriation
chair
Source
answered
west
soft
Interior
Directorate
Logistics
Asia-Pacific
250
ade
termination
contemporary
enjoyed
des@@
analyzed
consolidate
8-@@
degrading
methodologies
ass@@
bought
plus
star
cars
intensive
dinner
extra
heavily
authorization
outline
exceptional
interference
000
ances
enti@@
RIGHTS
Transnational
ev@@
&#124;
spare
touch
organic
CN.9
che@@
tackle
infection
Ber@@
sk@@
Pension
Commonwealth
whenever
MI@@
dly
ens
attract
exactly
Libya
evolution
subregion
messages
ze
deposit
Effective
ultimately
contracting
US@@
depending
ns
classification
q@@
cross-@@
Reform
inhabitants
expensive
presidency
adjusted
mi@@
intends
retain
sive
unlawful
profits
60@@
algorithm
highlight
ric@@
UN-Women
non-discrimination
insecurity
flowers
discovered
Panama
substantially
severely
Opening
sect
maintains
performing
Decree
submits
modified
que
1.2
fewer
possibly
back@@
analyse
auspices
ological
satisfactory
certification
963-@@
false
twentieth
pursuit
#
Sir
Professor
Sal@@
confirm
1980
calendar
portion
engine
limitation
sub-item
super@@
servicing
Durban
Slovakia
whereas
quick
suit
viable
Corruption
retained
23@@
spite
ends
deprivation
credible
06
Order
ID@@
tensions
engaging
Can@@
granting
partly
sole
Canadian
Press
adding
10.@@
encountered
coffee
gate
103
noise
acted
destination
results-based
parent
finished
exercises
Production
rooms
Matters
games
Mal@@
alize
Relief
existed
eradicate
pretty
restoration
Scheme
King
Min@@
1987
CA@@
east
Pre@@
curriculum
Conclusions
Timor
smooth
milk
factory
possibilities
computers
emission
discipline
awarded
districts
feedback
convene
hydro@@
UNMIK
aside
initiate
sitting
handed
Promoting
worse
thorough
sl@@
AD@@
gratitude
Rec@@
AC
communicate
111
appearance
prevailing
malaria
regret
excluded
Albania
beneficial
els
mitigate
haven
MO@@
display
regrets
07
falls
disciplinary
CS@@
25@@
opposed
affects
murder
water@@
ultimate
spot
Should
grew
IF@@
mixed
benefited
ASEAN
returns
reaffirm
prevalence
producers
assurances
fashion
UNAMID
explicitly
viewed
str@@
confident
images
ING
SO@@
owner
ecosystems
pleasure
cross-border
budgeting
Tom
reimbursement
tw@@
acid
statute
2,000
Or@@
ER
Punishment
advisers
suspension
appreciated
England
sponsored
repeatedly
Come
Contributions
separately
Sunday
mm
branches
immunity
White
questionnaire
Journal
dic@@
Tibet
participatory
studying
capita
104
acute
C-@@
prosecute
experiment
tested
establishes
injuries
1.1
commerce
disaggregated
Stockholm
Final
assignment
money-laundering
Cuban
tension
worst
OR@@
consisting
formally
ruling
translated
J
greenhouse
ours
saving
pursuing
11@@
IDB.@@
profile
So@@
channel
worker
doctors
urgently
retirement
199@@
troop
slowly
sample
readiness
constantly
screen
whereby
Standard
duplication
telecommunications
Unfortunately
sol@@
106
sport
tel
aviation
rock
ethics
perspectives
ery
Four
uniform
coordinator
negotiated
IX
preceding
mal@@
adapt
ce@@
colleagues
Equal
finalized
gathered
ecological
asking
measuring
Workers
RC
soul
ga
resume
108
comprises
initially
usual
Ben@@
TA@@
afford
crops
submitting
genetic
Construction
vo@@
1985
enforce
permits
preparedness
invest
Independence
ell@@
Look
ha
Muslim
Culture
Dec@@
down@@
,000
exclusive
ture
drafted
urgency
workplace
distinct
cross
guilty
reaffirms
conversion
Case
tan@@
occupational
incidence
turning
ish@@
Expresses
visiting
beauty
AM@@
utilized
surrounding
workload
summarized
thou
char@@
Somali
preservation
Supplement
certificates
dress
disappearance
AL
Lithuania
Jamahiriya
excess
settled
considerably
ths
county
minimize
ideal
surplus
garden
Iranian
indirect
cited
Monetary
Administrator
Macedonia
Moldova
presentations
promotes
Sam@@
organisations
atory
Welfare
Contracting
remuneration
marginalized
steady
bright
compromise
ECA
.The
SecretaryGeneral
loved
1373
CONF.@@
feasibility
frequent
Emirates
impartial
assurance
tracking
tes
pieces
Ho@@
Christmas
accuracy
Round
enacted
Inter-Agency
evident
launching
minister
cas@@
rice
.org
tea
extraordinary
Bu@@
contributes
creative
refrain
ID
defining
Which
Malta
Post
Major
ama
newspaper
ser@@
apparent
maternity
ensured
Currently
Related
fies
Institutions
Operational
observance
publicly
Could
munitions
hurt
U.
112
ov
fee
wasn
enrolment
cal@@
Im@@
iron
post@@
Namibia
guard
busy
budgeted
ear@@
锛
Concerning
poly@@
130
ports
.3
1982
virus
subsistence
2002-2003
fate
G.
obliged
eating
4th
guiding
Personal
constitution
pri@@
literature
contingent
revenues
guy
partial
driver
wishing
Overall
Kar@@
autonomy
movie
Situation
minors
di
alizing
Volunteers
Em@@
ATION
unprecedented
boss
rendered
consistency
FOR
hostilities
exclusively
107
foundations
withdraw
earnings
expressing
2.1
tur@@
sharp
Mi@@
redress
smuggling
advised
Appeal
Non-Aligned
02
realistic
large-scale
dr@@
chaired
continuity
accessibility
miles
UNMIL
calculation
head@@
argued
faster
borne
synergies
PA@@
instability
ECE
Vice-President
indispensable
ko
referendum
0-@@
sir
Rural
EM@@
pressing
115
ret@@
innocent
Make
precise
0,000
ceremony
hor@@
if@@
feelings
cul@@
Italian
raw
printing
er-@@
accidents
wouldn
separated
03
diagnosis
affordable
hand@@
contractor
fulfilling
CAT
Does
cargo
fly
indication
helpful
Na@@
references
solely
Dominican
stories
cha@@
Commercial
flying
Mediterranean
wine
bid
sustain
straight
squ@@
justified
passing
resort
Hall
shipment
TS
bro@@
economically
rel@@
operated
executed
pillars
formulating
ceasefire
ial
arrival
Al
Provide
About
Men
poorest
row
relatives
UNDCP
epidemic
edge
returning
assure
ably
print
amend
equipped
UNOCI
Domestic
ecosystem
sha@@
validity
instruction
automatic
endeavour
perceived
Yugoslav
114
declare
defense
worry
damaged
ai@@
characteristic
liquid
Kyrgyzstan
complicated
prohibit
depth
Envoy
1.5
advancing
un
ageing
116
HR
Increase
Jesus
Li
upper
audience
bra@@
fallen
Records
Atlantic
Conflict
succeed
push
va
sti@@
ty@@
ash
childhood
codes
P.@@
reminded
ED
ile
RO@@
stri@@
Honduras
fostering
yang
aging
walked
uncertainty
Sch@@
Workshop
damages
compilation
sons
profound
&lt;
ECOWAS
rental
ease
Background
Outcome
Michael
sun@@
Accounting
fax
definitions
star@@
Private
ement
IM@@
IP@@
poses
resolving
broke
Hague
extending
em
Or
degrees
qualifications
fun
Paragraphs
unknown
confidential
allocate
lending
wing
Responsible
109
founded
att@@
advise
visitors
Base
brand
dri@@
LE@@
firearms
continuously
ot
ities
towns
198@@
Judge
Latvia
battle
yield
installation
deficit
ti
sted
ani
judgment
pledges
Judicial
missile
of@@
ki
desk
farm
Secondly
Swiss
abortion
k-@@
gathering
regulated
regulate
feed
appraisal
automatically
ce
Yeah
Love
curricula
escape
departure
kilometres
Green
ff
fissile
Perhaps
admitted
Continue
robust
governed
recipient
jo@@
Methods
phases
legitimacy
tradition
updating
vary
Freedom
duly
policymakers
113
Bahrain
meat
unified
OSCE
designing
pick
choices
attendance
condemned
pledged
fin@@
yed
5th
tical
Bangkok
，
originally
eng@@
zero
utmost
interface
aspirations
ists
wise
Paraguay
DE@@
ised
Anti-@@
dance
ga@@
boost
islands
ne
efficiently
decolonization
formula
lots
fulfilled
mankind
inherent
buyer
mor@@
aff@@
IA
adherence
acknowledge
elaborate
fairly
ents
environments
supposed
describes
hole
radi@@
proposes
normative
Taliban
thoughts
stra@@
ency
2.2
Du@@
predictable
anti-personnel
SA
desirable
mel@@
cross-cutting
Though
Do@@
inf@@
nevertheless
ron@@
two-@@
Academy
registry
statutory
offenders
Sometimes
100,000
ach
Pa@@
route
suddenly
runs
apart
ain
04
marks
2.5
Five
prefer
defend
smile
rare
upgrading
Cs
Niger
documented
Kuwaiti
ces
Ha@@
UNCCD
residential
visible
select
ined
demographic
livelihoods
hardly
comparable
Aid
sending
Program
laboratory
rescue
AG@@
geographic
118
maybe
fault
ensures
chronic
clothing
supportive
examining
networking
Ge@@
illness
assumption
PC
Ra@@
val@@
specify
payable
sm@@
mere
Mary
Organizational
deposits
hate
challenging
Maybe
JIU
George
Urban
therapy
ine@@
typically
forestry
Ser@@
processed
hon@@
narrow
pers
bre@@
Estonia
ong@@
cultivation
occurs
cost-effective
executions
holiday
C.@@
meets
collecting
harmony
classified
.5
ST
familiar
investigating
bird
Desertification
Systems
HUMAN
electrical
advertising
Regular
Z
Fiji
Djibouti
permission
hy@@
essentially
plastic
unemployed
ann@@
forming
CON@@
Si@@
Sexual
ey
lowest
directors
kan
databases
moon
ast
Vi@@
lift
mer
Natural
referring
diversification
kin@@
Civilian
commonly
planet
CR@@
prime
verify
highlights
Body
Forests
thanked
finish
boundary
Ko@@
controlling
q
Free
arguments
117
post-2015
Ag@@
Te@@
pan@@
settings
ther@@
colour
privacy
COM@@
Ri@@
122
phrase
Using
izing
divorce
gift
Multilateral
horse
proven
interpreted
Commerce
cuts
traditions
skill
struck
Tra@@
birds
friendship
Narcotic
sa
reflection
wonder
Estimate
mid@@
securing
reinforcing
obstacle
ently
Sub-Commission
Mine
multi-year
operators
totally
acy
SC
ering
kg
debates
proceeding
Powers
opposite
Gra@@
collaborative
bonds
IR@@
our@@
鈥檚
onto
Improved
Togo
valuation
Monterrey
concentrated
cy@@
fat
hom@@
Practice
ited
Luxembourg
Response
corner
rou@@
accorded
placement
kids
Investigation
Peter
attending
watching
LORD
interviews
band
attributed
reverse
outset
ethical
ell
park
CA
GM
negotiate
pornography
1978
carrier
player
divisions
Agricultural
welcoming
infant
Marine
arrive
Conferences
pol@@
vacancies
Stresses
owed
Cypriot
licence
We@@
stereotypes
SMEs
verbale
2014-2015
unlikely
ESCWA
bag
awards
clause
walking
destroy
inadmissible
140
P-2
160
shipping
punished
Gulf
realities
Works
ll
bases
undertook
ought
combatants
ory
dra@@
till
oceans
Iceland
partially
summits
chairman
wild
foreigners
notion
baseline
inspections
Cal@@
Programmes
elaborated
fragile
solar
attempted
liable
joy
IG@@
stick
modernization
Due
Besides
dont
Wall
sixtieth
cease
portfolio
admission
thee
Views
logical
co
seas
venture
ion
exercised
Prosecution
Mc@@
Malawi
Bearing
tired
unacceptable
flag
10,000
settle
os@@
ace
buying
delivering
Exchange
119
inequalities
installed
analysed
expense
Tr@@
Additionally
skilled
mineral
Consensus
Is@@
Golan
furniture
1.3
Insurance
Victims
Violations
telling
Mer@@
Develop
ash@@
religions
plate
generating
justify
kes
Registrar
happens
Ham@@
sheet
ori@@
Ca@@
exercising
im
evaluated
rac@@
yes
protective
recording
Serious
locally
Percentage
Account
Maritime
Samoa
def@@
UNITAR
writer
metres
ane
Reporting
XI
toxic
samples
imported
ao
\
deterioration
beat
Trial
Address
Lao
hatred
sn@@
AF@@
3,000
bles
Substantive
releases
Diversity
125
nongovernmental
Subprogramme
coast
por@@
arranged
MS
nominated
boards
spoken
Congolese
Wang
med
teach
sta@@
Organisation
Subsequently
quiet
pupils
del@@
Corporation
ol
typical
streets
NO@@
Royal
Certain
Performance
insolvency
Decolonization
storm
domain
experimental
witnessed
listing
harmonized
tribunals
bur@@
ip@@
simulation
Meetings
calm
equ@@
1981
church
lin@@
ished
adjust
appropriately
smoke
Registration
valued
medicines
Young
hal@@
globally
taught
Design
а@@
Unity
radioactive
strive
LO@@
jurisprudence
amounting
Illicit
reinforced
discussing
gun
bel@@
possess
inner
ingly
Ver@@
breaking
officially
ire
killings
Tokelau
Paul
creditors
vel@@
ple
forever
shoes
assured
Haitian
Recent
restaurant
Botswana
silence
Turkmenistan
evaluating
sweet
sincere
6th
practitioners
seller
Tax
fu@@
mistake
To@@
column
fiftieth
allowances
tobacco
tonight
football
justification
threshold
Fi@@
withdrawn
motor
passage
descent
tenure
CC
preferred
manifestations
congratulate
lan@@
istic
Park
Net
ef@@
optional
evolving
AS
refuse
long-@@
Miss
placing
stipulates
7th
km
elect
1949
marry
proud
slavery
tru@@
somewhat
wisdom
Registry
Saturday
bul@@
Others
punish
an-@@
Current
sy
2020
Barbados
Recognizes
ham@@
associate
explicit
Enhanced
structured
om
managerial
10-@@
Specific
de-@@
ure
weekly
crossing
Electronic
crop
song
younger
da@@
kers
123
Tourism
Ru@@
redeployment
Promote
Liechtenstein
Christian
Twenty-@@
refusal
Val@@
render
loc@@
thesis
open-ended
ratifying
Mandate
allocations
arrange
Add.2
answers
ads
TH@@
journey
spokesman
vessel
land@@
FA@@
IP
Immigration
Care
OAU
satisfy
desired
AC.@@
census
Madrid
transboundary
underscored
flights
parliament
testimony
121
1984
roll
revolution
shortage
empty
applicants
alive
40@@
posted
of-@@
Tri@@
Soviet
Results
introduces
maximize
module
voters
H.
debris
credentials
PS
puts
ening
everywhere
decentralization
Moscow
fer@@
Tokyo
Distr
Amendment
demonstration
NATO
virtue
Register
violate
miss
Wal@@
pat@@
reliability
Ni@@
Manual
J.
INF
tim@@
retention
tal
club
Pl@@
ily
independently
bis
specialists
fication
smoking
mechanical
surprise
workforce
th-@@
circulation
appealed
impartiality
timetable
pillar
consist
crowd
contingency
Key
personality
DC
Thanks
Os
Brussels
breakdown
intend
simultaneously
immigrants
motivated
acceded
Madagascar
promulgated
ography
Tribunals
receives
sad
wording
hosting
8th
1973
Cape
sto@@
ular
Treasury
tional
Role
Home
benchmarks
creates
Ali
supplied
ining
passengers
begins
accomplished
3.1
Coordinating
oring
mobilizing
solving
participant
voted
alcohol
cope
usage
Future
aforementioned
distinguished
navigation
Arbitration
Maintenance
0,@@
thin
Bolivarian
prosecuted
unpaid
advocate
succession
ranging
piracy
2.3
audits
wil@@
accommodate
CN@@
kin
decisive
Addendum
TE@@
fellow
criticism
AN
fails
orbit
Zone
configuration
exceptions
ket
missiles
utility
announcement
enables
losing
Travel
holistic
ada
ous@@
UNMIS
fil@@
St.
evil
symbol
ED@@
capture
denial
dle
Open
tively
blind
Market
births
non-State
tendency
wake
ils
briefed
ard@@
silver
theoretical
Light
Governance
belong
Whether
OP@@
wearing
van@@
iled
i-@@
utilize
counterparts
low-income
tures
communicated
decree
San@@
economics
Integration
Colonial
glad
wonderful
sign@@
jurisdictions
stars
á@@
Br@@
excluding
community-based
quantitative
disparities
Woods
comprise
attractive
yl@@
SP@@
intensified
bling
lock
malnutrition
diet
Nuclear-Test-Ban
Income
reputation
hel@@
clarified
avoiding
9th
3.2
shortly
cool
weekend
clo@@
emotional
resilience
pres@@
Media
threaten
draws
D-1
remind
accelerated
UNAIDS
Maldives
pair
TD
ass
alien
novel
vis@@
concludes
Considering
abolition
Engineering
fac@@
Co
Holy
180
Granting
imposition
attacked
or-@@
Commander
RA@@
flat
notify
remarkable
153
patrol
Early
COMMITTEE
SCO
au
conversation
humans
sponsoring
Go
optimal
arbitral
ians
MINUSTAH
tribute
soci@@
screening
holder
Suppression
Cha@@
genital
ium
124
countering
disseminated
upcoming
ki@@
dismissed
supplement
Puerto
honest
SR@@
server
disappeared
taste
shortcomings
angle
-level
detect
Steering
resettlement
attainment
volunteers
intimidation
stating
1540
Johannesburg
Copenhagen
wherever
diplomacy
handled
ECLAC
EL@@
sees
1,0@@
attain
prominent
installations
promised
News
form@@
read@@
characters
rer
I.@@
incorporating
Personnel
courage
gather
smo@@
Ste@@
pal@@
CP.@@
survivors
Guyana
shopping
Ban@@
commenced
institutes
Mauritania
Quality
routine
eleventh
resumption
Ram@@
twenty
unnecessary
50,000
lights
commencement
Olympics
Reserve
exact
ja
spheres
spouse
prosecutor
quantities
expects
Pi@@
AI
issuing
Improving
Hence
irrespective
gar@@
lying
salt
broadly
recover
Jack
132
coordinates
recession
receivable
machines
cry
Limited
exhausted
penal
abstentions
cap@@
itation
freeze
Under@@
bri@@
1979
absolutely
compound
angry
strange
128
stream
snow
argues
AB@@
Ms
Mag@@
reserved
victory
eness
five-year
Aviation
divide
Ti@@
138
ei@@
entrepreneurs
UNITED
convey
emergence
feels
tered
sugar
lady
cing
default
constructed
ris@@
sor@@
isolation
guaranteeing
standardized
aligned
fore@@
TO@@
bigger
adapted
aren
investigative
vers
wondered
Cairo
ate@@
casualties
Presidency
non-compliance
NE@@
bing
turns
dreams
substitute
drivers
rotation
Bra@@
ham
forecast
UNFCCC
abide
intent
broadcast
ole
II@@
oning
guess
grain
2.
burning
Seminar
carries
fying
tears
beliefs
sul@@
coordinators
Consider
134
CERD
Mil@@
AMISOM
Pen@@
ambitious
UL@@
Goods
terrible
sec@@
rapporteurs
rational
secretariats
Eradication
mix
presenting
Still
.I
militia
kindly
Transfer
infected
CDM
bond
lab@@
dust
directions
off@@
Baghdad
run@@
HK@@
tank
politically
CL@@
ulation
first-@@
contingent-owned
sil@@
assumptions
birthday
ising
updates
adversely
respondents
circled
sla@@
commentary
wi@@
Ger@@
visa
deleted
Sudanese
fertility
Addis
agrees
questioned
Che@@
WP.@@
adds
hearings
Accounts
convenient
Inhuman
spectrum
ity-@@
Competition
Liaison
qualification
stabilization
marking
Peaceful
briefly
weaknesses
diamonds
Degrading
regulating
Blue
DA@@
profession
neighbours
tis
es.@@
hence
tour
ata
discretion
od@@
herewith
three-@@
prolonged
uphold
foods
Enterprise
Er@@
incompatible
don@@
preambular
ex
livelihood
collapse
explored
consulted
Ababa
Chemicals
females
printed
tied
everybody
painting
virtually
timing
traditionally
.6
earned
anger
Governor
ji@@
stuff
ica
stored
ase
licensing
walls
Shi@@
Bretton
warned
incorporation
ord@@
clarity
ward
suicide
examinations
ink
meal
int
Resident
all-@@
colonial
ue
limiting
guideline
nationally
wounded
Documents
Cabinet
magnitude
ride
politicians
NATIONS
Man
grass
compatible
126
council
Risk
trac@@
but@@
í@@
rarely
AP
sand
universality
Bur@@
Trinidad
noticed
ili@@
Democracy
lacking
ibid
yellow
confirmation
gn@@
GC.@@
Nothing
hill
pictures
Expressing
essence
Higher
attaches
May@@
incomes
Inter-@@
supplier
exit
license
pertinent
sub-Saharan
moves
mutilation
assault
prospect
sudden
prohibits
Master
peak
counter@@
PRO@@
Applications
neutral
hardware
emb@@
cou@@
isolated
earmarked
saved
vi
modest
proactive
virtual
indirectly
electro@@
earliest
CEB
alternate
warrant
Ku@@
pull
marriages
invested
Racism
talent
varied
stores
ICRC
sin
assi@@
satellites
dan
Much
circuit
Credentials
IV@@
panels
developmental
dependence
farming
Gar@@
thereafter
stimulate
Parliamentary
Nor@@
returnees
annexes
berg
three-year
pon@@
tended
prohibiting
Get
landscape
Sec@@
Lakes
monitors
Char@@
euro
entrepreneurship
cleaning
restrict
certified
shut
responsive
you@@
South-East
Plenary
CCW
dynamics
1.15
exceeding
liquidation
3.3
Pol@@
gro@@
Rwandan
Radio
investing
abandoned
pul@@
Opportunities
ny
bil@@
abilities
adhere
parental
bn
linking
135
arm@@
consequently
expressly
fol@@
Bas@@
static
versions
Hey
interdependence
Effects
ick@@
E-@@
claimants
ack
cat
upgrade
graduate
reconnaissance
2.4
boundaries
182
Trans@@
gradual
by-@@
Cruel
comfortable
Documentation
newspapers
currencies
magazine
lam@@
spouses
programmatic
Inter-American
experiments
threatening
perception
Por@@
Conventional
misconduct
cooperating
shoulder
ticket
intersessional
disclosed
failing
tically
han
129
dramatic
conscience
avoided
scenario
lawful
mapping
bills
Next
alleviate
steadily
ballot
At@@
san@@
Tobago
synthesis
click
creditor
XV
blocks
feeding
intensity
modules
spiritual
15-@@
inalienable
publish
doors
dear
criterion
fun@@
127
Families
debtor
Guam
silent
rid
IMO
apparently
affirmed
ick
dangers
California
aliens
Gabon
Pan@@
sem@@
guys
36@@
34@@
Mother
gravity
rap@@
extrajudicial
obviously
objections
smart
endeavours
1.
respects
pensions
earn
professor
ame
tre@@
disappearances
alleviation
Provisions
checks
nationwide
Cu@@
38@@
class@@
Bal@@
rough
correctly
precisely
1983
pressures
operates
133
que@@
likes
unanimously
Senate
bone
CD@@
visual
mountains
sensing
imp@@
waves
Bhutan
Liberation
pr@@
declining
reveal
succeeded
Reiterates
thoroughly
collectively
proceeded
appropriations
bas@@
ws
concentrate
sen
tender
ro
positively
sexually
She@@
sake
Adopted
Fu@@
realizing
Black
din@@
accord
native
Smith
filing
Pri@@
Genocide
terror
xi@@
GA
linguistic
cup
produces
2000-2001
incentive
listening
preference
revisions
chart
expedite
ets
1.4
routes
ums
Rem@@
van
mistakes
railway
peer
talked
notified
surgery
influenced
brothers
ini@@
ans@@
ist@@
purchasing
pure
corrections
confidentiality
tle
designate
Providing
Ltd
discusses
inconsistent
Emphasizes
lunch
ishes
sounds
halt
Af@@
intense
restriction
Bel@@
tro@@
Line
enquiry
ened
qualitative
io
hi
supervisory
Bre@@
deb@@
ala
gan@@
exceeded
deny
keeps
UNFICYP
Everyone
promising
irregular
patent
defines
recourse
starts
authorize
na
civilization
raises
incumbent
analysing
renewal
corporal
segments
Rotterdam
red@@
eliminated
tie
landmines
patrols
AT
diamond
temporarily
Da@@
prerequisite
middle-income
philosophy
olo@@
urbanization
Language
debts
Subject
lesson
coat
accredited
2007-@@
socially
chains
accumulation
Mainland
racist
bread
Strengthen
systemic
errors
aiming
Liberian
defendant
shadow
perpetrated
alo@@
bi
circle
CMP
non-nuclear-weapon
rights-based
exploring
cessation
suspect
Bri@@
filling
Committed
gam@@
bo
subprogrammes
accede
translate
169
fifty-eighth
commend
Reference
141
platforms
contributors
leg
C.4
bled
hazards
fears
ft
zed
reparation
rows
surprised
deferred
ner@@
dual
wedding
recovered
Papua
Held
ious
thinks
exemption
ades
risen
fre@@
oms
consultant
accreditation
corporation
ore@@
imagine
density
revise
small-scale
Harry
hall
ack@@
za
tight
invoked
Request
freight
dem@@
oma
SS
readily
eless
Until
argue
Land@@
lease
bor@@
til@@
transform
acknowledges
Cl@@
Revised
Istanbul
Advice
joining
hazard
incitement
pour
solved
tough
sia
Americas
sty
low@@
Ethics
bulk
gy
fifty-seventh
internet
privileges
EM
individually
y.@@
mil@@
fifty-ninth
shareholders
Dra@@
bon@@
ruled
stan@@
leg@@
taxation
SS@@
continental
medium-sized
Capacity
inventories
entail
secretary
alist
UNU
annexed
spec@@
Level
Ju@@
.8
hat
meantime
2016
explosives
Acts
completing
recalling
infections
demonstrates
safeguarding
retail
contingents
Groups
Stressing
stressing
Wh@@
array
matrix
na@@
alignment
1980s
united
4.1
MA
respecting
wet
logic
teeth
renew
hot@@
ignored
throw
CM@@
punishable
sensitivity
projections
commence
endorsement
twelfth
CARICOM
1970
GS
neck
tremendous
persistence
FO@@
dies
exc@@
锛@@
sters
and-@@
inability
3.5
162
relocation
windows
uck
specialist
Fa@@
seekers
illegally
Swedish
wrongful
XII
seed
shelters
Likewise
modification
flower
stake
disseminating
anti-corruption
131
blow
occurring
illiteracy
Impact
lifting
mate
unusual
publishing
.7
Ensuring
not@@
suspects
pping
flood
consulting
shock
Danish
CT@@
kitchen
Owing
si
Mac@@
NA@@
142
Del@@
instalment
Give
alike
impression
Ter@@
The@@
removing
Mat@@
Bonn
margin
favorite
arrears
explanations
camera
induced
height
gri@@
Establish
155
ITC
kets
dro@@
Capacity-building
verified
hidden
stem
pay@@
implies
Being
book@@
periodically
knowing
Uses
SH@@
Decisions
136
bal@@
145
detected
popul@@
tragic
high@@
reg@@
policymaking
Gibraltar
Contract
deploy
attach
dogs
ind@@
Macao
cru@@
hygiene
passenger
inheritance
Reconciliation
Res@@
everyday
Partnerships
cer@@
emphasizing
gases
Destruction
~
ishing
ards
4,000
gent
cat@@
wars
rank
Tu@@
generous
worthy
bit@@
person@@
4.2
wa
ac
Hotel
Islam
hear@@
comprised
chan@@
ation-@@
Martin
full-time
phones
Migrant
giant
pur@@
clock
Treaties
accomplishment
spatial
vic@@
zing
sion@@
Des@@
watched
Periodic
my@@
recosting
ides
bun@@
Lesotho
Compliance
Robert
vo
picked
ara
Ren@@
Friends
fold
reproduced
Chambers
Counsel
violating
cheap
foot@@
Rather
twenty-third
Im
yard
sel@@
attracted
noon
precious
vertical
AC.109
Sales
commends
Appointment
honor
Minorities
lim@@
sixty-first
custom
hardship
bin
ref@@
166
thermal
packages
by@@
occurrence
235
139
conceptual
harmonious
Compensation
industrialized
devastating
tongue
Far@@
Au@@
tail
^
Inspectors
Paper
Approach
couples
workplan
hostile
empower
actor
Pal@@
contexts
lets
nose
counter-@@
MINURSO
breast
websites
bol@@
1974
Dispute
harmonize
Long
Unless
iness
PRESIDENT
onic
confiscation
operator
tiny
winning
Cam@@
Conservation
exclude
Policies
graduates
cotton
warming
Sun
roster
frozen
phenomena
councils
F-@@
liver
chapters
Centres
marital
1975
teen
Hospital
modify
asylum-seekers
blame
Sol@@
ading
visibility
postponed
ss@@
eligibility
moratorium
nomination
cancellation
PL@@
ow
gun@@
thirteenth
non-discriminatory
indicative
pulled
Co-@@
half-@@
Best
assistant
Daily
gran@@
Together
fathers
tering
explains
ali
heating
Principal
accurately
James
143
rejection
Border
tine
ek
quarterly
demonstrations
anywhere
Offices
uranium
Gambia
ve-@@
purchased
servant
committing
clinics
sin@@
vacant
gre@@
ini
semi-@@
neglect
switch
varying
aggregate
consolidating
Al-Qaida
deeper
diversion
MENT
ast@@
Various
Dar@@
coalition
Church
pos@@
luck
33@@
ceiling
deficiencies
challenged
revitalization
Emphasizing
ification
socialist
locked
accomplish
lend
quarters
Coalition
Students
males
B.@@
metric
rating
12-@@
Institutional
notwithstanding
differential
157
Ap@@
Cy@@
ith@@
high-quality
clearing
hum@@
legs
ari
AR
jump
protest
Mogadishu
Supply
isation
Prison
part-time
CST
Combating
Hon@@
ales
wire
successor
broadcasting
differ
conf@@
Brazilian
Agreements
artificial
zz@@
entrance
gaining
discount
heaven
ax@@
cycles
Bay
Gi@@
dominant
survive
Presidents
hol@@
Bahamas
awaiting
Solomon
variance
signals
powder
nearby
top@@
tall
stones
accepting
accelerating
nineteenth
habit
compare
preserving
quota
overwhelming
precision
highlighting
deputy
C.6
None
Export
37@@
ath
Prior
symptoms
UNCDF
deserve
Micro@@
institute
Sen@@
iss@@
144
repeat
imply
е@@
protein
ri
UNITA
claiming
Near
undertakings
impetus
adolescent
ab
ton@@
pledge
educated
amending
Prevent
137
passport
Grand
ancy
stro@@
Aspects
break@@
chose
Learning
deliberate
L.
AU
Chi@@
Han@@
LE
experiencing
EP
harder
apartment
ners
abolished
Zhang
tone
align
HK
superior
ger@@
gen
nominations
restrictive
6,000
Presidential
lake
Ji@@
plan@@
ays
Rehabilitation
PV.@@
compiled
maps
ministry
reliance
Lee
doc@@
manufacturers
long-standing
UNDAF
drove
oned
A-@@
admit
med@@
cr@@
ano
trainers
del
je@@
soldier
lifted
decentralized
schooling
vendors
Practices
Procedures
mood
liquidity
IMIS
fuels
ea@@
exhibition
Enhancing
portal
tragedy
demanded
imposing
Ivorian
ray
tropical
conscious
pic@@
barrier
fairness
147
hang
Vice-Chairman
dered
provider
PRST
archives
vice
backed
TION
ы@@
Keep
fed
recipients
Prince
146
Jewish
Knowledge
captured
bomb
151
bottle
compete
chances
undermined
expressions
inc@@
surely
worried
CRIC
rations
residual
shocks
tonnes
Fre@@
connections
inception
fy
strain
contaminated
OK
GE@@
ox@@
recycling
graphic
comfort
emp@@
Oman
Umoja
156
Governmental
cher
Fer@@
1961
Hel@@
phased
voluntarily
variable
1977
employ
Subtotal
ss
spo@@
atively
conc@@
sit@@
Egyptian
anda
verse
rocket
ji
Cases
arrests
shaped
introductory
USA
connect
EX@@
eli@@
personally
Never
II.@@
belongs
parliamentarians
ut
dose
combine
4.5
liber@@
Joseph
dominated
Judges
tuberculosis
Wan
commented
fifteenth
enactment
Ed@@
credits
net@@
ath@@
arose
т@@
tackling
ken
yn@@
unclear
Defense
crew
Intelligence
War@@
HR@@
Chen
films
5.2
amp
analysts
ately
Enforced
humankind
definitely
compounds
Challenges
sponsor
overdue
1971
Pr@@
lar@@
OIC
PAR@@
sixty-second
chairmanship
coupled
ination
countermeasures
audited
magnetic
forensic
FD@@
vacation
vegetables
reasonably
cable
Comm@@
Hal@@
confined
thick
preferential
Subsidiary
doubts
IB@@
okay
costly
Verification
seeds
1960
eth@@
Nonetheless
tells
lat@@
Bro@@
Je@@
stayed
helicopters
oun@@
multinational
pipe
EA
Ob@@
ade@@
Set
Point
Over@@
Form
20,000
socioeconomic
comm@@
volatile
Add
Ban
multilateralism
Gen@@
promises
tickets
suspend
peacekeepers
erosion
ences
analyze
split
finalize
sum@@
Growth
predecessor
child-@@
tries
ranks
abl@@
email
tends
Manager
eggs
container
hide
law@@
Hol@@
Wa@@
horizontal
Supplementary
restored
Projects
Tenth
Investigations
criminals
likewise
livestock
Six
contracted
hell
acti@@
alities
Award
attempting
totalling
Embassy
Refugee
ACC
doctrine
methyl
tin
universally
approached
favor
SU@@
Minimum
laser
Courts
fifty-fifth
cro@@
sophisticated
reject
lucky
cri@@
mainland
basically
burn
guards
Detention
clusters
Tibetan
pot
57@@
advocated
sou@@
deposited
Den@@
Nor
somebody
aggressive
Poor
Verde
checked
48@@
Brown
celebrate
New@@
Airport
rolling
sh
methodological
artistic
dying
collaborate
Ka@@
entitlements
assignments
wor@@
empowered
log
cho@@
sharply
treating
P-@@
gender-@@
Charles
liked
aching
ca
CB
nursing
centers
deciding
commensurate
underground
t.@@
conform
5.1
diligence
39@@
guests
Dr
Rev@@
Temporary
LA
edition
prosecutions
facilitates
up-to-date
aftermath
Elections
roughly
corrected
inspectors
Funds
Muslims
1.6
hem@@
Enforcement
170
ries
civilizations
breaches
Age
naturally
unfair
twelve
identical
graphy
Christ
hyper@@
CIS
Monaco
agendas
yl
borrowing
IO@@
UNV
bly
TC
Traffic
fire@@
aling
tourist
devote
fifty-sixth
breath
mercenaries
addendum
Sports
154
ene
tissue
fix
identifies
4.3
OS@@
publicity
pandemic
legacy
miscellaneous
immunities
Def@@
quest
cle@@
photo
Non-Governmental
negatively
ICC
libraries
sheets
journal
SD@@
invention
fur@@
COUNCIL
beneficiary
K.
251
establishments
coercive
optical
demining
supporters
loading
converted
Recovery
Abu
complemented
reception
enn@@
hen@@
UNO@@
rebel
eng
du
Dutch
Tell
152
197@@
designation
discovery
Citizens
roof
MD@@
ap
antly
UNDOF
emerge
marginalization
pricing
expectancy
Rel@@
1976
wheel
over-@@
stat@@
County
regretted
158
depression
streamlining
excuse
mol@@
tariff
extraction
Oil
overcoming
Nature
compensate
inevitable
black@@
minds
them@@
Ref@@
outlook
exemptions
self-defence
weakness
thirds
SADC
selective
Globalization
demanding
Rico
CP
tured
ther
sho@@
dramatically
ids
encouragement
Economy
CRP.@@
R.
inv@@
P.
Towards
Queen
communiqué
signatories
correspondence
ises
Disability
aps
Greater
judgements
dam@@
cooperatives
Sar@@
Lack
beaten
Okay
cement
guns
Initial
consecutive
distinguish
score
Mad@@
clauses
cen@@
Actions
Preparation
Hy@@
161
Stabilization
Has
bes
l-@@
Abyei
specially
fla@@
deportation
nobody
sixty-third
Throughout
Mohamed
evolved
linear
Missions
3.4
Guiding
CI
148
venue
pushed
fled
restraint
uni@@
ams
gender-sensitive
dish
Physical
ese
attained
merit
hired
investigators
cloud
golden
fifty-third
interpretative
chamber
Father
moderate
Understanding
holidays
accessing
benefiting
}
missed
foreseen
Microsoft
ills
ko@@
G-@@
pounds
campus
10,@@
auditors
alongside
reunification
lic@@
ae
dioxide
touched
shells
mortgage
fr@@
appreciates
ita
wo@@
day@@
Festival
roots
applicability
rivers
adviser
UNAMA
scenarios
settlers
two-year
ware
Areas
ex-@@
Ageing
Virgin
founding
ignore
pays
Equatorial
AD
graph
determines
spl@@
Caledonia
Henry
220
formerly
sequence
civic
CS
aire
unchanged
pac@@
aring
{
underlines
mature
happening
stolen
wheat
designs
2.6
minimal
Mel@@
Ki@@
Forest
impede
Lan@@
investor
Experience
149
metals
acquiring
tel@@
STA@@
usefulness
steering
helicopter
op
globe
Apart
successes
volatility
2008-@@
slight
forgotten
Thomas
alists
microfinance
Primary
evacuation
hearts
duc@@
Overview
pride
petroleum
OD@@
BY
travelling
lacked
broaden
1972
remainder
Sciences
innovations
La
Examples
Poly@@
freezing
exam
Tre@@
proposing
Money
country-specific
Notwithstanding
gifts
retired
a.@@
Relevant
HC@@
activists
Solidarity
fifty-fourth
accumulated
Richard
paint
streamline
cooking
consisted
voices
human@@
prevail
Fun@@
age-@@
wan@@
fifty
admissible
aya
log@@
reads
gear
atten@@
loo@@
volunteer
pe
tube
Him
lion
Crimes
Contact
lifetime
seconds
pped
explosion
Funding
conver@@
protests
tanks
208
peace-building
scourge
sixty-fifth
wal@@
badly
syn@@
bears
COP.@@
consciousness
Clinton
192
plenty
tens
Bali
Full
yer
Phase
Mexican
Almost
Organic
Out
Contracts
remittances
infectious
.9
47@@
escalation
stepped
competing
carriage
cleared
linkage
licences
Method
displayed
ney
leaf
BO@@
201
time-@@
contamination
spaces
GC
shore
ush@@
truck
suspicious
fra@@
pharmaceutical
Tim@@
Ash@@
paramount
offensive
parity
rubber
Norwegian
CTBT
quar@@
cream
colleges
Lin@@
gene
Ke@@
prisoner
autumn
num@@
speci@@
enter@@
SP
restitution
tion-@@
RES
clu@@
landing
longer-term
classroom
inappropriate
pollutants
composite
amongst
ich@@
sciences
stance
ó@@
MONUSCO
es-@@
tar@@
no-@@
hur@@
interviewed
notable
dy@@
coun@@
idi@@
Very
Belize
Google
Catholic
gue
physically
incomplete
openness
OL
ce-@@
graduation
successive
twenty-fourth
GENERAL
under-@@
Club
cam@@
string
recruit
referral
ome
Bor@@
govern
70@@
stor@@
ear
confrontation
scre@@
ed-@@
failures
tortured
ug@@
ben@@
illustrated
1998-1999
Officials
thirty
ashed
chicken
165
Thematic
sixteenth
insul@@
persecution
ceased
Pat@@
bureau
crude
21st
inviting
Port
manufactured
Eight
gar
habits
seventeenth
tioning
ron
crossed
terminated
captain
threw
shelf
ide@@
ascertain
endorse
privatization
qualities
pretrial
tings
hire
vendor
3.
spar@@
sch@@
expeditiously
acc@@
quotas
Old
allegation
Executives
dil@@
-to-@@
affirmative
micro-@@
sleeping
disclose
generic
executing
ET@@
Watch
Serbian
utilizing
financially
medi@@
hoping
159
specifications
nets
highway
le-@@
Liu
floods
mixture
interregional
strikes
mp@@
fluid
ups
CM
10th
fighters
advocates
orderly
yp@@
outlines
expectation
Making
single-@@
exporting
fleet
Mark
irrigation
Equipment
Up
centred
brown
forwarded
democratization
outbreak
Similar
ć
directives
Ps
uncertain
rob@@
som@@
entitlement
Scope
Fin@@
convictions
mes
UT@@
recurrent
profiles
CB@@
terminal
legality
Index
pro-@@
motivation
Whole
breakfast
Remember
remnants
checking
exacerbated
fiber
ude
CISG
parliaments
undermining
hat@@
Multi@@
theories
shell
213
departmental
eradicating
ino
1951
perfectly
choosing
rit@@
Allow
Category
doubled
educate
iring
tailored
tier
ater@@
organisation
0.7
imbalances
any@@
spreading
5.5
shooting
inquiries
convergence
complied
requisite
pump
210
igh@@
surge
mentally
auditing
Cap@@
mobilized
hiring
vulnerabilities
Lake
qui@@
plain
smell
connectivity
pled
211
correlation
Serb
anti
noble
oversee
nan@@
injection
ethnicity
shirt
IDPs
William
eye@@
develops
banned
CI@@
pocket
Recalls
undoubtedly
CF@@
270
residing
eighteenth
benchmark
one@@
Beirut
Fisheries
modes
stockpiles
ule
instituted
second-@@
wash
leverage
6.5
itable
fabric
counted
ESA
inspired
interrelated
scarce
adjacent
und@@
ty-@@
MDG
tal@@
confusion
asks
ATIONS
Argentine
comp@@
adi@@
167
bidding
183
yah
bers
Mus@@
Compact
Recently
wards
hampered
lips
242
cohesion
tsunami
sy@@
norm
distribute
vin@@
D-2
renovation
Rom@@
acknowledging
defeat
measurable
Transparency
meter
embodied
aming
5.3
progressively
meters
trace
arises
Mines
for-@@
Pu@@
dig@@
Tur@@
Georgian
ero@@
Consultations
extends
apportionment
plight
correction
ounding
cleaner
procuring
Little
Supporting
destructive
Sup@@
pin@@
fruits
ira
58@@
bin@@
nu@@
dumping
lea@@
laundering
MA@@
harvest
sible
strengths
Later
rounds
inserted
buyers
seize
house@@
instrumental
2006-@@
concentrations
safer
inal
mir@@
ev
FARDC
UNDG
ski
Ir@@
delegate
trafficked
CT
fruitful
prof@@
UNOMIG
accompanying
copyright
189
fans
year@@
alarm
Indicators
Sub-@@
holes
ears
tribal
scholars
confront
persist
holy
desert
immune
impressive
Sur@@
alled
Station
assuming
scales
sixty-fourth
seizure
competencies
producer
hai
organisms
deepen
yours
swimming
dialogues
containers
sustaining
simplified
enrolled
ith
AM
grades
fluctuations
Identification
DO@@
executives
foremost
Discussion
alert
UNMEE
attracting
selecting
tourists
IES
supplemented
SW@@
economists
Schedule
stimulus
Ethiopian
informing
wel@@
shed
sized
accrued
Series
Campaign
Front
packaging
pop@@
Thousands
Better
Annexes
transformed
blockade
she@@
participates
li
purchases
len@@
administrations
Yu@@
euros
Expenditure
keen
ced
Landlocked
factual
modifications
199
Ma
enjoying
Sul@@
Thirdly
gers
start-up
entails
condemn
interfere
painful
RES@@
Kowloon
a.i.
&apos;affaires
restoring
164
exchanged
filter
roc@@
lers
Accord
button
hungry
dad
1969
offshore
curb
Fundamental
stakeholder
10-year
mad@@
Forty-@@
trigger
school@@
suppression
copper
umbrella
ordnance
centuries
segregation
EN
Concluding
appendix
Evidence
announce
ech@@
importantly
Kivu
Comoros
GR@@
combining
voltage
CPC
belt
Tel
parking
dressed
multi-stakeholder
cried
Cash
somewhere
laboratories
confiscated
bags
reporters
observes
tom@@
scal@@
planted
enjoys
Albanian
beside
1,500
varies
volumes
intervene
S.@@
Put
mirror
protects
overarching
COMMISSION
farms
227
ICSC
loving
photos
che
policing
at-@@
Rob@@
esses
Sub.2
laugh
Neither
rests
distant
singing
interactions
163
credited
Suriname
millennium
extensively
Generally
maker
Communities
unencumbered
win@@
175
stateless
&apos;clock
ols
Thirty-@@
interior
tening
ome@@
prosperous
employing
Self-@@
mad
Indonesian
173
fri@@
ound
praise
Roman
boo@@
vol@@
buried
reduces
11-@@
1.7
notifications
Membership
fifty-second
construct
counties
shortages
2.7
searching
mul@@
veto
ill-@@
misuse
Morgan
sor
interpreters
Lucia
Fed
Sk@@
proclaimed
militias
tun@@
cure
1.8
Loc@@
terminology
bet
purely
sof@@
speedy
cli@@
tum@@
afforded
Kabul
shops
commissioned
XIII
ozone
Listen
Satellite
gener@@
radical
fourteenth
deadlines
lodged
reward
complementarity
urging
indications
Especially
IOM
beach
Ay@@
itting
Empowerment
parameter
concert
Legislation
absent
liberation
sixty-sixth
catalyst
L.1
exploit
Sim@@
CE
IFAD
prioritize
cumulative
Portuguese
vis-à-vis
cake
tape
computing
Infrastructure
68@@
80@@
deforestation
ez@@
Town
Southeast
opens
ication
deteriorating
rig@@
wed
248
fusion
exported
suc@@
chi@@
Ministries
Real
deserves
dedication
theft
izes
cancelled
Implementing
intercultural
artillery
add@@
grand@@
Intellectual
Again
mentary
vested
lacks
UNAMSIL
worship
fortune
MS@@
sea@@
ail@@
alarming
Op@@
hun@@
Nu@@
rail
Responsibility
chil@@
receivables
Material
GHG
lo
deficiency
Sum@@
sing@@
35@@
signatory
Changes
pet
Overseas
tide
20-@@
discover
guest
delete
bold
Cost
Swaziland
Female
cost-@@
optimization
synergy
chairs
discriminate
consultancy
circular
variation
vil@@
defer
enact
dozen
oxygen
49@@
ough
remembered
suppose
Acknowledging
Sin@@
complainants
organised
Computer
predictability
Traditional
TA
Cro@@
spots
consular
exporters
sav@@
geared
Bou@@
Cas@@
203
Cir@@
entertainment
delicate
bat@@
allies
cap
cop@@
upheld
172
decreasing
oph@@
Individual
celebration
rats
Vincent
Nov@@
repairs
José
Chargé
HKSAR
absorbed
visas
Convinced
Ph@@
rationale
DNA
Serbs
affiliated
Communist
Certificate
Jean
pun@@
ich
forty-ninth
UNAMI
168
OS
bran@@
gging
Girls
unsustainable
inevitably
shipments
Priority
lighting
Plan@@
songs
DA
Kimberley
compatibility
four-year
Sil@@
Nations-@@
Fl@@
ulate
ment-@@
industrialization
350
loves
valve
corrupt
ato@@
terminate
ah@@
shouldn
textbooks
clouds
dor@@
FOR@@
Products
beer
Republican
intermediate
eventual
hood
predict
seriousness
factories
backlog
keys
Add.3
Briefing
timber
passes
zhou
darkness
www.un@@
FR@@
cloth
reaches
variables
chemistry
bombs
academia
excellence
contest
recruiting
confronted
12,@@
vation
undue
rum@@
59@@
cleansing
demonstrating
nec@@
Wil@@
Tom@@
Mis@@
absorb
Laws
gg@@
laying
BC
describing
References
shorter
IPCC
disposition
0.5
Facilities
Phil@@
athletes
attaining
CO2
replacing
Fra@@
unlike
alter
cooperated
span
Vol@@
22@@
narrative
OC
elementary
sheep
Respect
suspicion
nervous
Pla@@
reaffirming
ago@@
1325
distress
UN-@@
hinder
Call
Whatever
Abuse
babies
public-private
documentary
stamp
sup@@
OR
staying
Cluster
Marriage
enemies
elling
sixty-seventh
acceding
reforming
controversial
DS
nic@@
wan
wives
tariffs
Vanuatu
el-@@
Stat@@
fingers
boats
6.1
Try
boxes
chest
undergoing
imbalance
Arusha
unauthorized
resistant
know-how
auction
circum@@
narcotic
Arrangements
efficacy
sian
pt
centralized
15.@@
Aboriginal
deficits
caring
Disabled
offender
importing
minerals
egg
4.4
burst
compile
Eritrean
packing
childcare
90@@
Controller
likelihood
Ten@@
condemns
e-based
numerical
D-@@
disproportionate
eh
exciting
rolled
ink@@
insert
Ten
E.@@
Proposal
gged
intentions
dismissal
deliberately
unequal
variations
finalization
colors
1,7@@
Objectives
leisure
Companies
circulate
IDF
ases
D.@@
creativity
let@@
extremism
harsh
214
donations
sely
similarly
mouse
row@@
petition
UNMIT
voter
reveals
Bl@@
inmates
suited
Arctic
rers
Kim
seal
nation@@
Observatory
insisted
190
Conditions
enthusiasm
nutritional
6.2
gan
engineers
Along
Strategies
6.3
fought
171
exploited
matching
dating
lengthy
loaded
com
readers
vol
gang
Back
relied
sixty-eighth
Spring
Sou@@
Pres@@
sten@@
Commitment
wore
atomic
sc
viability
craft
Times
moreover
Addressing
d.@@
240
besides
stu@@
non-post
Antigua
farmer
inging
striking
illed
holdings
Relationship
differentiated
municipality
validation
Kam@@
Gre@@
sle@@
depended
ust
sacrifice
PP@@
coexistence
deepening
vel
infrastructures
transferring
Type
slave
tent
equation
absorption
Khartoum
WG@@
perpetrator
ODS
Ozone
pen
supervise
Mobile
pragmatic
fact-finding
rated
14.@@
daughters
Distribution
4.
fan
bel
buffer
universe
schedules
abduction
enacting
Belgrade
Stockpiling
qualify
18.@@
suggesting
174
rises
titles
disorder
Test
kn@@
random
1963
Memorandum
asserted
stuck
country-level
communal
comprehensively
tation
Economics
yearly
assign
une
need@@
non-expendable
fan@@
mitigating
History
181
7,000
neuro@@
artists
Cat@@
enforcing
Techn@@
jury
Berlin
ey@@
Comments
sewage
gy@@
Welcome
bromide
power@@
ouse
Mur@@
My@@
IL
Brindisi
calculate
191
Guidance
Attorney
fulfill
ratios
reactions
intelligent
Inquiry
logy
Malaria
certainty
preserved
shan
Marshall
boom
stroke
rigorous
coach
lit@@
tertiary
13,@@
foregoing
mentation
opium
dependency
adjournment
Adaptation
slowdown
detrimental
seizures
Crisis
congratulations
indiscriminate
ave
wind@@
positioning
hath
1,4@@
magic
overlap
SD
Cup
ü@@
breaks
stomach
mers
diagnostic
flagrant
Ur@@
off-@@
Aware
TH
Wor@@
syndrome
D.C.
Credit
resist
rein@@
Vo@@
Ahmed
uh
alliance
grass-roots
hard@@
Apple
ain@@
differently
ERP
Directors
230
Speakers
MENTS
Reg@@
Significant
substantiated
luxury
lac@@
io@@
panellists
healthcare
glasses
god
ON@@
curve
Museum
Off@@
mal
confirms
execute
insured
prize
encounter
Hamas
particles
abolish
Cities
Average
ounds
administer
218
beam
scrutiny
Increasing
favoured
UNMISS
tele@@
Dr@@
ops
Trustees
185
apple
Seychelles
outs
maturity
201@@
Jud@@
burned
dimensional
finger
MB@@
robbery
Offr
ideological
policy-making
tus
initiation
guides
standardization
adi
Classification
sensor
hereinafter
Exercise
HS
ented
co-operation
concessions
tracing
approaching
scholarships
conciliation
Substances
eration
2.8
conditional
urs
perceptions
thrust
fier
Facilitation
exceeds
son@@
arsenals
ishment
vul@@
prompted
protracted
Unlike
crash
enters
shi@@
spa@@
Inspector
mg
186
233
continually
7.5
hou@@
clubs
shortfall
177
pleasant
Chicago
Establishing
accepts
Sanctions
Waste
dou@@
tations
insist
15,@@
IR
lif@@
Vietnam
unaccompanied
BR@@
um-@@
Hom@@
separ@@
there@@
oneself
four-@@
rush
safely
crazy
loose
Associate
fifty-first
sincerely
tho@@
fires
eu@@
1,8@@
Truth
187
UNPROFOR
frames
Improvement
charter
ility
influences
reorganization
burdens
2017
immunization
atin@@
C.12
enrichment
Art
interpret
footing
meals
traders
understands
Claims
Extension
knife
ep
even@@
wound
essed
Everything
ITU
program@@
ket@@
corn
Annan
sexes
actuarial
184
Requirements
xi
Arts
vacuum
Jane
constrained
Fish
Units
‘
secrets
Croatian
NU@@
icity
onal
commander
armaments
grace
ez
Daniel
206
Fo@@
Agencies
e.
ven
Expected
propaganda
preferences
ight
fossil
verbatim
compliant
uneven
ón
14,@@
after-service
countryside
ozone-depleting
borrow
-1
jumped
rocks
diabetes
prevents
situated
vaccine
extremist
Inc
movies
FMCT
permanently
cin@@
monopoly
Gener@@
speaks
nationalities
8,000
202
ano@@
Air@@
long@@
260
upward
WH@@
warehouse
embedded
multidisciplinary
toll
favorable
regrettable
presently
clashes
instant
road@@
unexpected
Ak@@
Tuvalu
err@@
illustrate
tower
mom
itor
Valley
undergo
fever
China-@@
illa
grid
ologists
photographs
RI
refined
unfortunately
Was
abducted
multisectoral
accessed
Encourage
eling
stin@@
conducts
30,000
500,000
banning
unconditional
junior
instructed
theatre
care@@
therapeutic
rage
MIN@@
178
pushing
Direct
compact
Different
1,6@@
Plurinational
ota
defects
ser
lovely
listened
Falkland
funny
UNC@@
fal@@
airports
litigation
strongest
chron@@
set@@
ee
abandon
invalid
embrace
226
expiration
Post-@@
56@@
NP@@
stock@@
ensuing
Cre@@
bic@@
widening
Seven
kiss
ventures
itated
passion
sting
retaining
disadvantage
GU@@
empowering
commanders
PDF
Dan@@
UPR
synthetic
time@@
convenience
Departments
Rad@@
manufacturer
Labor
ote
thro@@
dirty
audio
diffusion
Box
complain
INSTRAW
Yang
aded
basin
Subcommission
Technological
Almaty
RA
thr@@
orphans
ry@@
diver@@
prone
leather
kid
ICAO
bridges
disappointed
13.@@
geological
finances
artist
I-@@
hasn
3.6
emanating
UNLB
traffickers
expelled
day-to-day
triangular
mine-@@
pack
remedial
travelled
ind
Approved
dge
Jones
2005-@@
minded
Possible
Secondary
243
band@@
205
Enterprises
optimize
disadvantages
premium
redeployed
Schools
reluctant
circumstance
Looking
ald
gram
Presentation
irs
Mindful
grows
predicted
tag@@
caution
Sun@@
rebuild
surprising
hard-@@
Seventh
Barbuda
atmospheric
Interest
Vice-Chair
Bar
JS@@
ses@@
temperatures
embarked
Narcotics
ail
lor@@
Judiciary
225
Turning
observing
onn@@
legislature
Kinshasa
calculating
PE@@
ential
ter-@@
loud
measurements
Course
rebuilding
Analy@@
forcing
arriving
far-reaching
anybody
с@@
Ibid
right@@
ing.@@
sensitization
writers
Modern
litem
encompass
Transit
struggling
rebels
forty-eighth
Component
Recommends
20th
Brunei
sympathy
д@@
gas@@
SAT
builds
pipeline
washing
sword
2.30
condemnation
conservative
ef
passive
dom
198
Specifically
aerial
flu@@
irreversible
disorders
Consultation
IONS
Estimated
sanitary
Gross
wings
arity
tile
і@@
it-@@
TER@@
SO
restaurants
ICCD
assists
pa
Delhi
interdependent
194
nurses
energy-@@
clearer
unfortunate
aggravated
complications
Sorry
thrown
engineer
Improve
blo@@
tives
ures
basketball
Resolutions
cannabis
pit@@
16.@@
mag@@
deadly
kits
Sp@@
Name
stupid
Jim
WMO
Wi@@
excited
Austrian
radar
stal@@
209
system@@
interact
shoot
ideals
in-house
case-by-case
Spec@@
anxiety
manuals
Auditor
francs
merger
occupy
tec@@
ura
disciplines
Religious
waited
country-@@
176
Autonomous
deputies
Oceans
pointing
abused
cornerstone
rid@@
praised
MT@@
disturbing
eager
moments
contributor
ker@@
Often
trillion
confronting
vibration
Il@@
Pur@@
with@@
aly@@
multidimensional
six-@@
crack
neglected
alisation
FC
Sw@@
flo@@
app@@
ranking
17,@@
Ari@@
imminent
Moroccan
subsidy
complained
enriched
rous
reclassification
self-government
deserved
oth
jet
carriers
222
hub
surrender
atives
firing
Accra
verifiable
Nation@@
rooted
You@@
presumption
literary
XIV
Observation
scores
1994-1995
defendants
extra@@
ate-@@
Cle@@
ony
eled
appearing
tasked
criticized
attainable
Tar@@
Municipal
ship@@
Tai
confinement
tax@@
brush
Includes
grand
phy@@
200,000
LC
Observers
Elizabeth
207
bike
wildlife
46@@
trips
Kofi
altered
direc@@
Otherwise
muscle
real@@
approving
shifting
generators
cost-sharing
casting
quoted
winner
arena
ICEF
Yo@@
prospective
underline
memories
extraterritorial
96@@
OAS
Oc@@
poorly
Wat@@
clinic
30-@@
ute
constituting
Particular
sexuality
tual
Sport
bitter
Commissions
commits
Entity
GE
self-sustainment
lectures
threatens
ud
pra@@
drinks
ineffective
ION
188
tract
Sy@@
ond@@
precarious
opposing
Polish
Digital
transported
explaining
GIS
analyzing
checkpoints
Details
Trusteeship
sooner
bias
ered
Beyond
disk
vigorous
Maj@@
cant
arian
milestone
broad-based
Carrie
thor@@
audiences
Big
bars
dar@@
lec@@
capac@@
19.@@
withdrew
devise
bility
Abkhazia
Ninth
peacefully
conception
dare
ety
constituent
bulletin
hoo@@
disproportionately
18-@@
incoming
Television
pil@@
Teaching
offs
sampling
cook
ached
g-@@
1970s
bert
quo
summarizes
vigorously
241
eful
congresses
dancing
Fac@@
sli@@
regulators
sand@@
inflows
forecasts
UR
strip
fund-raising
Out@@
immense
bell
Dynasty
ater
Joe
well-known
educ@@
flew
CHAPTER
awa
appropriated
cell@@
1948
Socialist
delegated
sim@@
vac@@
reproduction
furthermore
automation
overtime
16,@@
ville
statutes
information-sharing
bacteria
asleep
lessly
ö@@
eve
install
LDC
recommending
Mutual
lah
tar
fullest
Sha
ella
trusted
proc@@
Armenian
diplomats
exert
Ly@@
nuclear-@@
refuge
Single
whatsoever
estimation
diminished
physics
explo@@
Institu@@
ump
Dear
the-@@
counting
auto
221
14-@@
forecasting
Exploitation
diversified
dia
ounded
precedent
Mohammed
iro
GO@@
Hor@@
two-thirds
technically
ford
hunting
237
Crescent
foreign-@@
impediments
Twelfth
chip
conveyed
impeding
midterm
Mot@@
Pra@@
zi
circles
talents
SAR
bed@@
versus
Anti@@
pp@@
fulness
counts
MAR@@
totalled
motions
elec@@
2001-@@
chem@@
Dad
invoke
CEO
battery
rot@@
factions
228
ush
probability
ress
Lau@@
taxi
fro@@
Ottawa
oppose
Donor
fle@@
festival
adequacy
Israelis
ts@@
.com
W.
Fair
Malvinas
initiating
permitting
Jul@@
Arabs
cattle
nonetheless
destiny
turnover
ren
DPRK
cancel
premature
Failure
Core
196
š@@
violates
Initiatives
web@@
yo@@
Grenada
Pre-@@
Actual
iting
uck@@
Hu
imagination
neg@@
val
Colombian
tentative
questionnaires
posi@@
formats
2.45
Mrs
optimum
groupings
basket
itt@@
л@@
Lands
prevalent
naval
swing
ok
sixty-ninth
streamlined
albeit
ify
meteorological
originating
optimistic
damaging
ert
Except
Living
undertakes
convert
HA
rah
Tro@@
mas@@
Diplomatic
Debt
extract
barrel
attributes
occupations
adopts
upset
dering
Fran@@
immigrant
valley
55@@
eller
implied
Consolidated
ere
N.
Mike
inflicted
ch-@@
wireless
tracks
crystal
Not@@
museum
third-party
tip
was@@
mile
Delegation
disputed
Soci@@
dam
hotels
ho
Book
2,500
gently
bankruptcy
193
simultaneous
ign@@
summaries
preamble
Bir@@
amp@@
mounted
liberal
apartheid
phase-out
Tor@@
retro@@
wanna
hanging
ased
Particularly
compelled
Multi-@@
apped
conceived
Death
Atlas
wastewater
16-@@
Items
ting@@
lung
5.4
warfare
surveyed
barely
wholly
toxicity
imprisoned
timeliness
tious
practicable
Hello
ja@@
Migrants
mice
н@@
rightly
tear
billions
T-@@
flame
relax
pile
relies
bore
apparatus
balancing
Firstly
tery
narcotics
Think
Command
alliances
payroll
classifications
AC.105
shaping
WIPO
nit@@
velocity
exhaust
CCPR
biting
Sichuan
kidnapping
gol@@
journalist
dan@@
reminder
jun@@
rs
logging
pec@@
Dec.@@
collaborating
deter
204
encumbered
53@@
indictment
stamps
classical
Cou@@
Timorese
initi@@
Combined
tennis
activated
compounded
downward
striving
affair
asts
port@@
Class
Managing
aria
home@@
ix
less@@
react
cia
179
Non-governmental
academics
bath
266
Mom
precursors
ola
Plans
problematic
whereabouts
exhaustion
Palau
guilt
keeper
oli@@
lecture
amazing
Authorities
Mul@@
215
utilities
Mas@@
s.
lamp
altogether
disruption
Pass@@
editor
posing
ex-combatants
Water@@
homework
void
steam
Intolerance
short-@@
269
216
infants
bits
Contribution
cabinet
reservoir
defending
portable
Web@@
worrying
sic@@
Heritage
Tehran
vic
hectares
ories
rival
cour@@
constraint
State-@@
abundant
ult
destroying
Commodities
Endorses
disposed
gel
Maria
believing
shake
1,9@@
stered
Medicine
Johnson
overcrowding
exhaustive
Abidjan
inger
Drafting
4.6
temple
hung
chairpersons
Dag
€
play@@
entr@@
Geographical
analyzes
anymore
Lar@@
breeding
mur@@
reversed
Reconstruction
Grenadines
harmonizing
pesticides
ulating
insofar
efficiencies
invaluable
triggered
blocked
dawn
intervals
Ben
genes
contested
Exc@@
locate
abortions
cheaper
projec@@
rable
43@@
Vice
tooth
217
lonely
wealthy
full-@@
trucks
67@@
show@@
gues
practically
Kal@@
Bosnian
cy
expeditious
walks
Mol@@
Preliminary
Restrictions
1.9
beneath
oh
amid
Fax
coercion
Naqurah
classic
tless
pre-trial
colleague
supplementing
pretext
Term
Publications
hero
connecting
ranges
pling
chocolate
ally-@@
Settlement
deli@@
outsourcing
compelling
Clearly
unresolved
calculations
hin@@
licensed
har
vicinity
dé@@
sco@@
tran@@
Andorra
L.2
253
iles
3.7
manifest
uring
Tan@@
plates
sisters
ration
OL@@
reconsider
195
Me
Sao
paper@@
plo@@
FA
bet@@
ax
flowing
Tw@@
Eleventh
police-contributing
mud
MSP
rendering
cooling
suppress
Bermuda
shifts
brac@@
actu@@
Directive
IE@@
lifestyle
affirms
codification
dissolution
stre@@
emer@@
tled
beds
hereby
implements
elaborating
expiry
258
conten@@
non-permanent
childbirth
reas@@
ural
margins
emotions
oxide
Kan@@
deems
ç@@
loads
matched
glory
ght@@
Dakar
Appendix
CTC
LD@@
Wu
Customer
demarcation
Jan@@
Concerned
Proposals
20.@@
effected
ligh@@
announcements
Observations
ric
LRA
Whenever
relying
Thai
life-@@
restricting
á
Sahel
silk
expired
seldom
economical
evidenced
5.
induction
diesel
Lusaka
Seabed
Lesson
bru@@
ni
dat@@
spe@@
centr@@
Pact
alised
mar
custom@@
wn
privilege
foreseeable
PRE@@
anyway
scaling
inform@@
Jews
rockets
ffs
Cypriots
openly
Bon@@
High@@
heroin
PR
accompany
posting
criminalization
heightened
brave
finalizing
Liber@@
groundwater
advocating
predic@@
276
Moses
neutrality
69@@
UND@@
ea
uncertainties
stly
fence
Materials
constituencies
tactics
MAN@@
1966
Securities
cocaine
trauma
escaped
197
lesser
Xi@@
esti@@
tunnel
tan
hydraulic
signatures
routinely
bones
bribery
settling
Principle
Associations
morbidity
beg@@
Ou@@
aquifer
sickness
è@@
func@@
kit
patience
dev@@
juice
19,@@
tune
illustrates
bow
drilling
engines
254
cost-effectiveness
ena
queries
pregnancies
backgrounds
Ukrainian
Gal@@
atrocities
psychosocial
refu@@
Leg@@
agu@@
Sheikh
adapting
resignation
bec@@
Eli@@
main@@
PF
surgical
Amendments
Tal@@
homeless
refres@@
uncle
tail@@
scheduling
judged
horses
peninsula
Darussalam
Kir@@
slide
stabilize
worn
short@@
state-owned
ool
Tonga
zi@@
poli@@
QU@@
-off
folk
lasted
improves
Learn
pel@@
charity
Non@@
Hydro@@
Quartet
mann
biotechnology
Reiterating
rigid
ologist
Los
water-@@
7.1
twenty-@@
upholding
unanimous
menu
19th
Sab@@
polar
flu
Large
reasoning
nurse
adjusting
Sources
18,@@
arti@@
fragmentation
romantic
dom@@
packed
5.6
mathematics
ideology
gall@@
ar-@@
Guangdong
catalytic
spac@@
vice-@@
high-risk
rez
ground@@
template
owe
ffe@@
feared
backs
privately
ek@@
free-@@
climb
Ethnic
ographic
disappointment
midst
twenty-fifth
mathematical
Opinion
clim@@
bus@@
magazines
Oslo
Fire
NAM
repercussions
forgot
dol@@
swee@@
Marino
constructing
Fight
Rep@@
planting
allocating
afterwards
reinforcement
quarantine
psychiatric
interrogation
part@@
Buenos
Contin@@
spr@@
Continental
2.9
sanction
nor@@
CR
eurozone
Ele@@
Reintegration
15,000
Adopt
incremental
ashes
Hammarskjöld
affirm
constructively
Ratification
Aires
NA
tas@@
15th
hex@@
Corporate
Roc@@
HIPC
INTERNATIONAL
wit@@
hair@@
hybrid
prudent
oming
LL
handbook
unexploded
1968
on-site
Hun@@
interpretations
Amnesty
oping
ature
Columbia
Compared
SubCommission
Scientists
gay
fines
ometer
developers
Barack
Vocational
contravention
ame@@
Chairs
264
encies
13-@@
influential
evolve
graduated
promotional
M-@@
quit
prediction
slip
ISO
inten@@
economist
troubled
label
Boards
reparations
aci@@
ram@@
congress
occasionally
disregard
trade-@@
Gazette
11th
Import
yan
Concern
administrators
hypo@@
Circular
proximity
unrest
aches
honoured
ici@@
wooden
guardian
forty
succ@@
223
unliquidated
bureaux
recep@@
Effect
prop@@
ISU
downturn
Collection
n-@@
COR@@
psychology
Stop
ida
extradite
optimism
bombing
Francisco
ison
Sta@@
Uni@@
arisen
oil-@@
capitals
flooding
correspond
brilliant
freshwater
rev@@
stemming
anz@@
deceased
lip
parks
flesh
denying
gentle
ocr@@
tivity
performances
severity
possessed
nights
trap
definitive
ñ@@
ier
Discussions
Investments
seismic
Partners
Plant
treasure
reconsideration
hid
stimulating
intra@@
yen
contends
obsolete
Submission
soup
kil@@
Innovation
MINURCAT
land-use
1,3@@
brutal
invitations
But@@
injustice
acqu@@
influencing
Volunteer
undergone
rem@@
Dissemination
bud@@
Option
Chernobyl
Cross-@@
ación
alle@@
1267
comb@@
1000
On@@
apo@@
layers
biology
illing
phen@@
bad@@
planes
infringement
swim
triennial
Guard
stigma
Software
Pic@@
Notice
GB@@
reconcile
societal
nerve
Srpska
geo@@
asting
2,0@@
stand@@
1996-1997
ly-@@
TIC@@
Gor@@
Leon@@
fortieth
Putin
advertisement
obl@@
revolutionary
vegetable
236
pronounced
Bec@@
poorer
Existing
Bus@@
micro
tips
endanger
ference
sibility
way@@
snow@@
ices
lays
Approximately
iling
dozens
Ga@@
minim@@
1997-@@
intra-@@
frank
aux
depositary
abstract
Dou@@
coup
ICTs
sion-@@
avi@@
sta
associates
objectivity
mortar
despair
grasp
UNIDIR
Vice-Presidents
pivotal
postal
ull
Abdel@@
Actually
liz@@
ose
articulated
automated
Alternative
regi@@
disparity
eline
Strengthened
him@@
bush
44@@
Cri@@
lag
inity
Referring
corrective
predominantly
consumed
entries
Ming
celebrated
collec@@
red-@@
twenty-second
surrounded
Mountain
296
avail
non-core
yields
Janeiro
agreeing
rat
Problems
Han
dness
discourage
ila
Ah
had@@
coral
disc@@
Santiago
decreases
Bad@@
hurry
crow@@
Provincial
fracture
amen@@
Attendance
Shar@@
treatments
Symposium
thered
spell
dental
paren@@
governor
mighty
SIDS
ght
SECURITY
honey
cord
photo@@
indi@@
clarifying
juveniles
Shenzhen
Submitted
amed
Place
cyber@@
osis
peasants
recurrence
declares
Faculty
pick@@
Census
hiding
1,5@@
double-@@
alistic
onom@@
seven@@
etc.
encompasses
tot@@
Host
Camp
1,200
directive
villagers
4.8
thirtieth
Certification
nominal
fat@@
tually
girlfriend
marginal
complying
swe@@
ij@@
Nordic
Too
shipped
20,@@
hosts
hedge
Positive
dent
247
appointing
Scotland
shame
negotiable
Men@@
combustion
vague
Colonel
fitting
inary
privileged
Frank
revising
Syn@@
12th
Kor@@
Recognition
Republika
new@@
Persistent
intake
annum
252
masses
Deeply
265
mill
omin@@
PB@@
Mit@@
altitude
acks
recreational
sacred
ingredients
Technologies
non-profit
Preventing
ues
fool
dire
grow@@
definite
weakened
reminds
hospitality
pursuance
exempt
Monthly
Drought
2011-@@
en-@@
ICCPR
Cra@@
244
responds
traded
Accountability
7.3
intern@@
nat@@
Nauru
directory
Harvard
accusations
itch@@
450
77@@
Don@@
storms
kingdom
3.8
Med@@
irrit@@
Low
Jean-@@
uration
molecular
prioritized
4.7
Tun@@
swift
populated
af
olu@@
institution-building
ied
Abdul@@
presiding
departed
forcibly
finite
T.
Sor@@
debt-@@
scientist
questioning
painted
psych@@
UNMOVIC
ke-@@
246
inspiration
Ow@@
ela
mit@@
far@@
tap
proves
dial
beating
multi
blu@@
persuade
Assistants
Hongkong
Student
Issue
five-@@
ic-@@
Ombudsperson
influenza
Lehman
ples
staffed
gray
vy
materi@@
mut@@
High-Level
fare
tism
IE
DR
culturally
Star@@
hn@@
norm@@
Frente
Price
underscore
Sand@@
unreasonable
232
Ye@@
lows
WG.@@
download
255
Disappearance
exhibit
angel
HO@@
128@@
Sm@@
brackets
deem
jeopardize
Az@@
sentencing
servers
shoulders
orate
physi@@
26.@@
neutr@@
17.@@
ori
LS
238
Excuse
Commissioners
flies
broadening
arid
aki
2000-@@
Ori@@
Arbitrary
distinctive
Irish
Broad@@
mem@@
Position
ity@@
forty-sixth
winds
acclamation
Anyone
Revolution
ema
Shall
mon
687
exchanging
assumes
231
abundance
commemoration
singer
Work@@
Long-term
arbitrarily
Consumer
Scale
wea@@
pass@@
ratione
procur@@
IF
enquiries
turmoil
Nos.
preclude
welding
p-@@
deeds
wells
tuition
expire
Hill
precautionary
panic
Mah@@
amine
Mass
Awards
Leaders
quietly
Speaking
derive
UNSOA
crying
handic@@
Mid@@
Transition
stringent
legisl@@
Less
vii
widest
competitors
forge
expecting
spacecraft
thread
trademark
crowded
warmly
preferable
alls
ballistic
bent
Nicosia
ambition
reader
stretched
ranked
ge-@@
frustration
Gran@@
Cartagena
precondition
sponsorship
matic
Lower
supplements
warplanes
Prize
les@@
Names
Nobel
patho@@
symbols
hamper
supreme
pop
kick
simplify
Damascus
0s
akh@@
Up@@
ashing
avoidance
evidence-based
mented
key@@
somehow
261
dictionary
Cooperative
boarding
Hazardous
plot
North-South
fatigue
inde@@
declaring
petrol
adaptive
charts
AV@@
contraceptive
inherited
profitable
sorrow
PN@@
chlor@@
Nationality
vector
17th
teenage
royal
Ci@@
bubble
husbands
Tang
breathing
homeland
mounting
rapporteur
tripartite
AB
vaccines
fundamentally
Developments
7.2
editing
hand-@@
Instrument
ACABQ
magistrates
emotion
dispatch
．
forbidden
phot@@
evictions
224
Shan@@
Ds
ami
duced
PER@@
preceded
intentionally
attribute
ym@@
Cur@@
here@@
symposium
Older
specifies
prosecuting
Mes@@
SE
seventy-@@
alleges
discriminated
buses
stretch
Cap
Cook
low-cost
imaging
gal@@
atter
paths
chambers
м@@
Supervision
tou@@
Chairmen
prince
Geo@@
Azerbaijani
speculation
Ker@@
collaborated
concise
fixed-term
discourse
Santa
deploying
pressed
eries
drunk
hydrogen
Telecommunications
cut-off
examines
flash
vely
alling
Micronesia
endangered
contradiction
origin@@
dre@@
asi
ić
305
state-@@
tiz@@
án
Database
9,000
cautious
outgoing
hindered
invoices
specification
Subregional
CN.15
Nearly
subparagraphs
Turks
Lim@@
Transportation
IPU
amnesty
sym@@
234
Green@@
redouble
portra@@
frontier
repression
275
-year
Has@@
psychotropic
communicating
Help
lethal
that@@
principally
persisted
8.5
shifted
Co-Chairs
petitioner
concession
Eighth
45@@
rey
discrimin@@
tense
Carlos
government-@@
CN.7
MOP
Amount
congratulated
fellowship
2009-@@
prioritization
priv@@
mayor
lowering
cements
floating
tian
pale
Rol@@
Meteorological
Rapporteurs
disturbed
lit
1958
Payment
impressed
iti@@
explosions
unsafe
Dem@@
Eng@@
attorney
Handbook
discrepancies
arch@@
incorporates
Nobody
promulgation
nonproliferation
call@@
X.
Lou@@
suits
condolences
REPORT
CAR@@
hadn
upgraded
Hum@@
rep@@
Bio@@
cigarette
custodial
inspected
taining
Attention
enclosed
Contractor
neighbors
verbal
oldest
Mount
defamation
ito
administrator
18th
diversify
family-@@
Approves
solemn
reside
asserts
SL@@
Vision
opponents
rain@@
Nan@@
brands
POPS
critically
Shu@@
hills
compensable
varieties
professions
attachment
о@@
contacted
Focus
coefficient
impeded
cel@@
landed
donation
tumor
Bab@@
preferably
manages
microcredit
sticks
criminalize
unforeseen
ble@@
ele@@
accommodated
coating
hierarchy
depend@@
ICA
priest
fran@@
devised
ula
scattered
layout
fifteen
Cho@@
bride
Premier
motor@@
Purpose
al-level
forgive
lap@@
DVD
jec@@
gal
ignorance
quick-impact
indebted
refusing
Pakistani
ISAF
organ@@
anxious
Windows
furthering
vent
thers
338
PRC
comparing
Value
robot
vein
17-@@
Stocks
Post@@
erate
encompassing
Stanley
Ali@@
Bol@@
relieve
Cambodian
entrepreneurial
educators
NAP
bargaining
ure@@
245
merged
outlining
bum@@
Exploration
impaired
affection
reprisals
drama
Fellowship
sealed
és
uri@@
non-Annex
Ran@@
slower
conscientious
ment-related
neighbourhood
regul@@
dismantling
rence
eaten
jail
slum
s-based
Commun@@
pas@@
automobile
fted
careers
expires
drops
sid@@
se-@@
recognised
Seoul
13th
dishes
KFOR
Xenophobia
self@@
scarcity
pray
Preventive
300,000
Susan
agro-@@
xed
Jan
private-sector
musical
repetition
rhetoric
66@@
ocy@@
warranted
forefront
zer
MIS@@
arily
Anguilla
drag
sorts
colonialism
End
fuzzy
generator
respondent
forty-seventh
polling
wounds
Start
cont@@
subordinate
paradigm
worsening
Vol
traveling
stranger
discharged
283
wid@@
Governors
Ful@@
removals
faults
stor
detecting
RS
BA
pan
usable
retreat
219
medium-@@
jum@@
earning
Reducing
stockpile
conferred
Product
ICPD
equilibrium
reformed
overhead
pit
facilitators
unstable
Prisoners
enhances
Antarctic
drain
DPKO
Ara@@
Khan
Pending
Abuja
contra@@
Agreed
confused
ball@@
develop@@
Structure
Confederation
Bat@@
Composition
fishery
descriptions
pesticide
convince
alloy
distributing
Lam@@
ght-@@
eminent
Vice-@@
Stock
py
Terms
confirming
Lev@@
activation
deteriorated
drug-@@
sizes
battalion
isa
mi
Cayman
recreation
professionalism
letting
16th
sb
ree
escorted
insight
poll
POPs
supplying
14th
Step
inspect
subjective
idal
Doctor
assertion
didnt
MP
featured
spi@@
Coast
25-@@
Hen@@
Sex
programmed
Tome
1964
sums
voiced
solitary
DEVELOPMENT
advising
anno@@
Dam@@
airline
woods
Sam
bite
co-sponsors
temp@@
Mari@@
shoe
impediment
nom@@
Str@@
matches
Ahmad
Delivering
endorses
clarifications
throat
Para
Palais
electronically
UD@@
Captain
sty@@
destined
cer
prayer
nas@@
differing
Pollution
Corp.
colon@@
china
blast
aka
respiratory
distribu@@
odd
perpetu@@
Kin@@
Replace
Strong
underrepresented
migratory
electronics
aran@@
mus@@
dispatched
Firearms
289
irregularities
superiority
delimitation
Ze@@
easing
tionally
facilitator
Card
backing
defensive
udes
joke
outlets
Kyrgyz
IM
usting
endless
siveness
stering
pre-session
pity
multifaceted
Palace
cognitive
tization
medication
vor@@
morality
grey
100@@
det@@
churches
smoothly
lun@@
Freedoms
controller
origins
Helena
Moon
grantor
LEG
Hassan
Sel@@
Ki-moon
Whereas
jacket
undermines
shar@@
seabed
intr@@
Lessons
litres
xes
XX@@
acquisitions
usti@@
MP@@
critics
conflicting
experi@@
inscribed
precursor
&apos;I
sector@@
kings
deliveries
Claimant
Estimates
simplification
coping
Teachers
clean@@
Goma
Telecommunication
EF
bedroom
sporting
projection
Ya@@
registers
empirical
intim@@
rever@@
minimizing
poin@@
Guangzhou
Slovak
brokering
TNCs
DPI
365
De
Lab@@
coll@@
berry
herein
entirety
idity
Detailed
lin
Entry
materiel
SPT
trade-related
scopic
los
Texas
replenishment
slowed
URE
heed
thetic
mechan@@
rainfall
Top@@
champion
rays
1701
ologically
poultry
Gas
consequent
subregions
supervised
ologic
Hus@@
e-commerce
ee@@
steal
CF
fits
Gr@@
rationalization
nearest
tage
INTERPOL
peacemaking
itors
Montserrat
Certainly
transforming
landmark
Collective
kid@@
shield
Check
advisable
MC
slope
19-@@
rope
Wales
ona
2002-@@
anim@@
bom@@
Principe
eman
assemblies
warnings
edi@@
Forestry
nie
Win@@
acies
Update
aero@@
trades
gentleman
257
dropping
dupl@@
nam@@
analyst
ugly
Century
microwave
reactor
vating
yielded
mist
Naz@@
historically
bes@@
mes@@
searches
XVI
faithful
rub@@
rings
Disengagement
noteworthy
pound
tech
desperate
unilaterally
272
2004-@@
1950
collateral
Andean
masters
vicious
interrupted
ilateral
chi
alk@@
Afro-@@
BWC
toilet
dispose
trains
kov
modality
Connec@@
resem@@
°
quadrennial
subnational
Sem@@
jure
script
cab@@
query
receipts
mid-term
capit@@
Nation
fierce
kar@@
land-@@
2030
homo@@
Belgian
Village
aquatic
shut@@
Tin
Offences
assistants
6.4
regulates
repu@@
Sr
Ky@@
Spe@@
25,000
passports
breakthrough
enduring
seasonal
shots
pulse
Compu@@
CRP.1
Fal@@
unequivocal
2003-@@
Encouraging
ora
Add.4
ik@@
Consultants
yi
action-oriented
Ric@@
streams
costing
charging
Populations
mess
kindness
revol@@
Assets
ials
numbered
infl@@
Points
risk-@@
pir@@
rear
shine
shook
communicable
Options
sends
Soon
non-communicable
ions
memb@@
avenues
aud@@
23.@@
sentiment
designer
fined
modal
gotta
259
Banking
WP
hostage
weren
Earlier
withdrawing
multimedia
Taylor
itis
1945
night@@
vegetation
met@@
styles
plum@@
real-time
WG
ICTY
spirits
goodwill
mercy
vitamin
Recruitment
bowl
discontinued
Vir@@
1514
ows
oper@@
sessional
premise
rents
democracies
Es@@
acceleration
unhappy
280
Athens
precedence
commendable
Yearbook
Title
ion@@
Cel@@
249
Implement
Practical
posters
overlapping
originated
Associated
chaos
1998-@@
smiled
var@@
prescription
Fil@@
as-@@
persu@@
popularity
preconditions
Illegal
Ill
Florida
refine
288
fix@@
64@@
employ@@
Dum@@
draw@@
85@@
expan@@
servic@@
Expenditures
Outreach
knee
troop-
master@@
garbage
acle
Algerian
commun@@
beef
plas@@
TP@@
piano
genuinely
ECOSOC
Shel@@
AA
belonged
meth@@
dic
24-@@
Hope
owns
computer@@
laughter
nes@@
stic
ME
22-@@
exp@@
thi@@
iss
repeal
powered
ept@@
Societies
extensions
otes
Baltic
rejects
Tam@@
character@@
Cop@@
Majesty
proportional
reb@@
stric@@
ouring
bag@@
vaccination
tum
proving
bot@@
Biodiversity
orange
Interpol
weaker
breastfeeding
ried
postpone
aqu@@
warrants
orous
controversy
inated
ope
8.3
furnished
Thirteenth
Far
broadband
antiretroviral
Week
friend@@
good-@@
positioned
abandonment
Tunis
midnight
nowadays
Sarajevo
Muhammad
aston@@
thin@@
institutionalized
Wen
impasse
NG@@
commemorate
genic
green@@
Hussein
lord
resin
founder
Bil@@
DAC
Ven@@
merchandise
Angeles
mig@@
nings
XX
footnote
adhered
cents
Advanced
Whoever
aa
throwing
nes
gie
aids
Id
Mess@@
Rice
improper
instruc@@
TN@@
photograph
Leadership
vered
SME
mod@@
speeches
catalogue
punitive
tioned
je
cease-fire
Algiers
zation
V.@@
M.@@
maj@@
duplicate
oting
fications
pend@@
disappear
Trends
Assist
flee
menting
assembled
Identify
amin@@
Continuing
twenty-sixth
Collec@@
disagreement
membrane
authoritative
videos
Goldman
plasma
ascertained
age@@
ICTR
Sure
raped
ques
Ask
intentional
paramilitary
drives
policy-@@
presumed
particle
hostility
universalization
tial
Bob
drainage
slowing
futures
Mediation
Clinical
reck@@
cian
stopping
isc@@
FS
pm
protections
shor@@
una
bids
discretionary
asym@@
fet@@
diminish
telecommunication
ratifications
Indic@@
IOC
unite
FDLR
Map
Star
21-@@
Pierre
Ibrahim
side@@
assert
Railway
identities
tle@@
swiftly
Aliens
bicycle
nar@@
Had
5.7
visions
Antonio
handsome
Clean
arguing
27,@@
co-organized
Create
Signature
textile
organiz@@
solvent
Cla@@
Sti@@
shaft
innocence
manifestation
mined
retaliation
ism@@
slept
yeah
drawdown
discharging
brow@@
loop
PIC
medal
eous
Offenders
maxim@@
Paulo
mount
revitalize
simul@@
door@@
regionally
temper@@
tories
elled
risky
blank
Determination
lover
depletion
domination
sional
biased
recurring
NS@@
trusts
horizon
Identical
clever
ints
DIS@@
dium
races
fron@@
AGENDA
aesthetic
quanti@@
Effectiveness
enlargement
milit@@
inven@@
Resistance
individu@@
292
sleep@@
onset
Luis
forty-fourth
waiver
ette
.It
Literacy
impacted
eco-@@
Mainstreaming
Telephone
ant@@
Rab@@
forty-fifth
thly
patri@@
Lec@@
hil@@
Minority
zes
iter
shop@@
smar@@
memorial
rati@@
counterpart
performs
compliments
reli@@
Rou@@
Andre@@
239
Miscellaneous
trick
Sub
backdrop
anthropogenic
forged
avert
fraudulent
tribes
shower
stops
Horn
Buildings
fast@@
ov@@
s-related
elite
EP@@
boring
geography
Mental
diverted
262
ift
peri@@
Ol@@
locks
Definition
Reproductive
marke@@
chiefs
youre
faction
conve@@
indefinite
256
riding
229
INF@@
Banks
Operating
turn@@
toys
unwilling
famine
insi@@
crimin@@
jiang
armoured
logistic
refuses
backward
Mercury
acknowledgement
bal
declines
maximizing
third-@@
RMB
gh
expose
Louis
....
Say
asc@@
Africans
onian
uation
techn@@
ells
presidents
consume
manpower
fore
proportions
aser
Caicos
Processing
charitable
overflew
practised
Macau
prevailed
ENGLISH
Councils
stop@@
relay
weakening
cred@@
modelling
poetry
Van
practise
OP
Yuan
biomass
78@@
lodge
subsidized
than@@
Democrats
torn
defect
desktop
54@@
overnight
poppy
mild
wi
Comment
aking
deletion
Pollutants
eds
eman@@
Khal@@
polymetallic
cent@@
1965
Victoria
contraception
assassination
Ford
Po
TP
Were
Juba
Parents
defences
Senator
lab
sells
diameter
OCHA
RM@@
atically
EEC
trapped
Claim
discer@@
igh
jar
income-generating
pig
Fle@@
contempt
Son
thickness
scenes
B-@@
Law@@
liness
stic@@
ares
cut@@
pin
cross-sectoral
pole
Laboratory
pig@@
Us
ique
indices
FM@@
editorial
.A
DP@@
prin@@
Mining
ank
Return
addiction
war-@@
VA
vain
Dominica
cheese
PE
decrees
destabilizing
Pay
displays
bankers
ever-@@
263
region@@
supervisors
scared
modeling
cultivated
issu@@
Abkhaz
imposes
did@@
detriment
testify
pools
Closure
quad@@
Continued
inland
Bridge
O-@@
tops
Shelf
mask
achment
contemplated
tours
suffers
convincing
life@@
meanwhile
impro@@
public@@
Vari@@
atism
unjust
quick@@
L.3
fatal
py@@
mas
acked
obstetric
Stre@@
Globally
dwellers
Ther@@
ladies
Published
twenty-seventh
Oper@@
aph@@
Chin@@
detainee
mindful
sth
atized
Sale
EL
aked
gotten
moisture
casual
rais@@
baggage
285
mono@@
hotline
aw
88@@
soccer
Gl@@
wide-ranging
Mun@@
1962
Greenland
Music
Job
elegant
macro@@
316
advertisements
stag@@
depressed
sics
disbursement
gates
esa
notices
Ty@@
aim@@
ACT
Federated
Juvenile
ption
Albert
axis
forging
sk
Add.1.
gad@@
WA
prints
ll@@
GNP
Broadcasting
ulated
Specialized
Important
Art.
glance
bienniums
Nowadays
aut
subjec@@
Had@@
5.8
akan
sures
gly@@
adap@@
depreciation
influx
oted
provisionally
width
Chung
Represents
ails
Online
ado
ylene
Achieving
realm
fel@@
possesses
batteries
Juan
Amman
CONTENTS
judgments
Strongly
ation.@@
Appropriate
differentiation
trem@@
insights
Hil@@
devil
bare
Investig@@
closures
zy
lear@@
Bilateral
Main@@
whis@@
inferior
compiling
classi@@
mates
stum@@
к@@
Unemployment
Everybody
stepping
Preparations
creatures
impl@@
Barcelona
ordering
Helen
invisible
cere@@
scoring
secrecy
ample
Indi@@
hes@@
castle
UNS@@
4.30
Benjamin
elders
sensors
xing
tness
per-@@
culmin@@
affiliation
aug@@
haz@@
harness
No.@@
quake
Obviously
Asset
2010-@@
ITA@@
vit@@
illnesses
deformation
dual-use
selectivity
construc@@
CONFERENCE
permissible
PROGRAMME
bail
calcul@@
repository
knocked
paintings
specifying
chro@@
searched
Commends
erred
Cold
Close
Fifty-third
Kashmir
Fel@@
ful@@
Autom@@
prospecting
Operative
disbursements
sionary
O.
rying
Sound
plac@@
Notification
dum@@
entailed
Demand
rewards
technicians
gauge
envisages
6.6
mercenary
relaxed
р@@
end-of-service
commencing
•
Proceedings
washed
fic@@
Mic@@
mun@@
1995-@@
sink
endure
Vietnamese
oid
21.@@
Stephen
analy@@
lead@@
eld
boyfriend
SNA
DM
Benefits
FPA
anti-discrimination
fish@@
360
6.7
Accel@@
underscores
Enhance
criminalized
Punish
standpoint
Mam@@
290
beans
prepares
terrestrial
princess
pink
depic@@
omission
1946
alteration
mentoring
hop@@
fid@@
enforceable
Examination
nominate
Kh@@
Terrorist
coding
Lima
4.9
recruits
itations
Leave
essay
Someone
Ear@@
tained
a-based
Revision
correctional
GH@@
forty-third
juncture
burg
deterrent
checklist
purview
Numerous
OTHER
lens
cy-@@
dependants
lum@@
fitness
compensated
Facilitator
Occupational
Years
sured
UNOSOM
10.30
Gold
fit@@
12-month
Cell
Macroeconomic
tible
elle
Inter-Parliamentary
dull
electr@@
delicious
Suddenly
shortfalls
donated
Mak@@
has@@
grandfather
march
dun@@
Forthcoming
Hi
collections
ér@@
EU@@
humane
MAL
nitrogen
vag@@
creature
embark
intimate
1954
poet
Kat@@
ratings
nonlinear
moti@@
tactical
hes
blade
wolf
vari@@
Save
Jordanian
open-@@
Wong
rude
clay
FROM
Kigali
icating
happily
mini@@
muscles
Nile
web-based
OPCW
ld@@
flour
reforestation
Proportion
COM
murdered
Abdullah
inclined
ont@@
smiling
Grant
ram
neighbor
anism
Elements
acking
Bak@@
tina
mystery
underway
resilient
petitioners
Ken@@
lou@@
collapsed
yers
sodium
Dangerous
CRPD
uro@@
altern@@
manipulation
publicize
cross@@
Ev@@
Search
rant
motives
warn
Gil@@
yo
loyal
time-bound
healing
favourably
qual@@
SAICM
40,000
Steps
scholarship
IU@@
substantiate
MEETING
occasional
ader
True
il-@@
sediment
ITY
ept
Spirit
unification
co-sponsored
Something
jurisdictional
econom@@
aus@@
CERs
implicit
Above
food-@@
ican
pric@@
ú@@
friction
Insolvency
ordin@@
bonus
criminality
condemning
Christians
ité
bridging
bury
Mechanisms
Harmonized
critic@@
topo@@
nel
stac@@
batch
Adequate
palace
accords
CSCE
energies
bilingual
bans
induce
corridor
Avenue
Recei@@
memorandums
pro-poor
space-based
grief
approves
Summer
Alma
UNISFA
compromised
89@@
concurred
Lead
Chan@@
SGB
Tony
lash
unsatisfactory
Active
Need
winners
Pot@@
clerk
gic
Prof@@
adjudic@@
`I
authorizing
Complaints
tionist
directing
lan
functionality
Negotiations
2001-2010
incorrect
ume
serial
CESCR
endemic
edly
304
fraction
rushed
venues
indoor
alty
Individuals
enumerated
check@@
super
peasant
Mom@@
funeral
pharmac@@
Fuel
Attorney-General
rod
ul
oa
effec@@
tak@@
ICE
eded
Pearl
massacre
twin
intensifying
It@@
Att@@
&apos;a
Medi@@
retirees
Lady
Trading
inspire
researches
Ping
lob@@
queen
las@@
7.4
socio-@@
corrosion
medic@@
intangible
Angolan
23-@@
plaintiff
Disappearances
Square
Steve
mou@@
surfaces
symbol@@
XVII
tex@@
repatriated
sam@@
Nat@@
Efficiency
atures
weaken
Guided
Few
outdated
8.1
near-@@
9.5
itory
unlimited
jan
Lawyers
deepest
Savings
miners
mac@@
PFOS
Zaire
seemingly
ound@@
sunshine
columns
Nar@@
prejudices
reluctance
Super@@
gaz@@
incommunicado
luggage
aned
stole
leakage
peers
thief
John@@
alizes
oes
eving
financi@@
Kitts
Referendum
cameras
Keywords
wer
FIR
Read
fi
ousness
Happy
involuntary
arization
ender
267
path@@
ATE
.鈥
crossings
Available
lean
Fon@@
Representation
itating
summarize
asa
tened
Safeguards
man-made
probe
bra
Ongoing
TE
unwanted
Arti@@
pap@@
rop@@
colored
Len@@
geospatial
reciprocal
knock
shy
cave
Nevis
fem@@
heated
Fortunately
ranged
backup
delighted
grandmother
after@@
formalities
Mir@@
Princess
Safe
butter
checkpoint
0.3
Rs
fir@@
interlocutors
eth
Acknowledges
Navy
id-@@
validated
ML@@
pp.
Remote
tz
Chang@@
Awareness
scar@@
survived
Entebbe
Yu
Theory
ESS
trainees
lity
Citizenship
KP
mainstreamed
indul@@
SESSION
persists
Plus
WITH
Counter@@
286
possessing
III.@@
Comp@@
thirty-eighth
Ok@@
cultivate
nut
Fri@@
textiles
clear@@
fast-@@
password
kilometers
Finnish
refin@@
worlds
қ@@
itate
fake
ET
one-time
Havana
human-@@
furnace
profiling
blessed
lenders
useless
annotations
licenses
Teacher
grouped
educating
benef@@
erring
R.@@
abnormal
exhibitions
Ontario
PD
Steel
timeline
dried
ero
Stamp
deaf
Slavery
drafts
Clo@@
Inclusion
Laundering
climate-@@
responsiveness
22,@@
VE@@
ND@@
verdict
swear
Philippine
strides
forty-second
Luc@@
needy
climbed
PH@@
authentic
revert
dressing
ood-@@
clandestine
algorithms
Gates
Around
ste
bon
Nigerian
akers
translating
ailing
Shan
Responses
tra
AIN@@
RECOMMENDATIONS
crown
FP
ance@@
MERCOSUR
Costs
exempted
Champ@@
escence
Estate
Corrigendum
Regulatory
Merc@@
cit@@
fitted
pluralism
Liability
SB
Maternal
talented
ting-@@
invest@@
287
icate
arch
envelope
sar@@
SUB@@
ence@@
efully
wanting
129@@
level@@
closest
н
L.4
kle
debated
symbolic
stairs
24,@@
worries
strengthens
one-year
Madam
Creating
lowered
bullet
gation
11.30
ku@@
Industries
handful
Yesterday
Speci@@
decor@@
Residual
Suppress
vis
1999-@@
tap@@
austerity
on-line
Collaboration
insti@@
aspiration
Facilitating
---@@
Needs
betra@@
sey
bull@@
oul@@
Ceasefire
Pitcairn
breathe
Virginia
webcast
distr@@
naked
blamed
inning
corresponds
UNA0@@
Nations-owned
ung@@
U-@@
shr@@
inhabited
Nutrition
screw
Equally
flown
425
lingu@@
registering
Hungarian
Unlawful
self-reliance
non-traditional
overlooked
mable
eding
1244
laughed
exacerbate
strife
Anti-Corruption
learnt
inch
impairment
gling
node
round-table
Catherine
wondering
ook
aluminum
shocked
desirability
Karabakh
tain@@
9.3
hn
Pristina
blog
ecology
radiological
Regrettably
3.9
lessness
statelessness
obesity
pulling
hopeful
scri@@
Equ@@
vable
MYFF
Kon@@
yn
Inv@@
Vehicle
Boundary
Civilizations
seated
MEETINGS
Saharan
rest@@
los@@
EG@@
Comparison
disbursed
neighbour
der-@@
Add.5
23,@@
auditor
Inter-agency
Xinjiang
conden@@
t.
herd
consortium
duction
nowhere
liqu@@
proportionate
hall@@
fiel@@
COP@@
satisfying
ply
opponent
bless
yu@@
consuming
Marketing
prohibitions
Ivoire
Jacob
contraceptives
ati
pitch
zo
Manufacturing
policemen
frustr@@
Co-operation
earthquakes
sinks
vitality
Wait
span@@
hia
ck
garage
Bom@@
snake
knowledge-sharing
conference-servicing
supervising
Kampala
1990-@@
unfounded
cum@@
Coc@@
obey
self-assessment
Researchers
nest
odds
dest
LA@@
CCA
tireless
fragmented
sunlight
intensification
ASSEMBLY
279
Expl@@
prob@@
ary-@@
inefficient
outward
stems
widows
calcium
verifying
absor@@
steep
implication
eas@@
Equity
orbital
eping
Recommended
281
Stability
Creation
apples
spectro@@
č@@
organizers
sten
gir@@
fifty@@
anth@@
Transboundary
Description
invoice
MI
sph@@
demonstrators
gods
INTRODUCTION
objec@@
countless
oration
Net@@
INF.@@
emia
cide
Rapid
drying
pets
architectural
Limits
retire
out-of-@@
richest
golf
oppression
mid
catastrophe
Mahmoud
bie
Collaborative
onia
overseeing
appetite
Tow@@
XL@@
az
delight
subsection
Loss
recovering
forty-first
ador@@
Institution
tant
backstopping
depleted
lining
Previous
ood
honesty
RB@@
Wel@@
SB@@
Prosecu@@
cables
rad@@
Lin
Acc@@
ather
gasoline
catering
Extradition
268
Rent
ripe
Period
Valentine
shit
nal
parti@@
wrapped
unpredictable
stran@@
750
obe@@
mic@@
Vice-Chairmen
EST@@
atics
enclosure
Inalienable
authentication
cle
pro
Edward
omy
outdoor
Investigate
cock@@
repayment
Hab@@
Alexander
eff@@
may@@
Song
buo@@
Sho@@
Delivery
defeated
Plac@@
victimization
laughing
124@@
teenagers
99@@
BiH
Simon
reuse
Travel@@
76@@
confession
tren@@
Petro@@
Opportunity
perfec@@
continents
burnt
scor@@
Caucasus
GROUP
globalized
Ugandan
Tou@@
non-interference
Electric
uled
combines
Mohammad
ocean@@
prec@@
reporter
produc@@
ENT
Monrovia
Zi@@
Advocacy
N-@@
HCH
behold
transi@@
excitement
quote
wool
six-month
bother
humor
bench
tory
kins
weigh@@
inge
blocking
Tong
toy
fertilizer
UNISPACE
plat@@
aj@@
tability
induc@@
Arm@@
hed
attraction
thirty-fourth
uniformed
broadcasts
bathroom
unrestricted
collision
ager
Exhibition
diagnosed
sky@@
lovers
Rate
0.6
elastic
astic
extracted
reserving
2050
cow
irrelevant
ssi@@
bab@@
susceptible
TED
aquifers
6.8
fig@@
demobilized
attacking
mot@@
fastest
valu@@
alleviating
PLC
ock
Monitor
mechanics
nt
·
misery
eship
enrich
magne@@
guardians
273
unused
UNAMIR
rene
regain
ston
stration
abstr@@
Alan
industri@@
curious
ulations
wasted
ported
ken@@
Dubai
morph@@
nul@@
REL@@
Tex@@
utter
socialism
refining
intermediary
facial
nuts
struc@@
afforestation
tale
Ny@@
manifested
defen@@
imag@@
wou@@
explanatory
Ann@@
2002-2005
-wide
professors
bou@@
stant
pervasive
consensual
referenced
24.@@
aga
277
motive
dispu@@
Publ@@
synthe@@
reiterating
JP@@
lower-@@
Consul@@
sque@@
appliances
Š@@
Sami
desires
elder
Academic
organizes
cyclical
Hollywood
inhi@@
me-@@
operationalization
kidney
Crown
accum@@
institutionalization
widen
Sect
In-@@
chat
rel
Ide@@
therap@@
sively
Milan
gender-related
Burundian
fasc@@
pdf
Completion
flow@@
bis@@
Corps
pirates
graphics
generously
ual
Revenue
sac@@
Rose
secu@@
atan
Codification
Fam@@
broker
physician
pockets
protesters
Kiribati
anticipate
Ituri
spray
Swe@@
75@@
XIX
erated
compan@@
catastrophic
22.@@
asbestos
indivisible
infrared
soc@@
ION@@
ially
Postal
proxy
gence
watch@@
unt
deter@@
Long@@
274
XXI
CGE
other@@
iner
Nur@@
Kaz@@
neighborhood
end-@@
demolition
lifelong
generates
Unions
tolerate
Republicans
poem
rains
oe
substitution
comparisons
Sydney
ady
people@@
disrupt
advantageous
dissolved
ambitions
t-based
equations
Disposal
28,@@
UNCT
sni@@
NASA
troubles
ason
dairy
procured
policeman
Layer
extingu@@
Responding
prototype
sensitize
some@@
wholesale
tol@@
Emerging
PARTIES
fixing
citing
oud
exceptionally
omen@@
McCain
inconsistencies
asi@@
condi@@
Languages
Sig@@
museums
construed
22nd
cloning
Jin@@
Nine
IVE
transporting
ital
resolutely
Activity
contradictory
Wen@@
grams
Frequ@@
Fs
oz@@
fronts
grounded
Find
franch@@
interpreter
auc@@
sits
Well@@
fancy
subsidi@@
channelled
conditioning
chop@@
computerized
climatic
tains
∙
reciprocity
ulous
stationed
blan@@
AI@@
Dol@@
divorced
dable
Memorial
sensible
stalemate
temper
WE@@
Event
additions
ICT@@
scription
ograph@@
year-@@
,@@
CP.7
torch
psycho@@
week@@
loyalty
touching
Dha@@
stall
Der@@
2008-2011
min
repl@@
ent-@@
visitor
bow@@
domains
mond
ret
Fir@@
SI
Seven@@
adventure
FF@@
clam@@
Kafr
Cancer
uded
poisoning
torate
vibrant
Always
folded
xenophobic
shade
portions
value-added
ä@@
Sarah
25th
contention
achievable
speeds
paste
borrowed
brother@@
embassy
Dom@@
Covenants
earnest
Top
Ouagadougou
Depending
Cab@@
ules
imperi@@
Andrew
lateral
expiring
crip@@
Fiscal
spiral
concurrently
Release
Gri@@
finger@@
boosting
brokers
Tel@@
Commitments
addic@@
inking
09@@
Hai@@
Jakarta
brigh@@
eleven
proportionality
Used
б@@
compens@@
Bul@@
Rus@@
sins
8.2
7.6
7.
aled
atin
fluor@@
IV.@@
exhibits
dominate
kh@@
deriving
Puntland
Aqu@@
bian
Disputes
dict@@
Maz@@
ARY
climbing
BE@@
gor@@
etic
5.9
Tuberculosis
tenders
hij@@
competitions
tightly
Vit@@
breeze
ERS
25,@@
eable
importation
79@@
mixing
thirty-ninth
deep-@@
Shen@@
Delegates
interruption
NO
poured
11,@@
ental
bah
esting
Yan@@
operation@@
Junior
ANT
Jun@@
cadres
infantry
disturbance
brains
gratis
mud@@
Issu@@
Pay@@
Translation
glob@@
author@@
behaviors
deck
awa@@
Sanitation
lane
resigned
LY
ze@@
nur@@
Mars
fall@@
uniforms
maid
fostered
GPS
penetrated
right-@@
fts
researched
dig
confessions
Eradicate
rivals
cooked
icing
cruise
launches
destinations
variances
respectful
SPLA
aboard
0.8
ington
electron
finishing
iti
behave
tiveness
objected
Guarantee
Ground
dled
doctrines
Chair@@
23rd
Adam
interpreting
conduc@@
inte@@
Europeans
fting
deadlock
Abdul
stan
Organs
Balkans
Isa@@
aks
eternal
detentions
ERW
misleading
Mou@@
engages
oke
1960s
ы
m-@@
par
icable
twenty-eighth
Judah
subtle
viewing
Selection
presided
DDT
a.
floors
hed@@
weigh
indefinitely
switching
Gam@@
corridors
26,@@
companion
compel
Starting
solicitation
uk
Outlook
271
Electrical
vine
heal
rally
Le
Dalai
bands
milestones
understandable
soap
stabilizing
habitat
polymer
Add.1-@@
ament
Hybrid
airlines
disappointing
Rican
trail
corpus
specialization
ured
Qi@@
onwards
dirt
Tari@@
interconnected
math
Pos@@
Fore@@
Contemporary
Abd@@
Hot@@
Emperor
IND@@
Buddhist
co-chairs
stipulate
Parts
equip
Download
confid@@
IGAD
balls
representations
Fifty-seventh
Witnesses
tiger
Live
drill
standby
invented
Kennedy
Coordinators
Disease
Hay@@
Py@@
enquired
cellular
resource-@@
tackled
Ah@@
Shipping
trans-@@
tool@@
cervical
Jam@@
disastrous
PM
thirty-seventh
tem@@
Film
Contribu@@
well@@
pave
REG@@
tress
Including
dining
ache
timelines
raft
synchron@@
deported
estive
Sad@@
Re-@@
Pun@@
foolish
joy@@
CH
thful
Bay@@
N.@@
303
informative
looting
Oxford
graph@@
wl
reimbursed
dispersed
Pas@@
Interpretation
governorates
cousin
ria
unutilized
mium
siege
repe@@
295
dys@@
Boo@@
UF@@
anian
harbour
entrust
cigarettes
bay
ão
196@@
stigmatization
ared
abil@@
itary
Reading
grievances
Canal
spontaneous
diagram
eal
longest
ao@@
Mem@@
cision
bolster
encro@@
apologize
Kra@@
pot@@
exporter
blew
Established
smallest
acity
Jackson
sweat
AK@@
GNI
compassion
Bible
VC
ug
centrally
len
gered
anticipation
internation@@
282
GNSS
Amended
picking
appealing
favourite
30,@@
grammar
tac@@
swept
wicked
J.@@
vest
unregulated
loses
Kis@@
320
brick
flag@@
worm
UNMO@@
mysterious
shaking
lik@@
Dun@@
pris@@
comparability
stimulants
Good@@
air-@@
thirty-sixth
L.7
compl@@
Show
Standardization
Nuclear-Weapon-Free
man-@@
markedly
blanket
2018
Zhou
aggravating
zh@@
tolerant
anti-dumping
criminalizing
kis@@
overly
Islam@@
disagree
OB@@
zinc
PM@@
Wol@@
vigilance
supervisor
practiced
itous
RESOLUTION
Who@@
pigs
Usually
Damage
cad@@
extractive
expendable
ught
asing
50-@@
stal
prerequisites
dd@@
repaired
hen
newborn
devising
Euro
opt
Prote@@
INTER@@
dynam@@
Employees
rainy
bye
rehabilitate
compression
1996-@@
accidental
tending
dropout
blowing
deliberation
reversal
variability
Extraordinary
plantation
ulates
Regi@@
AG
descendants
CSOs
cau@@
whilst
wom@@
biom@@
pens@@
evidentiary
viewpoint
Basin
admire
acon
medium-
negligence
Liqu@@
FNL
Jer@@
bleeding
enlarged
RBM
278
mortgages
perceive
Reflec@@
aster
stockpiling
6.
302
deprive
cers
Honourable
big@@
Successful
ario
esh
intrinsic
charm
Seek
ots
probable
L.6
avian
scandal
shapes
remark
Tower
gement
asted
cylinder
M23
sman
broadened
unhindered
tment
Demobilization
asis
Laden
complies
Maori
Fine
gesture
domestically
tribe
bottles
evapor@@
12,000
Peninsula
lately
amy
work-@@
Hi@@
abusive
modernize
Revitalization
feder@@
Yi
1955
ONUB
lag@@
Prof.
Prohibitions
slipped
or-General
Ox@@
polio
opted
endosulfan
juridical
revive
ECONOMIC
step@@
Vladimir
penetr@@
slan@@
kl@@
sanctioned
Half
63@@
dealers
Nik@@
needle
cocoa
uted
Cen@@
lawsuit
ghost
insects
TEC
gravely
lobby
infringed
designers
Israeli-Palestinian
Cheung
330
Kab@@
situ
horror
Publication
fu
modifying
7.8
inhumane
curbing
Vis@@
jam@@
spra@@
writes
immun@@
sal
SERV@@
Experimental
eigh@@
Bran@@
non-members
electromagnetic
pow@@
zo@@
enting
comparatively
siders
Num@@
&apos;S
ARTICLE
Tunisian
termin@@
pie
Transactions
knees
businessmen
301
uplo@@
ean
know@@
Ive
stays
Descri@@
subsi@@
ophysical
Dan
doses
irresponsible
deser@@
spill
emperor
917
expended
3,500
null
lively
EULEX
foam
infec@@
lip@@
Union-United
dling
insertion
cats
AF
theat@@
ok@@
idle
Protecting
overe@@
gle
sail
distances
pipes
particulars
embraced
stom@@
aluminium
Xia@@
S-29@@
literally
terrain
Biennial
hman
Missing
Sla@@
eric
multicultural
scenery
Jiang
hast
actress
Strait
Compar@@
CFCs
cher@@
eing
accessories
Lu
ician
margin@@
non-formal
ong-@@
Objects
ui
locating
thirty-third
Balance
8.6
Chan
atorial
bloody
hook
imagery
protectionism
Twenty
telec@@
WA@@
formidable
outbreaks
releasing
dignified
29,@@
DD@@
torial
Words
sic
ashi
derivatives
tern
it.@@
Site
Fifty-ninth
Turk@@
gentlemen
Polic@@
prostitutes
Subparagraph
penetration
Success
activate
importers
Potential
vir@@
shining
incredible
mentioning
demo@@
m2
league
fertile
IFRS
pensionable
shel@@
SM@@
Viol@@
therefrom
excessively
thirty-fifth
forward-looking
Incid@@
weighed
broadest
lia
Brothers
reimbursements
stricken
Reli@@
umes
ables
Proliferation
Quanti@@
plun@@
guardianship
duck
Qing
behaviours
carpet
umin@@
control@@
geopolitical
Garden
PEN@@
porting
kon@@
dilemma
Geographic
degraded
flavor
45th
lic
attribution
gens
aided
Replies
Ho
liaise
exerted
Navigation
eighteen
Abraham
Fem@@
commands
tenants
cinema
tized
blos@@
1959
essing
garment
discrepancy
concessionaire
bargain
doubling
energetic
Proc@@
viol@@
precip@@
scopy
Text
Closing
aker
rested
appreci@@
Mac
Pul@@
0.1
silic@@
pus
unaware
E-mail
compromising
Neg@@
viii
widow
UN-SPIDER
Psychotropic
Ale@@
L.8
soils
computation
lubricants
contentious
ticism
cater
neys
envisage
youths
cooperates
Hou@@
anne
kel@@
cus
drum
pardon
Open@@
fam@@
warheads
followers
conclusive
wast@@
ONG
Rein@@
faithfully
furnish
Ja@@
Hold
Sharing
arrivals
small-@@
2013-@@
Highway
un.org.
shareholder
EF@@
arized
expel
Dal@@
CN.3
punishing
tion-related
cm
HU@@
Barri@@
indicted
Concerns
ICAL
ignoring
Dev@@
LIS@@
L-@@
obstruction
cautioned
dition
median
60,000
Intensi@@
inquired
nail
cla@@
UNCLOS
answering
civilized
exploiting
prenatal
conspiracy
Wilson
E4
treasury
disrupted
Commissioner-General
Admission
untuk
XVIII
vity
conven@@
Manufac@@
auto@@
whe@@
oured
genius
sterilization
IMPLEMENTATION
localities
setbacks
dietary
28th
ré@@
drank
Abbas
ambassadors
fixed-wing
mits
shallow
dwelling
Smuggling
UNOWA
Mayor
measles
fellowships
collar
harvesting
sauce
Petroleum
top-@@
evenly
higher-@@
Sus@@
paraly@@
illiterate
Experi@@
catching
Undertake
await
asses
terror@@
ancies
seasons
cry@@
L.5
401
Express
High-@@
taneous
Ltd.
sided
Approval
pilots
Tit@@
65@@
ITS
RU@@
REP
Comb@@
baseball
pum@@
quantum
Grants
Wide
conflict-@@
Somaliland
Jab@@
lifestyles
idating
shi
comprehen@@
dispen@@
ements
interval
relocated
Government-@@
qi@@
Immediate
vascular
din
tam@@
stereotyping
Fifty-fourth
baselines
outlying
Om@@
restorative
uci@@
legislators
Channel
OBJECTIVE
deviation
weighted
silly
thering
thirty-second
emo@@
trick@@
Pac@@
SM
Blair
Haw@@
accoun@@
sellers
caus@@
hus@@
yards
Particip@@
safeguarded
generalized
retains
Missile
Quick
thermo@@
exemplary
connec@@
tter
poison
intermediaries
ACE
tles
Port-au-Prince
iff
phasing
underdevelopment
enhancements
Capac@@
Underlines
reco@@
hep@@
Nam@@
classify
hemisphere
assignee
join@@
remittance
001
uling
blessing
polite
atal
drastic
Either
Deployment
Tlatelolco
surviving
impres@@
Speaker
ingredient
Kur@@
roses
in-kind
coc@@
ener@@
slums
Ron@@
vec@@
plastics
integr@@
clan
State-owned
Reservations
ballots
ECOMOG
multitude
leng@@
entrenched
magistrate
lakes
Kun@@
manship
Supplies
hunt
FGM
diff@@
adhe@@
pel
bunch
1,800
compares
Fol@@
Black@@
acet@@
Warning
incur
daunting
evol@@
Extrabudgetary
neural
inclusiveness
underlining
erti@@
Talks
conserve
Speech
metry
SLM
Sixtieth
Delta
oils
traction
sie
Leader
Nacional
habitats
tire
tooth@@
unciation
preventable
Courses
uk@@
310
Threats
Congres@@
26-@@
entially
mel
Francis
24-hour
arranging
achi@@
mam@@
south-@@
exile
roller
Structural
unduly
Pan
Iraqis
grap@@
inspec@@
best@@
CONCLUSIONS
Wei
edy
74@@
coin
observ@@
CN.@@
volcanic
diminishing
Golden
Nic@@
immunodeficiency
illustration
Xinhua
Sco@@
strategically
obligatory
democratically
miserable
metadata
gle@@
downsizing
Subsequent
tric
Emphasis
impoverished
icit
palm
tolerated
registries
arities
imagin@@
world@@
differs
breed
injecting
interdisciplinary
Forced
hits
Ec@@
subscription
urban@@
incapable
380
tha
wins
yel@@
hearted
reactors
hing@@
7.9
IAL
round@@
distortion
Consistent
Vice-Chairperson
dividends
Privileges
censuses
oblig@@
Qing@@
jo
breached
Upper
Wid@@
wheels
vers@@
CU@@
ANCE
unsuccessful
tally
fellows
Discipline
ventilation
damn
derog@@
Volume
kilograms
kicked
viruses
2,8@@
TCDC
selfish
utes
tag
Neighbouring
tah
Donors
n.@@
keynote
KO@@
obligated
personalities
CWC
traumatic
Shi
Bulletin
Arthur
halted
list@@
311
leap
MR@@
sheer
resolute
sically
bamboo
Dro@@
inches
Movie
Bun@@
aerospace
featuring
Patri@@
perpetuate
thir@@
chinese
forest-related
Deb@@
punishments
MN@@
co-chaired
consul@@
card@@
kes@@
proteins
Alice
processor
oth@@
satisfactorily
phrases
ander
tightening
Holocaust
conversations
sep@@
Counsellor
aunt
health-related
petty
Posts
fibre
Pap@@
obs@@
n.
appropriateness
flagship
clin@@
habit@@
chloride
export-@@
Develop@@
Ultimately
cot@@
itted
learners
Chadian
barrels
restructured
Colonialism
Stu@@
impe@@
breath@@
ECB
characterization
Chem@@
murders
oni
soo@@
Compe@@
27th
lined
Van@@
L.9
pes@@
cir@@
Eliminate
conflict-affected
ition
supper
trunk
turing
nourished
sadness
Ann
ICESCR
mother@@
Liverpool
1957
Us@@
slaves
frustrated
Conven@@
vacc@@
Mao
46th
sies
Vic@@
spared
caregivers
sub
commercially
manners
ECCAS
undesirable
Word
Human@@
apping
opera
hr
patrolling
sequ@@
peace-@@
bureaucratic
cured
inci@@
Really
fru@@
flav@@
7.7
Thir@@
rian
user-friendly
premiums
2012-@@
otyp@@
dian
Toxin
hu
gangs
four@@
1874
precautions
DE
Floor
struggles
hua
Manila
self-employed
testimonies
insecure
Wastes
convoy
concer@@
awaited
STATES
Chairperson-Rapporteur
charming
auxiliary
admi@@
rulings
ghts
thal@@
cybercrime
store@@
Al-Shabaab
scanning
São
sub-items
leaflets
stealing
atro@@
shouted
chips
enger
anna
beloved
alleging
eighty-@@
see@@
bombings
eland
gul@@
June-@@
284
foreigner
arbitrator
rotating
z-@@
JI
asp
formations
straw
Bodies
multi-ethnic
Execu@@
Inc.
Experiencing
akes
ais
registr@@
motherland
attendant
deterrence
Head@@
24th
lation
phosph@@
Reuters
Som@@
women@@
struggled
tees
TER
Reduce
vić
execu@@
two-State
questionable
30th
allied
real-@@
underwater
behavioural
led@@
ration@@
3,0@@
frightened
surprisingly
sacrifices
penitentiary
nd
sne@@
monkey
spheric
victim@@
1992-1993
estion
normalization
FM
insists
pollu@@
emul@@
exams
non-citizens
awake
bodily
-specific
lay@@
Saf@@
Heaven
291
CPR
gee
L.10
ence-@@
petitions
eviction
theater
grab
punc@@
cheque
Managers
barracks
leased
novels
sel
undocumented
Log@@
Helsinki
porter
Share
purification
completeness
Chinas
mortal
sigh@@
visu@@
h-@@
Underlining
slip@@
hitting
550
complexities
Weather
Kas@@
wrong@@
Movements
fren@@
blown
Yellow
Haz@@
Bot@@
ille
renal
stadium
militants
HRI
elevated
articulate
quantified
vocabulary
9.6
hubs
indic@@
Hyogo
excludes
Fifty-eighth
9.1
fleeing
sailing
acqui@@
hesitate
woke
schem@@
JS1
Brit@@
6.9
Stra@@
DF
Key@@
fa
dio
miracle
hometown
sail@@
rul@@
prey
contradic@@
champ@@
abs@@
IDA
geostationary
stalled
29th
Select
corners
Bin
insur@@
extra-@@
Patrick
RT@@
lick
G-20
commanded
disaster-@@
och@@
abolishment
where@@
Prosecutors
temporal
HN@@
killer
purple
27-@@
SI@@
DESA
shirts
unidentified
OM
CMP.1
CONVENTION
Procedural
magnificent
prolif@@
08@@
blow@@
blueprint
wood@@
capitalism
Jes@@
Way
EV@@
fif@@
lightning
42nd
pist@@
Behold
Care@@
terri@@
Inform@@
prioritizing
ired
dissertation
PP
preschool
porters
-and-@@
idated
natur@@
hing
refinement
consciously
depart
atol@@
1,300
storing
Ways
ITL
TIVE
eri
fugitives
doesnt
retrieval
ante
surpluses
UNPOS
G-8
worthwhile
bacterial
ator@@
April-@@
Appointments
lazy
dwell
comfor@@
repatri@@
Drawing
workplans
2014-2017
anu@@
Patent
edited
GE.@@
dominance
downs
Gro@@
lain
disc
figured
Accreditation
labourers
OP-@@
APEC
Resid@@
cran@@
tranqu@@
fucking
icide
sensitiz@@
tingly
Cer@@
molecules
advises
supporter
denomin@@
inherit
jah
serv@@
и@@
shire
South-Eastern
Allocation
unconditionally
cage
Consortium
ico
ushes
Chelsea
Tobacco
eti@@
SOCIAL
Tem@@
Investors
After@@
crum@@
Ras@@
Sections
1,600
tres@@
UNTAET
defended
diagno@@
fighter
conceal
2,9@@
doubtful
grinding
communic@@
pioneer
Aim@@
…
texture
Asi@@
massacres
traced
physicians
ptive
assignor
acker
Solar
dense
accustomed
Payments
supermarket
subscri@@
Sarkozy
nodes
spur
seni@@
rectify
inter-sessional
firstly
fiction
1956
ation-related
Timely
Pilot
interlinked
enced
bind
corps
Gender-@@
droughts
scan
journals
youngest
polar@@
Conscious
condoms
vid@@
appe@@
rie
dividend
ation-wide
redundant
Jobs
indexes
GGE
Present
audi@@
alties
reefs
sang
mobil@@
instantly
small@@
ided
pep@@
Kit@@
Altern@@
sorties
identi@@
plea
Malian
priests
subway
Indiscriminate
theses
UNA@@
anti-terrorism
Temple
practic@@
250,000
resorting
Indicator
ê@@
shuttle
Repertory
worsened
73@@
ICP
LES
鈥檛
borrowers
determin@@
Comparative
submarine
lex
inee
headings
stabilized
landers
L.15
Aircraft
straightforward
Archives
recordings
cleaned
ello
Prostitution
Disciplinary
650
dings
saith
Lincoln
highways
thou@@
write-off
Bag@@
chim@@
150,000
erical
Mountains
HB@@
ACTIVITIES
editors
commemor@@
Cher@@
ei
imagined
Factors
ems
fills
Click
stabil@@
CN
.He
MF@@
Sl@@
eg
stein
aster@@
UNIC@@
鈥淭@@
illumin@@
genesis
Chris@@
Carri@@
cid@@
refund
SF
deline@@
Nas@@
repay
typ@@
oxidation
NPC
tiles
Eg@@
vill@@
annul@@
START
manoeuv@@
Cru@@
vas
ph
1,400
mess@@
cook@@
Yam@@
priced
sno@@
January-@@
Medium-term
host@@
flags
nexus
headache
non-recurrent
EPA
nodules
officio
decoration
conserv@@
lightly
birth@@
migrate
commemorative
rejecting
NEW
tit@@
contributory
refriger@@
Direc@@
Revolutionary
gardens
icates
comman@@
verb
tland
Facebook
endured
epidemiological
gendarmerie
Arch@@
cholera
Male
AH@@
consensus-building
8.7
GOVERN@@
tissues
noticeable
pressive
Interactive
Y-@@
fer
public-@@
studio
bug
volunteerism
Grand@@
pest
uniformity
uncomfortable
breadth
hollow
nutrients
provocative
potatoes
rostrum
anonymous
Things
principled
angular
gru@@
modern@@
Identity
Bujumbura
happier
Phot@@
forti@@
PI
Sixty-first
Carbon
Cambridge
patents
polls
duct
Immunities
Beli@@
strangers
Hon
spends
stakes
adver@@
L.11
spin
ES-10
researcher
addy
plain@@
angel@@
ounce
25.@@
ayan
sensi@@
rif@@
aters
simulated
joins
Consolidation
Optim@@
Cyber@@
Nazi
Protect
MOU
HFCs
Francophonie
Six@@
objectively
87@@
pla@@
shrinking
infringe
ardo
cerebral
polluted
TF
mb@@
Editor
inward
fistula
spon@@
confess
general-purpose
spin@@
299
logs
invariably
Mail
gambling
derives
oo
carto@@
culation
epidemics
а
aer@@
Omar
grip
vet
400,000
Diseases
multiplier
metallic
fond
businessman
Innovative
lest
ele
earnestly
peace@@
va@@
nate
Sir@@
leveraging
valuations
moment@@
Orthodox
nan
lent
iza
slow@@
prote@@
replication
hurricane
propag@@
curative
Rain@@
silicon
Lisbon
constituency
shelling
laundry
F.@@
26th
sket@@
validate
Citigroup
Romanian
awi
tu
warmth
peculiar
meditation
fluctu@@
token
nouvelles
,000,000
Uh
27.@@
Pound@@
Weekly
rationalize
gical
bull
arc
bering
stagnation
Ammunition
MINUSMA
CES
rolls
employs
sufficiency
anch@@
Bring
frog
ees
high-tech
manifestly
huh
revenge
ech
zzle
Afghans
rot
skirt
epage
plug
tise
deteriorate
revoked
Tripoli
renminbi
shortest
relics
kha@@
MTSP
Diag@@
revival
wears
cost@@
reassignment
umb@@
categor@@
hostages
Commodity
itive
pati@@
compos@@
stimul@@
farmland
Antarctica
twenty-ninth
mentality
Vie@@
centi@@
PART
Inventory
Displaced
remand
Dili
Minsk
impair
González
inaction
two@@
problem@@
294
Bah@@
03@@
secular
zero-@@
Sino-@@
UNAVEM
ML
traits
colours
glom@@
uti@@
estimating
horrible
amer@@
enko
unimpeded
FL@@
merchant
BBC
IAN
Yahoo
optimizing
Chinese-@@
elev@@
MIC@@
BP
Resi@@
outright
Genetic
Prepare
ascen@@
coupling
WS
FT
separating
newsletter
tracked
faculty
fon@@
super-@@
Deputies
proposition
pre
trainings
Earth@@
remarked
Blood
gym@@
colorful
pad
sixty
unavoidable
renders
ustin
nour@@
translators
stand-alone
devi@@
travels
Tol@@
Hem@@
seas@@
Sachs
ALL
Negotiating
scaled
lofty
abor@@
denounced
tch
idation
withstand
drastically
humble
barred
fortunate
al-use
Os@@
optimized
pumps
lect
unrelated
percentages
aver@@
informally
scored
hardships
deduction
high-ranking
vibr@@
harmon@@
intact
renowned
hammer
triumph
forec@@
Sharif
aler@@
rounded
heavier
NHRIs
Enhancement
suring
skin@@
publicized
8.8
colli@@
proclamation
pairs
actional
taxpayers
Brief
ometric
rented
cough
atization
grains
Turn
inadequacy
anchor
Affecting
Chris
Rev.1.
gencies
Gradu@@
agro@@
extremists
ENT@@
determinants
Eigh@@
eves
autom@@
jection
morals
Organ@@
Equalization
Euro-@@
Demographic
ladder
receiver
geographically
continual
POR@@
El-@@
Pledging
Events
inherently
Mai
tastes
surrendered
Website
fame
insulation
qualifying
distorted
IONAL
DEC@@
Dj@@
sympath@@
X-ray
297
necess@@
ves@@
pants
SID@@
CHAIRMAN
Write
pine
Radiation
manned
polygamy
cardiovascular
Peer
check-@@
306
human-rights
well-established
alo
engagements
bank@@
notions
erral
ka@@
repairing
0.9
chill
Brun@@
logo
Internally
constituents
wilderness
actic
NAPs
9.2
concessional
Williams
contradictions
protec@@
results-oriented
best-@@
serum
dissip@@
homicide
Arabian
dismantle
retailers
renounce
censorship
neighboring
discouraged
Jersey
8.9
residency
curtain
3a
spear@@
alarmed
stewardship
remot@@
frac@@
Already
las
bir@@
293
long-range
abolishing
gli@@
Emer@@
tia
1993-@@
stry
civil@@
heng
categorized
ø@@
Philip
oter
needing
1992-@@
glo@@
TT
rement
lump
strains
lia@@
soluble
1718
accountants
informational
WG.6
farther
lor
1947
Sixty-second
Instruments
improvised
yor
relinqu@@
foodstuffs
alpha@@
dres@@
colony
relaxation
lawfully
flan@@
concentrating
thed
0.2
reversing
legitim@@
Organiz@@
cavity
System-wide
teries
embo@@
Outside
Xi
Late
omissions
siz@@
Tak@@
itude
PBC
calibration
understandings
artic@@
bular
reti@@
profoundly
misunderstanding
fee@@
informs
Bear
nickel
langu@@
flats
denies
WORK
fundamentals
Arrangement
affiliates
SG
devastation
ped@@
addenda
impulse
axial
DIS
298
classmates
UC@@
diaspora
ris
Ever
ffed
underpin
AC.26
inaccurate
handles
patriarchal
booklet
handover
Phy@@
2,5@@
1952
evalu@@
broad@@
free@@
313
Huang
unjustified
arming
fiers
Gali
profitability
negotiators
lords
moc@@
contr@@
ativity
bath@@
handicapped
Heavy
intestinal
preside
acoustic
gies
ashamed
Woman
Reduced
laptop
ning@@
non-tariff
thirty-first
downloaded
stack
TL
ghtful
glorious
staff@@
Gordon
lot@@
non-refoulement
classrooms
boots
Bangui
souls
jus
scrap
commerci@@
wont
separatist
throne
fauna
Hop@@
stainless
candle
umber
DH
scarcely
lamps
ually
unted
infinite
offerings
2a
surroundings
exploded
detec@@
gram@@
igned
s--@@
cared
divert
potato
Figures
Eve
keepers
Psych@@
escort
novel@@
drawings
ilers
burial
competency
smuggled
reap
Said
315
poverty-@@
labels
PNTL
Expo
olo
Purchase
ction
rifle
thre@@
xia
celebrating
sus
prominence
serviced
Adolescents
Seg@@
Govern@@
unrealistic
Zhejiang
landmine
confer
bankrupt
Nanjing
mo
freed
in-country
Xiao
pes
fuller
ović
backbone
tieth
Yor@@
buil@@
Jal@@
&apos;The
vigilant
cubic
UNE@@
Cheng
underwent
MOTAPM
resourced
1,700
artery
nod@@
L.18
Injurious
escalating
Setting
adop@@
home-@@
strang@@
L.16
obstruc@@
Multiple
philosophical
affec@@
contraven@@
Dor@@
Virtual
apology
chy
trustee
bursts
al.
downtown
Yi@@
Iron
UNMIBH
allotted
reactive
regulator
Asst
Conversely
Millions
unlawfully
mic
reimbursable
domin@@
STI
oun
PK@@
By@@
expedi@@
ood@@
perme@@
postponement
obstruct
Yao
Household
GM@@
persuaded
hob@@
utting
Ross
vivid
intercourse
diary
Planned
Involuntary
BE
mold
purpos@@
ape
degra@@
sounded
TB
design@@
UNIKOM
Ocean@@
AWG-LCA
Hg
tionary
8.
ake
Rachel
Chancellor
lieu
ng
smokers
lock@@
versa
Ts
adjudication
assa@@
POLISARIO
winding
patch
IMS
femin@@
stipulations
insect
uss
tex
ct
dynamism
room@@
urine
---
selec@@
echoed
Follow
ifying
AID@@
Poli@@
307
shear
Nelson
annotated
Religion
Regions
rabbit
Ambassadors
polarization
sweeping
astronom@@
cataly@@
OD
preser@@
bullets
Inclusive
defender
chloro@@
thing@@
rhythm
Uti@@
Fish@@
out-@@
medals
Munitions
tendering
Stri@@
Sustainability
idi
politician
scrutin@@
heart@@
−
metre
dismiss
redistribution
aba
Zhu@@
brochure
replicated
dragon
interrupt
Getting
presences
Peace-keeping
yourselves
locality
itte@@
ailed
testified
photograph@@
primacy
bil
eived
bacter@@
mergers
shipper
yan@@
CRP.2
oath
simplicity
embassies
Testing
end-of-@@
Singh
Patients
anny
Updated
block@@
alise
XXIX
ATS
macro
Popular
curiosity
Sher@@
SAR@@
HE@@
prescri@@
U.S.@@
rang
groundwork
approximate
Medium
translations
later@@
hopefully
Donald
predat@@
temptation
qi
POPR@@
motherhood
lau@@
anes@@
Girl
thick@@
formulations
Pre-Trial
aes@@
imon@@
illegitimate
Lama
Maintain
than-@@
nau@@
listen@@
candy
aller@@
spectacular
ambi@@
309
AW@@
uan
Fifty-fifth
-day
cup@@
consign@@
Prec@@
dock
Repertoire
teaches
chiefly
pain@@
regression
upstairs
mediate
culminated
prerogative
high-speed
provoked
308
much-needed
disturbances
isot@@
album
biofuels
ceramic
rier
idly
ima
Interregional
ik
carcinoma
coincide
Qual@@
grouping
mistaken
admiration
portation
leasing
calories
Licence
VER@@
contraction
Criteria
solicited
ORY
forcible
Anna
carb@@
olive
dwellings
reconvened
person-@@
chasing
Ul@@
ISAR
discrete
Decre@@
Submissions
multilingualism
cylin@@
child@@
tici@@
Repe@@
hypertension
IASC
pipelines
labelling
dious
aut@@
dream@@
Stand@@
leap@@
agas@@
Double
8.4
relieved
FE@@
brake
radic@@
fundraising
Visits
soaring
L.14
fried
bial
sliding
enz@@
L.12
pork
king@@
assigning
Adult
delic@@
concurrent
Hur@@
EST
impu@@
odi@@
Coastal
antenna
substitutes
awful
iler
haw@@
lasts
paved
Guil@@
contacting
spelled
DDR
healthier
mountainous
scep@@
semester
bbed
mammals
primitive
INE
bay@@
agg@@
unequivocally
achlor@@
awarding
Lun@@
cript
L.13
circul@@
NS
township
yielding
Tai@@
world-@@
tablets
remarkably
railways
hip
sar
oped
wel
electing
oner
abductions
Explosive
old-age
rebellion
Kad@@
travellers
Audiovisual
1737
adm@@
investigator
booking
illusion
differed
ember-@@
Bamako
Obligations
Oral
requi@@
affirming
federations
Les@@
Diamond
H.@@
fantastic
Kom@@
mour@@
unspent
bio-@@
Complete
Ep@@
deton@@
celebrations
verbales
vices
shes
ECO
y.
Aff@@
caf@@
DB
VIII.@@
accumulate
314
Gol@@
desi@@
blatant
peripheral
revi@@
blaz@@
rich@@
camp@@
aby@@
cite
ï@@
re-establish
English-@@
governorate
reconciled
specializing
clou@@
romance
Guatemalan
bean
Renewal
meta@@
sincerity
staring
aligning
immer@@
ta-@@
posture
cakes
Letters
thats
digi@@
gi
arrives
short-
Fourthly
school-@@
brain@@
impartially
9.9
poems
W.@@
RY
drug-related
uma
accountant
speculative
equals
pharmaceuticals
Inf@@
potent
hetero@@
moder@@
prescribe
Objec@@
handing
authorised
sidel@@
shru@@
Abstaining
ku
hap@@
Continuation
desks
scholar
ambulance
ylon
LL@@
undergraduate
Marie
Wu@@
splendid
Stay
rav@@
.int
unfavourable
demon@@
stared
lis
Spac@@
atric
euro@@
shalt
arduous
Frank@@
iri
Zh@@
Facilitate
Applicable
TRADE
witnessing
casualty
dog@@
xy
postgraduate
refurbishment
Comple@@
SIL
magn@@
progressed
occupancy
dow@@
warehouses
atting
gender-specific
GATS
.We
gender-responsive
Oli@@
Ankara
complements
AMIS
exam@@
ruin
Users
thetics
deducted
yar@@
canal
scratch
equipments
312
Brigade
2004-2007
Accords
must@@
inter-ministerial
Heart
assemble
Lear@@
Immun@@
basement
clash
harb@@
ж@@
reproduce
Hawaii
ian-@@
31st
embry@@
Tianjin
inaccessible
sung
Took
akin
Crimin@@
ether
takeover
multipl@@
developer
unavailable
how@@
lions
agen
50th
succeeding
Naval
lied
Univer@@
tals
abstain
wheel@@
9.30
beast
Avoid
CD-ROM
Blu@@
F-16
revealing
stiff@@
theore@@
weights
straigh@@
printers
Pretoria
HL@@
chairing
Depression
richer
Educ@@
two-day
paternity
Reser@@
Assisting
circuits
Mobilization
echo
WS@@
deployments
pre-school
instru@@
mentions
sunny
accompl@@
inactive
Night
fool@@
wrap@@
Manuel
hec@@
enligh@@
physiological
Problem
Amazon
ordinarily
Deng
nia
Monte
zoo
Excessively
itative
characterize
ask@@
retraining
ICJ
law-enforcement
gested
oom
Plaza
restructure
ruler
market-based
insurgency
heroes
tailing
digit
cs
App@@
opa@@
resurgence
quasi-@@
hurts
hardest
ž@@
constitutions
hey
liquor
unmarried
Renewable
ologies
IFF
fluores@@
extr@@
CFC
Syl@@
ense
beatings
acious
specificities
orchestr@@
chess
Applied
UNOM@@
shou@@
4a
spy
UV
mete@@
Kou@@
vests
morale
malicious
convoys
ía
Counc@@
frigh@@
resign
AWG-KP
weekends
Eth@@
mit
Estonian
underpinned
40th
Ine@@
Must
judic@@
wis@@
sedi@@
Keeping
Aung
Dec.
arbitrators
yev
abe@@
Peruvian
invoking
blin@@
WMD
metabolism
Concept
acids
market-@@
jour@@
WW@@
utory
kindergarten
accrual
CN.6
tancy
Jabal
lad
expediting
minus
Focal
stud@@
2,4@@
sworn
epo@@
Jimmy
Eurostat
workable
sha
CSD
revel@@
get@@
plug@@
Bulgarian
TEN@@
97@@
awak@@
munition
Paulson
Selected
aires
trousers
pause
unhealthy
Affirming
ceremonies
uncontrolled
vas@@
NAPAs
Defin@@
inval@@
Nab@@
wrink@@
ensu@@
ova
Dep@@
domicile
Lam
galvan@@
courageous
sioning
alge@@
aven@@
transc@@
UNIO@@
Tropical
iter@@
meanings
Storage
Robinson
Indebted
sometime
Suppl
feeds
endeavoured
Mixed
purch@@
Kho@@
ox
drift
cute
Smart
stricter
hui
`
POL@@
jur@@
monopoli@@
quotation
L.19
al-Sha`b
pho@@
responsibly
Jeff@@
Winter
Charlie
sex@@
SUMMARY
SPLOS
Enter@@
318
job-@@
ed.@@
stir
testi@@
omen
963-5935
raids
transplantation
melting
refra@@
Build
ICAC
Analysts
armies
Demands
Victor
Gaz@@
eck
upstream
Maternity
vement
country@@
keyboard
distinctions
Fab@@
SC-@@
steer
9.8
Grade
assass@@
Hand@@
Nice
Farmers
planners
interfaces
divergent
rison
evolutionary
perform@@
Syri@@
complex@@
bending
land-based
kling
contamin@@
unreported
transferable
amphetamine-type
Rodríguez
PRSP
uity
acquitted
Es
dead@@
sourcing
333
Childhood
Pel@@
movable
inquire
84@@
housed
1a
Animal
hypothesis
rifles
Medic@@
tailor
Bs
containment
Sept
IPF
ase@@
pains
kissed
revitalizing
jumping
Maintaining
ayed
mutandis
corpor@@
scra@@
Clerk
Steven
terminals
precluded
Eu@@
Changing
locking
enlarge
Deep
contin@@
found@@
distil@@
melt
motivate
unning
ambassador
furn@@
unarmed
intergenerational
mail@@
elly
pretend
republic
appellate
User
XML
Initi@@
enni@@
unk
CERF
traveled
memor@@
rious
Requi@@
Empire
consen@@
DLDD
refrigeration
itter
Mé@@
raid
UNMISET
build-up
flourish
Ratify
CAN@@
aan
resorted
Affirms
south-east
roof@@
compensatory
anner
Guideline
job@@
proprietary
Albanians
Samuel
Raf@@
Pyongyang
Corrections
grazing
summoned
outlet
workplaces
inters
REC@@
Vs
airplane
4,500
rown
vie@@
aissance
Add.6
Id@@
govern@@
solicit
technology-@@
FF
ninety-@@
gon
insurgents
CIV@@
followup
Accession
dealings
het@@
Organizing
sunset
lectu@@
harmed
therm@@
elapsed
fres@@
319
altitudes
distortions
excav@@
sson
operationalize
authorizes
Tripartite
gon@@
oon
Aud@@
multilingual
KPC
unintended
Gene@@
incur@@
depos@@
Happiness
bat
chin
swim@@
Tables
audio-visual
people-centred
broadcasters
practicing
spu@@
Delete
40,@@
interrup@@
U.N.
ambiguity
ci
resi@@
downstream
Gab@@
mutatis
oste@@
60,@@
icon
wed@@
rog@@
upbringing
bronze
otic
ONE
44th
Constitu@@
Metohija
whoever
Boston
solic@@
centrifu@@
massage
seaf@@
Written
ient
strives
2,7@@
screens
saturated
jud@@
Moz@@
Threat
Fixed
erating
tonic
organism
lap
Dong@@
gym
prima
business@@
racing
UNDP-@@
JO@@
tuous
Acquisition
507
Privacy
emig@@
thine
Straits
elective
NET
Rap@@
jections
liner
recycled
legend
Tall
XXVI
dreamed
blows
Species
Explan@@
neur@@
L.20
Motor
SER@@
oscill@@
Fron@@
rol@@
Sovereign
Marius
Dim@@
vege@@
facie
cane
Alexand@@
dos
brochures
artisanal
ority
Cot@@
mly
placements
faint
tighten
benz@@
ancestors
secretaries
1,100
thood
sol
Yang@@
dividing
Introducing
shrink
stimulation
grassroots
Days
shadows
brid@@
beg
bottlenecks
optic
pulmonary
Thou
remediation
first-hand
occupies
instructors
intersectoral
secret@@
asha
tioners
Jonathan
DFS
time-consuming
data-processing
Max
fuelled
scientifically
&apos;We
Son@@
secretly
Cr@@
Provides
Din@@
Tru@@
cid
surveying
parcel
delivers
feren@@
sai
assaults
reset@@
cheon
hepatitis
apartments
horn
merge
7,500
injuring
fur
affor@@
laun@@
Pin@@
battalions
contex@@
Miguel
Bernard
ius
cling
indemnity
Centr@@
Requested
partition
similarities
poc@@
plague
Beng@@
Duty
cooper@@
interpersonal
tow@@
generosity
mother-to-child
rip@@
year-end
eroded
mix@@
Chu@@
Judgement
ambiguous
Mod@@
PaperSmart
HP
Cause
seconded
Video
sumes
340
L.17
deepened
Elec@@
security-related
Immediately
philanth@@
grim
ancestral
inauguration
Feder@@
aegis
cares
Scottish
scanned
guarantor
PBC.@@
inflammatory
graduating
adhering
brigade
Mun
gur@@
Buddhism
enum@@
mee@@
Mongolian
omitted
Under-@@
bidders
propagation
9.7
empire
Mention
Shakespeare
announcing
peaks
smen
cence
non-United
Identifying
1994-@@
activist
DT@@
1-3
simpler
Contrac@@
ptions
plots
Yunnan
photography
brethren
FTA
triple
Cad@@
Copyright
DM@@
predecessors
detain
indictments
rup@@
Theme
Offic@@
embl@@
lighter
iously
dealer
olds
symptom
afflicted
AC.51
arial
cabin
divine
Yuen
-led
endo@@
Compilation
Kenyan
Kok
caseload
counsel@@
planets
rus
concealed
Stage
vetting
perfection
reservoirs
environment@@
festivals
erable
troubl@@
tionaries
Prepared
particul@@
distinguishing
Highly
intrac@@
FIN@@
pers@@
Content
SR
ble-@@
ores
necessitated
wipe
will@@
differentiate
specificity
wai@@
325
berries
stle
sadd@@
tiful
deficient
ored
clicking
JISC
chlorinated
Measurement
Launch
phil@@
communist
Lieutenant
vez
courtroom
sixty@@
SPECIAL
Stress
48th
Indians
promotions
dictatorship
angles
bonded
filtering
guarding
Rumaysh
documenting
Braz@@
moun@@
tendencies
precipitation
Americ@@
Correc@@
progressing
indign@@
Heavily
Christianity
bend
stam@@
all-round
squad
Raising
uous
ag
townships
Ris@@
intervening
proficiency
mistrust
cobal@@
abad
formalized
crafts
bubbles
Tomorrow
Gbagbo
28-@@
habitual
senses
Hunger
Aq@@
Doctors
spir@@
ilia
Budapest
apolog@@
HD
coins
trun@@
recti@@
CAP
Tox@@
repeating
inhibit
Torres
stark
repealed
interreligious
embro@@
fog
pond
Reas@@
knowledge-based
residues
Gao
Image
ар@@
ands
puri@@
ombudsman
provocation
eu
applauded
fuelling
CED
atical
AU@@
31.@@
Maghreb
community-@@
politicization
BM@@
proactively
vitae
grati@@
partisan
Rescue
configured
Michel
enzyme
low-
secondly
SAP
Licensing
weal@@
expelling
eed
decay
UN-HABITAT
non-member
ipe
fishermen
Seas
DGACM
demilitarized
variant
incite
2.0
data-@@
continuum
Malaysian
loser
Acceptance
counseling
helpl@@
Director@@
jam
50,@@
Dur@@
liberties
federation
ounced
PC.@@
ine-@@
WC
advent
sales@@
Clear
thresholds
28.@@
moon@@
ushing
elephant
Kingston
formul@@
heights
overriding
Workshops
rival@@
proof@@
azi
ORGANIZ@@
skill@@
co-financing
olate
coer@@
manip@@
Measuring
Nine@@
institution@@
waist
runner
CST@@
viral
Howard
Sixty-third
OPEC
Airlines
polic@@
Roll
obtains
Mini@@
iyah
relocate
niche
vin
Fifty-@@
rescued
hormone
Gun@@
traces
neonatal
quer@@
Lag@@
bolt
Critical
Ton@@
Challenge
insufficiently
topical
Arafat
cart
bored
Stone
exagg@@
Machine
al.@@
Restric@@
Niño
deed
REVIEW
VIS@@
Chi
852
depths
Pil@@
Formul@@
Wis@@
Scott
unofficial
k-based
trainer
ғ@@
radio@@
sighted
transmit@@
loudly
subscribers
circulating
dynasty
Contractual
ple-@@
fox
identifiable
falsi@@
invasive
pumping
Hebron
Writ@@
absurd
make@@
Silver
macro-@@
smiles
instruct
Pesticides
Consent
Kr@@
metropolitan
rit
Rock
Oscar
pollutant
Commentary
Fourteenth
suitability
assesses
G.@@
agic
agan
Yan
avenue
repro@@
insult
treats
itch
flora
monuments
para@@
resched@@
waive
Ve@@
archy
POL
html
Asylum
inflationary
folks
Displacement
incidental
Surely
Holding
avail@@
PLA
Fit@@
tably
exposures
Discus@@
Markets
salts
Dre@@
Heal@@
Short
yu
statue
oto
.m.-
warri@@
ingen@@
Solutions
spark
intelli@@
derogation
overweight
affirmation
Charge
counteract
recognise
necessities
Clar@@
Fu
1612
ADDRESSED
JP
icks
extortion
extinction
eva
pip@@
eloqu@@
UNOMIL
stead@@
util@@
inda
neighbourhoods
oil@@
coated
ISBA
hospit@@
complicity
agreeable
gain@@
Contrary
Jin
sed@@
Ancient
yon
devastated
cros@@
sers
athlete
forgiveness
glu@@
Fro@@
dispersion
Methodology
dismantled
AIG
evacuated
nández
ite@@
93@@
tting
field-@@
Dont
CBD
predominant
ben
Madame
embargoes
anga
roll-out
interlinkages
centered
disciples
sine
.In
bellige@@
deposition
routing
Permit
Pedro
Provi@@
47th
Co-Chair
Lon@@
compendium
abo
86@@
tonn@@
Vill@@
Chai
Flo@@
oti@@
Include
seventieth
520
Going
Margaret
His@@
Non
Friendship
flaws
vitro
Mob@@
wonders
non-existent
Shandong
stiff
strings
Anti-Personnel
Dar
Khmer
Concrete
favours
Gold@@
BD
researching
CD-@@
underpinning
upl@@
HCFCs
crowds
cheek
tough@@
scape
open@@
subcommittees
squeeze
Say@@
heels
Eurasian
edo
ridge
Nagorny
north-east
wounding
hurricanes
Chilean
cohesive
energ@@
bble
recogn@@
levied
Conciliation
mosquito
unqualified
1353
Method@@
Person
loy@@
rics
ber-@@
Ossetia
Classi@@
Christopher
9.
stereotypical
kidnapped
e-learning
fora
opy
pioneering
self-esteem
arrow
FT@@
98@@
ushed
protectionist
Employers
dians
Sing@@
Chang
Afric@@
justi@@
aroused
Demon@@
420
Tindouf
icated
à
jeopardized
60-@@
cows
gum
Applying
HCFC
appro@@
Franklin
intu@@
deliverables
formulas
Raj@@
NOT
PO
Yemeni
heinous
practising
coo@@
Flu@@
PL
Anne
ISS
polit@@
40-@@
ordinance
Michelle
spirit@@
bilaterally
slic@@
elusive
Person@@
ires
.But
PPPs
criticize
sizeable
Kid@@
Imagine
profession@@
Doc@@
after-@@
110.@@
Dragon
absorbing
MATTERS
var
underestimated
sioned
obby
utterly
anchored
reopen
BS
Autumn
swa@@
enthusiastic
Chairpersons
eral
dt
Sixty-eighth
Hospit@@
animation
sile
strata
incursions
phe@@
Confirmation
BOD@@
specialty
fing
moderated
printer
mediator
Territorial
IGH@@
roman@@
speeding
chooses
PROTECTION
Pill@@
Import@@
MES
duce
coca
sore
Tim
arded
unconstitutional
arbit@@
ción
Outline
Papers
muc@@
civil-@@
governors
indifference
multic@@
Accoun@@
ror
Wan@@
Launched
case-@@
genous
prospec@@
disintegration
setback
detailing
pronoun@@
Silva
guil@@
reclassified
competences
prominently
suite
Buddha
concili@@
UT
Reply
weird
machining
standardize
reign
hated
Sixty-fifth
imperial
Disasters
aquaculture
one-day
wic@@
rud@@
prevails
Hurstwood
aziz
AE
60th
cumbersome
atize
unpleasant
Psy@@
forwarding
clustering
pouring
edges
nationalism
subscribe
Kyi
Considerable
Ass@@
bureaucracy
Appreciation
inter-State
dreaming
May-@@
spelling
Walter
adhesive
transatlantic
DO
L.22
endangering
Cast@@
shu@@
bang
burns
toe
post-crisis
eased
stere@@
Wild
Desk
orary
Control@@
inspector
ulative
METH@@
prising
lawfulness
2,400
glow
poles
Martínez
Am
cancers
tubes
low-carbon
affordability
complaining
pulsion
aine
illary
common@@
VO@@
Mechanical
pathways
arians
ennial
EUR
inst@@
digging
portfolios
box@@
itas
customized
Mano
obscure
wasting
Pho@@
trajectory
cip@@
323
whist@@
Abstract
5,500
Mill@@
gaze
Per
ime
Alex
bedro@@
reinforces
Location
rewarded
strateg@@
Career
SCCPs
Fifteenth
43rd
STR@@
unusually
Ecosystem
326
periodicity
Potter
ato
decisively
represent@@
41st
three-month
team@@
earth@@
footprint
ophy@@
intraregional
ski@@
ice-@@
spinning
Merrill
Harmonization
framed
d.
flux
375
Elderly
flat@@
Coal
1.0
Bissau
diploma
Progressive
Result
Sci@@
Previously
salad
thrive
fluctuation
distorting
Gabri@@
Day@@
Beg@@
resting
KS
NC
Jere@@
cool@@
equitably
designating
Adjustment
self-sufficiency
militant
cal
envisioned
shad@@
IBM
Commending
unconscious
CAS
wat@@
beaches
screened
wallet
advertised
arsenal
ution
cassation
inaugural
sat@@
psychologists
Victim
cious
GCC
dedicate
406
asive
dialog
crack@@
augment
passionate
bron@@
marketplace
standard-setting
gallery
Deemed
Restoration
destabilize
North-East
ska
vouchers
illustrative
atoms
Liberty
mayors
curse
vism
sulph@@
skep@@
Generation
ase-@@
Principality
Jurists
kno@@
one-third
yant
Competi@@
Sixty-fourth
Var@@
onable
bei
Prices
pooled
Twelve
compres@@
fulfillment
mediators
erup@@
Design@@
embodies
sympathetic
gratia
replen@@
conditioned
Expres@@
inspiring
asu@@
Acti@@
intercep@@
Teams
internship
bullying
Thereafter
Respon@@
lings
seed@@
Gom@@
watches
purity
Regardless
inject
lawn
kine@@
Mau@@
Co.
wrap
dump
CAC
Apportionment
GRE@@
debtors
LR
nurture
Model@@
spre@@
predomin@@
Cotonou
voyage
IDP
chairperson
recipe
lender
Hundreds
387
Sharon
train@@
Alternatively
conceivable
states@@
contend
oba
Pattern
PCP
monies
sank
Jiangsu
commissioners
superse@@
chers
Blan@@
----@@
850
martial
tents
atar
kit@@
kh
lodging
provi@@
inadmissibility
suff@@
rists
ridiculous
Harbour
unwavering
templates
ffle
externally
narrowly
judging
pseud@@
liter@@
dal
acles
sub-regional
Olymp@@
tily
rightful
stimulated
implicated
slice
Mitrovica
supposedly
purse
expedited
titude
onds
concurrence
ationary
Degree
Necess@@
Talk
Worldwide
Tools
rat@@
G8
tapped
commentaries
ess-@@
Saddam
causal
radios
UNCC
pupil
gus
converting
chairmen
YOU
IPR
nails
vious
telephon@@
dragged
myth
tom
narrowing
mistreatment
tely
crashed
TOTAL
summarizing
tabled
Past
Ex
&apos;It
exten@@
igns
collects
tricks
prestige
crunch
jewelry
Soil
ength
queue
Kevin
Isn
Suk@@
Protec@@
configurations
poten@@
Stan@@
illtreatment
installing
CFA
CEN@@
english
brutality
ifications
wei
Supervisory
attorneys
erupted
lad@@
neo-@@
Modalities
compul@@
hness
335
change@@
oven
publishes
conforms
crush
valves
towers
Ess@@
tibility
safe@@
quantify
Geor@@
arbitr@@
Complex
weighing
goodbye
slaughter
Hearing
parole
Journalists
engers
NAPA
su
termed
Maoist
reno@@
wling
Photo
drow@@
provoke
eight-@@
Simulation
Exam@@
prosecutorial
graves
development-oriented
envy
Scan@@
jeans
authorizations
distingu@@
udinal
tick
cups
ASS@@
seals
yal
iz
angels
URES
authenticity
capacitybuilding
labour-intensive
space-related
Equitable
bandwidth
cherish
Remove
mixtures
Automatic
boosted
limbs
p.@@
IAS
amel
habeas
chlorine
Hui
averaged
perseverance
Heat
cycl@@
desp@@
alum@@
lid
imper@@
Chongqing
solid@@
Electricity
honestly
GA@@
inaugurated
sport@@
plutonium
ary@@
hone
spreads
stur@@
workflow
plunged
SSC
Projected
2005-2006
blend
Rental
sweep
§
shep@@
pathy
ece
nya
indebtedness
gloves
ferences
gradient
springs
sealing
hydropower
jar@@
constitu@@
rements
compil@@
cantons
Jacques
oxy@@
forehead
Kurdish
carcin@@
piloted
goodness
fosters
Termin@@
sustainably
Brian
amal@@
Multinational
covenant
Kuala
Direction
omers
Sched@@
iso@@
re-election
Doing
pertain
ture-@@
Inside
nant
Snow
pois@@
natal
business-@@
Universities
navy
drylands
Advan@@
leak
ank@@
evasion
essness
harnessing
ignorant
HD@@
keted
у@@
genetically
Benefit
mass@@
ipped
disturb
SECRETARY-GENERAL
346
staged
nee@@
Bam@@
System@@
Kw@@
Cover
Recognize
probation
detector
Wet@@
poster
Toronto
Radi@@
Belarusian
dumped
anxi@@
diag@@
Ath@@
317
sex-disaggregated
elevator
aca
Rati@@
pts
ede
thoughtful
Engineer
Consultant
Lumpur
alis
sack
methane
folder
Interests
mush@@
rin@@
garments
KB
Finding
Means
dari
enders
iga
Confuci@@
wherein
GEN@@
b.
altar
Bachelor
R-@@
dio@@
meaningless
Surve@@
minefields
counterfeit
Kisangani
cheat
Corr@@
ony@@
xpenditure
tioner
IZ@@
HRW
implicitly
Assi@@
edes
enclose
honey@@
subm@@
dah
Amend
whit@@
journalism
ft@@
commen@@
MB
Know
pneum@@
Observing
hurried
intervened
widened
Aaron
2,200
bees
CCA@@
Warsaw
iah
gible
Boutro@@
Islamabad
chant
rech@@
UNDER
histor@@
Fifty-sixth
ASG
spectac@@
ropy
complementarities
kly
nine-@@
lagging
fairy
mets
L.24
tain
academ@@
endorsing
Highness
income-@@
cheerful
convertible
toc@@
ks@@
yle
reacted
deplorable
Agent
ody
Book@@
hampering
expon@@
prescribes
NT@@
pills
1624
incre@@
depriving
Pope
2,6@@
Civil@@
PD@@
remotely
post-retirement
negara
environ@@
Native
allah
37th
Self
penalized
pion@@
intel@@
Abolition
materiae
fred
Sc@@
isol@@
Networks
contradict
volunteering
front-@@
assuring
Fifty
toast
redeploy
nondiscrimination
futile
intersection
Mandela
PCB
Tour@@
mill@@
í
Zero
yance
inver@@
Inspectorate
weaponry
95@@
correlated
discontinue
essive
monster
uniquely
husbandry
merging
famil@@
incen@@
non-violent
KE@@
Electro@@
Baid@@
Sixty-seventh
suburbs
Pop@@
burger
fragility
Nouméa
occup@@
rulers
Satur@@
irre@@
woven
pencil
Historical
eive
ject
USG
UNF@@
Advisers
CG@@
float
Dig@@
int@@
kar
SF@@
reliant
centric
starch
Choose
Anything
Shui
overthrow
bonuses
deci@@
tis@@
abusers
thumb
end-user
Functions
Sr@@
jokes
ana@@
Toyota
pooling
prayers
osity
Presentations
Inspec@@
ains
smel@@
reviewers
Suu
said@@
reindeer
imperatives
lobbying
34th
episode
good@@
offspring
Protected
Lit@@
38th
COMMI@@
robots
naturalization
Holid@@
protested
word@@
cade
sati@@
Sixty-sixth
PCNICC
dialec@@
complicate
GLO@@
middle-@@
withheld
devotion
2007-2008
Pass
mortg@@
ал@@
Pursu@@
Author@@
Visitors
Simple
Prisons
rela@@
327
perimeter
DC@@
oran@@
dry@@
boot
ortho@@
Jac@@
anced
burgh
defiance
remit
inequities
mosque
ified
splitting
propelled
spinal
boun@@
shorten
vocation
re-establishment
Counter
Factory
resc@@
Amer@@
journ@@
pler
radically
modernizing
transitions
phra@@
feudal
RP@@
singular
approxim@@
West@@
tyres
invo@@
indifferent
democr@@
enne
attle
boiling
potassium
outskirts
600,000
Beings
swap
TING
GATT
Counter-@@
nautical
dug
righteousness
levy
wax
crushed
ingh@@
Ha
glan@@
potenti@@
Gs
resur@@
Cour@@
interrogated
turbine
robbed
impending
switched
eag@@
ADB
Custom@@
RED@@
million@@
Prof
certify
Wood
humidity
pledging
Announcement
instalments
aning
Karen
Copies
370
endeavor
View
potentials
CONTR@@
VI@@
pre-sessional
weed
righteous
leases
Recorded
Beginning
Investing
level-@@
Arsenal
ABC
referen@@
Aug@@
cardiac
deer
looted
nationale
Improvements
Definitions
Java
drawer
Lia@@
Professionals
Hurricane
bre
ulti@@
impart
PERSO@@
Secretaries
Made
hem
parenting
jer@@
kills
waived
ceas@@
suffice
St
Galileo
quity
desperately
defective
whichever
Apply
dele@@
lowing
explores
exposing
Some@@
offic@@
Tribal
decorated
Kate
oids
Wind@@
rigi@@
dim
embody
recap@@
step-by-step
reminders
otherapy
tative
Chec@@
1929
MENTAL
arize
Yun@@
diligent
Staffing
345
insistence
Quebec
Bang@@
benchmarking
Lau
chol@@
Xu
Labelling
cris@@
filters
justifying
decom@@
stoc@@
鈥淲@@
conductor
Fully
endowed
Insp
démocrati@@
TIONS
inviolability
heal@@
phoon
surpassed
non-staff
theirs
erals
hindering
space-@@
turer
question@@
Adopts
litter
bbing
essions
renamed
interdepartmental
lesbian
health@@
inseparable
Ng@@
sim
Mineral
Duties
antagon@@
AAL@@
congen@@
0.4
4,0@@
hitherto
intending
tices
10.2
non-nuclear
Priv@@
immovable
WSIS
Consulting
Germans
fain@@
Spokesperson
second@@
icides
apprehension
end-users
Lot@@
ultra@@
mens
subvention
izer
ession
manageable
L.21
evidently
Hamburg
san
mailing
Santos
Zer@@
und
salient
analo@@
Busin@@
Wider
instan@@
stripped
Count
Sai
INA
plantations
.org.
ing-related
Pack@@
06@@
Nasser
counterproductive
negligible
tee
fs
directional
Shin@@
atom
glad@@
Anyway
reconciling
Components
HA@@
spectr@@
Fernando
CONF.2010
catalo@@
07@@
unmet
medicinal
courtesy
reaffirmation
jac@@
Add.7
hierarchical
certifying
progression
usefully
Tut@@
fetch
upright
reve@@
Organize
stationary
secre@@
ext
Encoura@@
monial
yi@@
Giving
knowingly
abreast
sil
greetings
stove
respon@@
arers
Miller
admits
damp
flawed
Suppliers
overhaul
stray
10.1
spotted
Wall@@
wavelet
procure
WCO
abi
side-@@
accent
HT@@
governs
withholding
cheer
sage
aint
Descent
licen@@
bited
dams
predictions
IAT@@
CW
bee
hrs
itz
disclosures
narrow@@
Lor@@
disarm
jing
bond@@
Burma
Tung
rowing
arism
corro@@
Legislature
humiliation
equities
1991-@@
microscope
commune
respec@@
2025
opti@@
80,000
Twenty-first
post-disaster
diversifying
tactic
consum@@
revisit
watershed
sors
LEG@@
saf@@
sentiments
seri@@
35th
som
notic@@
joints
non-binding
disciplined
otted
fashioned
Lav@@
tuna
430
eter
manus@@
tre
catches
honored
rick
ANG
cock
instinc@@
Preg@@
Uzbek
410
South-West
lection
wich
UP
Instruc@@
retard@@
Stake@@
viewers
tram@@
melan@@
Atmo@@
clip
basins
geons
aliz@@
Object
Formal
subcommittee
doub@@
Napoleon
Cum@@
Depositary
legislations
who@@
Condemns
Determining
Sat@@
Initially
similarity
scripts
-in
AIM
ameli@@
ethanol
603
39th
Uncle
abiding
JUS@@
Ang@@
Roger
BOARD
infrastructural
domestic@@
arom@@
infiltr@@
ICS
gau@@
Provided
GN@@
Accepted
Increasingly
ros
dengan
Link
ond
architect
Brow@@
emerges
multilaterally
ffin
spokeswoman
bery
Miami
2-3
commending
Explo@@
TRIPS
Gon@@
Thor@@
ARE
cular
Advocate
gloomy
acceler@@
cryp@@
graded
Bacteriological
ceme@@
delaying
theoretically
Healthy
rode
capturing
Advance
kel
nap
aper
Clarification
transgender
thirty-@@
aboriginal
hydrocarbon
rect@@
fibers
UNTSO
3-4
twins
starvation
incid@@
uminous
TEC@@
Trump
dissatisfaction
XXV
correcting
CHIL@@
marrying
venous
uri
nursery
halting
licit
expen@@
wavel@@
jol@@
Bhut@@
Radioactive
aining
hab
pests
Xiang
SARS
Sony
strained
Laura
esome
Michigan
thouse
schoolchildren
maize
telescope
USAID
udge
modul@@
discoveries
rosters
1559
Jeff
predicting
viation
Russians
maneu@@
fortunes
belly
delineation
gateway
desti@@
onau@@
waiter
337
Mgr
edit
chase
youll
opposes
Continuous
Alle@@
Lisa
Iran@@
encing
e-
buys
battered
ERATION
ganese
N1
collabor@@
LTD
parade
isolate
Foc@@
sound@@
Internet@@
Rud@@
pleaded
9.4
Machinery
scrat@@
July-@@
quarrel
Cul@@
Boys
rin
incapacity
development-related
assing
349
continu@@
English@@
Conc@@
ophobia
oversees
EUFOR
bloom
interfering
Curriculum
367-@@
regeneration
tandem
interest-@@
Sixty-ninth
wedlock
disengagement
compromises
thanking
Want
Integrating
lunar
mmed
amaz@@
Manchester
atories
heartfelt
wires
Emissions
slogan
henceforth
fares
XXVII
po
EUR@@
porous
lei
refrigerator
accru@@
offense
Loan
ring@@
Books
beard
expands
ment.@@
tence
binary
integrates
b-@@
NAT@@
bilities
olog@@
354
light-@@
arre@@
vors
wrest@@
enshr@@
revolving
336
mini-@@
fertilizers
deplored
Feng
ux
attracts
Self-Government
spacing
Priorities
ampu@@
textbook
poisonous
Abe
istics
you.@@
Chlor@@
prior-period
c-@@
ricular
championship
pots
chal@@
fraud@@
Eric
sm
fia
recol@@
License
alah
detective
Listing
beha@@
Recogn@@
Participating
instituting
insan@@
stretching
laugh@@
mista@@
.htm
Agents
restricts
Ibero-American
embracing
bishop
Docs
Skills
foul
321
above-@@
categorically
diplomat
Football
curves
FIR@@
frontiers
pros@@
paras@@
land-mines
desist
Mand@@
gatherings
Marx
amen
631
mismanagement
encompassed
RD
inasmuch
high-profile
ergy
progres@@
Posi@@
cogens
94@@
Jammu
intrusion
Hunan
administr@@
plex@@
wellbeing
incub@@
cuit
dwel@@
324
Pressure
Writing
rearing
landlord
Jennifer
repres@@
con
Below
Redeployment
Dynamic
nbsp
erec@@
combinations
05@@
ffy
weapon@@
All-@@
President-@@
Dimen@@
confusing
calibre
nutrient
aggreg@@
diligently
stockpiled
PAS
ampl@@
sabotage
mesh
Beau@@
Anniversary
uncovered
fourteen
ssed
omination
stasy
helpless
Eventually
Qin
anj@@
328
titled
Fifty-second
alterations
conveying
versi@@
dez
jungle
iv@@
Wow
Xiao@@
XXIII
sour
greeted
dred@@
Chart
Hang
face-to-face
Lewis
scram@@
L.23
Lef@@
QUES@@
uninterrupted
322
meg@@
Oceania
Long-@@
Currency
HF
Procuratorate
geon
Insert
sculp@@
inn
transient
CN.17
PRSPs
Truce
deliberative
Roosevelt
trum@@
Condi@@
insignificant
chromat@@
Vehicles
condom
Taipei
duty-free
contravene
flam@@
doomed
telephones
presumably
envoys
LAS
swallow
nin@@
retail@@
istically
35,@@
Expression
agrarian
chickens
Break@@
raz@@
MAC
pier@@
Communi@@
ruined
law-@@
arri@@
secur@@
toxins
wai
occurrences
Fru@@
ritual
annexation
ancillary
thunder
geometry
fide
mails
videoconferencing
wiped
Pow@@
gia
chromo@@
selfdetermination
ockey
referrals
beams
unrepresented
Zu@@
awkward
Worst
through@@
tournament
Blo@@
Flight
Jeho@@
cracks
Pon@@
they@@
Dean
resonance
Diana
ellip@@
ecosoc
Judgment
Program@@
REPORTS
Thanksgiving
Zhao
fatty
wrongdoing
Franc@@
eyed
Lic@@
type@@
Univers@@
AH
electorate
forfeiture
commercialization
dwar@@
accidentally
weak@@
Influ@@
Applic@@
antenatal
Serge@@
patron@@
Outputs
HSP
Exports
archive
heav@@
rewarding
upheav@@
Einstein
Intranet
tomb
refoulement
wol@@
morally
inexpensive
ORIGINAL
shelves
VEN@@
interns
clean-up
pse
deleting
ew@@
rhe@@
ayo
Result@@
synon@@
Government-provided
rough@@
altering
MR
icy
repressive
Lind@@
1572
taBDE
Salman
Availability
bear@@
graceful
iser
lessen
self-employment
instig@@
subordin@@
497
X-@@
disaggreg@@
curtailed
inter-committee
institutionalize
Commem@@
AWACS
jealous
Ceremony
Across
arly
Leading
tabl@@
Coherence
technic
aggravate
aerobic
archiving
defec@@
ACTION
instinct
theastern
ularly
indivisibility
alternates
Bethlehem
nucleus
Salaam
Track
CL
too@@
ry-@@
Palermo
Depos@@
shout
marker
originate
cost-benefit
overwhelmed
buck@@
Recon@@
manufactures
Seeing
L.29
Inner
banker
Visit
teens
flock
661
chment
IU
speedily
RO
touches
markers
poster@@
denounce
cheating
Animals
RAP@@
flames
retrieve
youth-@@
anguish
Arab-Israeli
Appro@@
alcoholic
Achieved
recru@@
aders
discounts
SG@@
supr@@
petro@@
Rev.2
fashi@@
Fas@@
exhibited
nucle@@
olig@@
Prospects
northeast
echo@@
gla@@
self-help
、
owl
cyclone
Infant
ackers
battlefield
wide-@@
multiplied
upwards
Hizbullah
worsen
Arn@@
12.5
S-related
Gate
1-2
ing-up
marvel@@
blood@@
nerves
People@@
331
Centers
Depend@@
htm
contrac@@
rib@@
reconfiguration
INFORMATION
Gusta@@
simulate
F-15
CCD
sch
SV@@
recei@@
kindergartens
comprehension
Khan@@
naming
disagreements
hydr@@
XXX
Aero@@
480
February-@@
PPP
Persian
ING@@
briefs
remo@@
vering
Causes
cracked
butterfly
directs
bud
Tajik
NG
1907
Non-proliferation
cheeks
ertility
consignment
6,500
anthropo@@
greeting
coronary
hers
3D
set-@@
Opposition
LP
malignant
feast
l.
take-@@
OEWG@@
invalidity
six@@
Jorge
100-@@
reflective
Bosni@@
mould
metro@@
PAC
Inten@@
PROVISIONAL
pessi@@
resides
Hangzhou
long-lasting
Socio-@@
Compulsory
accommodations
slo@@
sses
nick@@
lowers
refoc@@
Witness
orphaned
JEM
UA
Jar@@
forthwith
SEC@@
thal
conju@@
pursues
H-@@
steadfast
pact
Ghan@@
goo@@
co-ordin@@
inding
SIT@@
bli@@
premier
Venezuelan
grasp@@
hunter
troubling
Ships
1930
anas
Sensing
AWG
Thats
acres
Tree
appended
lucrative
Advisor
NOTE
restrain
remunerated
complementing
Chap@@
endeavouring
tants
far-@@
psychiat@@
wait@@
RUF
Freetown
importer
Amar@@
vate
polis
Chairman-@@
restrained
Karzai
Scen@@
vocal
harsh@@
hoods
solu@@
transf@@
uli@@
prudence
ges@@
libr@@
colonization
totals
aspire
recal@@
Outstanding
underdeveloped
ADMINISTR@@
suffrage
farm@@
riot
precedents
EB@@
toolkit
dictate
Record
wholes@@
asp@@
orium
CMP.@@
509
god@@
Jenny
ications
results-@@
junk
coalitions
brokerage
Taxation
ity-based
See@@
tai
Fox
Diploma
service-@@
harassed
JS2
Detection
ransom
cus@@
Synthesis
subscribed
Pharaoh
Tuen
ife
Extra@@
mode@@
iller
Morning
barbar@@
capitalist
centrality
myriad
Tsuen
bi-@@
426
toes
facsimile
tist
predeployment
tracted
taxpayer
eps
restraining
tray
366
packaged
Sectoral
whale
bypass
cheer@@
Ellen
cha
ras
softly
ad-@@
unpunished
Simul@@
Wing
whir@@
lu
father@@
rehear@@
landscap@@
connotation
UNM@@
thwestern
erroneous
HC
urely
IEC
Expanded
Alfonso
te-@@
e-government
Batt@@
halfway
ISSUES
Kha@@
Tea
metrical
antibiotics
riots
loop@@
benign
mani
iced
sludge
marsh@@
resentment
Saul
att
Produc@@
stemmed
sper@@
onym@@
take@@
sanc@@
lungs
wit
Confid@@
Mode
bac@@
itates
cash-@@
viewer
dark@@
SPEC@@
Graduate
drop-out
kidn@@
photographic
vom@@
rim
Amaz@@
moderately
paints
Republics
329
chur@@
Presi@@
CIA
reopening
procession
URA
ig
Assad
demean@@
Context
reson@@
sensation
Block
rea
Mothers
grenades
36th
obedience
isi@@
dorm@@
manually
Hans
es-based
sibly
reform@@
etal
dot
Galaxy
peremptory
proscribed
Returns
Shal@@
cation
Coordinated
ordination
Fan@@
inter-ethnic
CRP.3
Zhu
multi-donor
longing
And@@
L.26
Sergio
capsule
Subsi@@
3,200
Transmission
Rotary
Astr@@
otting
contempl@@
newest
Mortality
Calendar
Killa
interrelationship
upgrades
460
MBA
Coun@@
440
Länder
capitalize
sug@@
Ot@@
Y.
Inno@@
VE
Mitigation
messaging
xible
Za@@
turbulence
Juven@@
USE
extradited
mission-specific
sam
collector
booming
imana
foreg@@
2,800
oh@@
displacements
tranet
non-use
Conversion
grabbed
s.The
heroic
scar
tones
Ce@@
UNJSPF
vil
Pé@@
residue
Ros@@
gossip
Ratio
tribu@@
tari@@
Utilization
leys
seizing
bottom-up
Aw@@
densely
eats
TW@@
turb@@
PentaBDE
tural
ultrasonic
record-keeping
budsmen
Limitation
incumbency
LTTE
Lomé
revocation
vian
anders
aggressor
rubbish
News@@
state-of-the-art
erected
close@@
strips
shone
lamb
remedi@@
simplifying
luc@@
begging
Coop@@
Authorizes
channelling
Dates
apportioned
art@@
Taiwanese
dise@@
notifying
Infec@@
Industri@@
aline
seeker
uncommon
aly
staple
achi
Implemented
necessitate
33rd
deserted
Twitter
Ruth
Mach@@
SAL@@
351
gender@@
Chur@@
Shelter
Rot@@
rug@@
Agre@@
adan
terribly
Basra
L.27
present@@
Behind
junction
abstained
disguised
subl@@
Sid@@
751
30.@@
f.
cathe@@
unfolding
impress
abdominal
Smo@@
heavens
inno@@
Mid-@@
motorcycle
tful
Lif@@
assed
Cauc@@
Fuk@@
1950s
Abbreviations
whol@@
Evalu@@
vings
bore@@
Achievement
French-speaking
two-way
Sud@@
surgeon
equipping
Set@@
field-based
Ladies
stip@@
frag@@
ua
Separ@@
infin@@
Diego
accusation
tempted
manag@@
agon
disa@@
oly@@
subsidiaries
mitted
Jurisdiction
carved
Lawn
lawmakers
furtherance
longstanding
izhou
beforehand
Explosives
sprin@@
Salv@@
Wind
academy
menace
atis@@
g.@@
Ea@@
NonProliferation
lapse
remembrance
otechn@@
settler
insurer
374
mercury-@@
tidak
bloc@@
deregulation
reinsertion
superficial
adium
Eminent
jeopardizing
chin@@
ambigu@@
hears
lymph@@
Port@@
Transl@@
Sever@@
hint
348
persistently
derivative
dit
electrode
aggregated
operationally
anya
gg
Brid@@
seven-@@
Example
addres@@
aise
reimburse
glucose
burdened
2,700
quire
Qal@@
Stor@@
pluralistic
SN@@
lubric@@
onward
Aer@@
lar
Sav@@
ership
rampant
2,600
molecule
on-free
Tool
harbor
cushion
-2
ruins
compu@@
IAP
Mr.@@
ledger
Ivan
Bus
GEO
Literature
consi@@
c.@@
millim@@
plen@@
self-evaluation
Determin@@
paralysis
tainment
neat
SAF
denominated
ishi
Mubarak
Uniform
possessions
sweet@@
percep@@
glue
Panels
Growing
ogenic
Amy
abstention
synthesized
Hua
ethn@@
Hillary
LAC
xis
cracking
averages
ming@@
Harmony
admired
acquainted
twist
ames
firm@@
astro@@
battles
334
constitutionality
timetables
conceptions
glaci@@
LD
machineries
stamped
rets
L.25
hedr@@
amparo
Surface
Meh@@
oot
LCQ@@
Bai@@
Kay@@
housework
unfinished
BT
і
index.@@
Easter
ever@@
Moving
test-@@
pathway
amid@@
crystal@@
Cin@@
aggressively
alde@@
expec@@
inflammation
Sixteenth
od
appalling
én@@
bucket
presid@@
sixteen
&apos;an
gel@@
unspecified
TF@@
atom@@
3,8@@
ACP
gastro@@
iya
Superior
mission-@@
Guardi@@
wartime
opping
vand@@
ver-@@
scars
Car
Pennsylvania
tempor@@
coaching
ghua
pronged
absen@@
athletic
`a
FIF@@
Super
commentators
ritis
principals
above@@
Fighting
ODP-tonnes
angi@@
disagreed
Wolf@@
29.@@
Quick@@
stair@@
K.@@
orch@@
resisted
reef
congrat@@
stament
transformations
Hut@@
Productive
teen@@
dues
sofa
ousal
arable
bians
tice
Um
regener@@
three-day
Dat@@
Freddie
banner
discre@@
Kathmandu
Holdings
shrimp
exig@@
uniformly
perennial
Replacement
burgl@@
RFM@@
Rwandese
García
Speak
ecd@@
displaying
sham@@
north-west
divides
Jose
philosopher
sleeve
freel@@
ariness
ascertaining
Youn@@
Cont@@
finest
Than
candidature
African-@@
majeure
railroad
packet
HI
habitation
delinquency
shores
inations
disregarded
wall@@
spective
unitary
341
hands-on
virtues
155-mm
Dow
Actu@@
Nk@@
sme@@
slot
impedes
fragments
pavement
fashionable
noisy
XXVIII
deliber@@
hable
332
Lei
32nd
sectarian
shouting
Conf@@
sulphides
polye@@
familiarize
Extreme
twenty@@
cartoon
prizes
reate
destro@@
70,000
thane
ventions
ark
780
Massachusetts
CER@@
fascinating
Characteristics
departing
tang@@
compressed
neglec@@
tes@@
Agr@@
3,600
hobby
then@@
Analytical
shark
quin@@
364
ente
itories
Instance
visually
Nak@@
deduc@@
Rodri@@
Aim
sity
Statelessness
counsellors
POLITICAL
hies
IHL
traps
courtyard
Plastic
Fishing
impul@@
synchronous
uli
dity
unreliable
m3
lysis
pulp
vert
Quite
dared
ffer
tique
SAARC
bailout
Shortly
390
Consequences
pré@@
thri@@
inconsistency
Fred
cies
dresses
Sain@@
Furniture
Separate
congratulating
old-@@
Tech
Any@@
frequencies
EE@@
quantifiable
Appropriation
arithmetic
Eat
nish
HO
Orders
demise
rors
debu@@
exterior
arely
Cred@@
Client
resourc@@
stern
demolished
MSAR
veri@@
Sue
new-@@
Xin@@
congestion
say@@
cholesterol
icians
Chiefs
furi@@
eclip@@
sur
darling
Game
й@@
flooded
stret@@
Europe@@
Normal
Sessions
orable
halls
impa@@
ever-increasing
ounder
Dé@@
Specialist
Simpl@@
Ray
Hot
trash
Nicholas
gres@@
compatriots
kne@@
renewing
acceptability
tians
seamless
banana
spect@@
Achievements
intercountry
graft
mim@@
alli@@
Fasher
Concer@@
Tyre
disposable
356
,000-@@
inextricably
forty-@@
zzy
light@@
eb@@
kov@@
Pan-@@
Wai@@
infiltration
ICG
restart
CIT@@
pensioners
ika
pleas@@
frost
е
ceases
enabl@@
Kabila
eco@@
quorum
Span@@
Tube
distort
Martin@@
Voice
Expansion
revoke
sandwich
Integrity
Migratory
special-purpose
Rho@@
currents
freez@@
Mali@@
doubted
Alaska
kra@@
anti-trafficking
fork
coloured
conditionality
Somalis
emigration
switches
ét@@
.You
Allowance
medications
loneliness
sinking
Env
mascul@@
brass
fair@@
VEL
realizes
dislike
oy@@
synchronization
ATIVE
cio
eval
ish-@@
hips
reflections
MAT@@
29-@@
win-win
Gong
tenment
eagerly
aving
curi@@
KWD
beli@@
Zones
aus
Spen@@
thirteen
bearer
Las@@
appoin@@
fresh@@
lighted
alitarian
COUNTR@@
ATED
cereal
commissioning
Inadequate
zy@@
Kordofan
automotive
conditionalities
inate
357
abra@@
UNTAES
Fear
soybean
chores
Mean@@
Physi@@
347
Stamps
waged
mall
rag@@
Demining
apprais@@
well-defined
gendered
unwillingness
apa
scop@@
ough@@
Nancy
Rabat
seafood
rafts
IDE
FATF
Bukavu
addicts
audiovisual
Secure
bombardment
Guer@@
HSBC
Tashkent
Capit@@
fixed-@@
dened
tane
Transfers
afflic@@
Spar@@
viewpoints
spectral
solemnly
invaded
Sub-Saharan
wee@@
bw
asylum-@@
Licen@@
Dream
minimized
Augu@@
roll-@@
careless
Types
iny
Latest
Sensi@@
eb
intellectuals
impacting
Inflation
inscription
coincidence
transplant
boiler
analogy
MAN
BDE@@
periodicals
insurers
Ré@@
phon@@
picnic
correspondents
penny
terns
Rich
wret@@
sume
s鈥
interloc@@
aloud
Assessing
consequential
homelessness
ür@@
Linda
FDA
Preparedness
dine
gression
Coordin@@
someday
1503
olving
hid@@
numer@@
sewing
Valencia
sparked
Hear@@
sweater
divergence
Daddy
Arbitral
un-@@
Depart@@
costed
on-going
aying
grandparents
Davis
buttons
Vil@@
Anthony
itus
dentist
tainer
rella
persisting
browser
Gets
Asian-African
fermentation
farewell
prefabricated
Pav@@
traum@@
delisting
Prague
triggering
appreciating
discouraging
ice@@
opi@@
Back@@
Function
Rum@@
midwives
394
bibli@@
FAR@@
rule-@@
insectici@@
13,000
abro@@
set-up
Gul@@
Alco@@
nik
thest
Consumption
gang@@
Paul@@
●
reclamation
V-@@
retur@@
simplest
ulu
realise
NC@@
Qa@@
Savi@@
enrollment
lifes@@
dolph@@
reat@@
prefectures
Cristo
embarrassed
fabrics
rebound
Zagreb
injected
gastric
sizing
write-@@
Vacc@@
boo
owning
rants
2,300
ultra-@@
oked
Imports
ance-@@
Fr@@
reprocessing
USSR
worms
Angela
divi@@
1,900
suppressing
archaeological
Surveillance
alcohol@@
excuses
Urgent
outflows
polymer@@
justifiable
Birth
sica
Bunia
Acute
inflic@@
herb
consol@@
414
10.15
TRAN@@
mative
scrip@@
rehabilitated
ung-@@
undeniable
approvals
repeti@@
ipp@@
disruptions
jewel@@
aforesaid
lon
just@@
Valjean
sporadic
Parliamentarians
Dick
Properties
atable
Stock@@
diving
verte@@
prou@@
dumb
weary
cost-recovery
ffing
Angel
appearances
Riyadh
sians
ressing
Invol@@
Formation
plating
DG@@
BUDGE@@
rees
enchan@@
Disney
enzy@@
re-elected
veterinary
agues
Div
hygienic
Output
insure
Separation
CAP@@
Perspective
swelling
Bond
ENG@@
sition
celebrity
coma
bribes
stereotyped
381
coincided
ethnically
1521
D1
arium
bucks
marble
18,000
u-@@
transformative
Ecuadorian
reshap@@
grat@@
glimpse
foc@@
CCP
Constituent
assertions
Race
tidy
dean
airfield
prolong
Tan
peac@@
decim@@
tiously
olution
MM
nurturing
Lily
tational
ONUSAL
computed
trea@@
implying
Partner
ishable
MPF
bies
expl@@
SEC
Entities
accuse
LAN
evic@@
practitioner
distrust
outsourced
Adap@@
560
ft-@@
assimil@@
crane
curtail
straw@@
CONCLUSION
Municipality
Inte@@
relentless
noodles
crust
astr@@
fuck
Leisure
radius
vey
tomato
mum@@
reasoned
Amsterdam
command@@
conflict-related
DI
unskilled
refurb@@
Bet@@
BU@@
panellist
ometry
belts
90-@@
chilling
Hard@@
NAS@@
knoc@@
dra
Ahmad@@
edible
silently
unsubstantiated
700,000
psychologist
charcoal
3,7@@
Traditionally
Hindu
ture@@
puzzle
bidder
expropriation
amazed
sexu@@
Nineteenth
Houston
coded
unbalanced
YO@@
Jed@@
Bogot@@
Hard
think@@
irrevoc@@
Need@@
inflow
María
Ok
PCA
tragedies
salesman
3,9@@
othermal
5a
spokesperson
unwarranted
bordering
CULTURAL
Down
female-@@
south-west
mation
Dublin
productions
omed
Av@@
slim
E.9@@
DOS
segregated
late@@
2009-2010
stors
legi@@
line@@
sigh
uttered
rite
social-@@
biannual
Concep@@
Baby
DF@@
agri@@
CLOUT
.1.
Accessibility
Fat@@
homogeneous
otive
contests
Ign@@
）
Nuclear-@@
503
trader
treasures
dip
Carolina
01-@@
thieves
Quar@@
escalate
chaotic
tumors
Magistrate
resour@@
deco@@
trademarks
illi@@
caste
wetlands
hil
Bekaa
sharpen@@
orus
founders
Pent@@
nation-@@
Northeast
interviewing
cliff
warranty
asthma
doned
metallur@@
jan@@
clone
Roo@@
tetrachloride
Clark
concurs
10.10
Scholar@@
402
turtle
vations
soda
120-@@
Lynch
Phnom
Answer
paving
diets
interfe@@
constrain
rub
cries
olic
Horiz@@
Chil@@
tapping
round-@@
L.32
11.2
UNMIN
rhyth@@
NBA
thirst
tenant
unscheduled
decrimin@@
34.@@
insulin
overs
minimization
PCBs
thesia
dye
GSP
resisti@@
Play
Clearance
full-fledged
Adolescent
vates
expatriate
bust
interoperability
volcano
Koso@@
ACH@@
Gas@@
Kel@@
Terminal
demilitarization
Stateless
ampli@@
GO
F-14
Cartographic
fav@@
crews
narrowed
Internationally
resultant
believers
non-payment
dimin@@
authoritarian
Ownership
UK@@
geology
balloon
Seminars
entertain
Magistrates
tales
scrap@@
Camero@@
sperm
cycli@@
bisexual
COL
ted@@
RT
dar
quet
Com
NPM
greet
keen@@
guarded
violently
extracting
overlook
worthiness
Finan@@
sancti@@
first@@
fade
entrepreneur
tidal
DRC
Adobe
Impunity
monks
ht
L.34
depreci@@
Concentr@@
kery
tlement
unabated
steak
Asked
chrysotile
hospitalization
ultur@@
kou
haste
omer
eting
towel
reopened
MINUGUA
Move
Alber@@
470
Phone
Bour@@
Registered
correspondent
stain
Duke
issa
tarian
Reti@@
header
aner
Beach
built-in
MX
DR@@
boy@@
nomadic
substantively
non-agricultural
Yau
deserving
Andr@@
icle
Sn@@
lon@@
this@@
etern@@
Allied
saves
reckless
Clinic
oblige
Qaeda
bered
illu@@
tdown
unch
L.38
class1
bosses
competitor
Homs
life-saving
realised
Handling
Whe@@
urry
erous
ww@@
mind@@
Probably
Beauty
childbearing
acing
Bad
Rod@@
IG
Bishop
bounds
352
pada
p.
dazz@@
salvation
riches
ño
dictated
Ron
Lankan
OHRM
abrupt
rho@@
info
resisting
scenic
better-@@
comparator
EX
emin@@
Distin@@
Carry
-time
Band@@
cadre
8,500
polluting
Mosul
litre
shocking
Countr@@
800,000
cruelty
sacrificed
ennium
Tab@@
10.5
neo@@
11.1
orrhage
now@@
daylight
erite
OFF@@
nightmare
based-budgeting
TAB@@
Boy
gio
14,000
Fati@@
Clari@@
ultraviolet
lam
CNDP
landfill
humili@@
Ramallah
advers@@
translator
child-friendly
magical
grocery
famili@@
interpre@@
Wherever
pneumonia
sociocultural
dane
UNFIP
tighter
divisional
lawsuits
49th
scrupulously
MTR
Surveys
proprie@@
Buil@@
Findings
Secretaries-General
Penh
NY@@
self-confidence
ITIES
your@@
substituted
Georgi@@
bachelor
in-service
isters
toilets
treason
Cosette
assem@@
WP@@
Smoking
LAW
Conflicts
sequencing
Libr@@
styl@@
worth@@
optim@@
great@@
ulture
violators
SFOR
compli@@
colo@@
Intern@@
fabricated
dissolve
Recurrent
WORKING
exemplified
ichi
Manhattan
shaken
servitude
aspir@@
FBI
inciting
verge
faiths
Atlanta
turkey
Satis@@
guitar
weap@@
Seventeenth
foresee
Codes
justly
Lhasa
Jap@@
Tamil
Katanga
hormones
355
mah
specimen
L.28
triangle
consuma@@
humiliating
criminalizes
963-5@@
criticisms
whi@@
Situations
Relating
Friendly
coinci@@
HIV-@@
crusts
Confidence
hydrocarbons
onga
ware@@
NLD
monument
troika
body@@
doll
Editorial
balloting
two-week
Faced
writings
Link@@
ission
Khalifa
3.10
wary
seque@@
discovering
ego
Informed
tore
inflict
critici@@
Maputo
ske@@
Talking
sticking
344
shattered
longevity
tantamount
discontinuation
stants
Nou@@
385
Sept@@
Saleh
Modi@@
y-to-@@
apprehended
601
Affected
unjustifiable
Brook@@
incredibly
angan
stasis
Version
military-@@
pli@@
COOPERATION
unmanned
HIV-positive
iding
Certi@@
masks
valence
defini@@
semiconductor
fulfils
proclaim
ot-@@
collap@@
386
3,5@@
Citizen
Sahar@@
incarceration
cc@@
10.
drome
ditch
goat
wri@@
DPA
cels
underestimate
fatalities
overwhelmingly
codi@@
subver@@
estates
wrath
Forec@@
consider@@
equivalence
statisticians
feminization
ideally
sulphur
meng@@
hinders
-9@@
realignment
communi@@
trav@@
Jintao
O.@@
Pelindaba
lities
Dayton
Bis@@
fabrication
stru@@
asion
injustices
fragrance
chapeau
totality
noncompliance
grandchildren
Fifteen
obstructed
Nasiriyah
amin
rebel@@
Sug@@
flash@@
31-@@
equivalents
LAN@@
Kim@@
better@@
Bolivian
i.
UNMIH
icking
Enabling
argu@@
Baku
ADOPTED
taneously
ster-@@
upsurge
raining
hostage-taking
eruption
descend@@
revitalized
3,6@@
Hamlet
Programming
lim
487
persecuted
alien@@
ventric@@
stubborn
dem
Joey
aces
cancell@@
Implications
Candi@@
5,0@@
regrettably
boycott
Engagement
deploy@@
encounters
sear@@
hug
plur@@
fine-@@
Prefec@@
Armen@@
488
headway
2008@@
eda
bundle
353
fe
exclaimed
Antilles
literate
colonies
trait
envoy
Frameworks
rotor
agre@@
Bern@@
Ohio
assaulted
embarrassing
Inter
372
fertilization
bowed
Ship
dification
exhum@@
vet@@
mony
nasty
cheques
HAN@@
mans
quicker
Eleven
bleak
reconsidered
Ice
Ebola
lander
mitigated
fling
Tornado
isha
Modern@@
thankful
tails
teamwork
Leo
Polisario
ressed
Dry
NATIONAL
Ral@@
world-wide
spraying
Plenipotentiary
markings
time-frame
makeup
tyre
booked
telem@@
grassland
campaigning
sexy
health-@@
risked
PAR
986
鈥淚
Excep@@
phosphate
casing
Simply
modi@@
north-eastern
materialize
re-entry
Sunni
Elaboration
editions
Monica
Tolerance
not-@@
Fis@@
Six-Party
Tbilisi
vitamins
turnout
erode
413
diment
Know@@
Kum@@
bage
Budge@@
hol
deception
Easy
Fast
addafi
engineered
bu
Formulation
exaggerated
Alberto
worrisome
thy@@
brow
Typically
CONSID@@
Kil@@
Anti-personnel
high-income
Ed
nutritious
Mans@@
Singapore@@
bust@@
Chamorro
smuggl@@
partnering
aur@@
contemplate
Q.
Negotiation
Eduardo
distressed
10.4
SC@@
hailed
SITUATION
portrait
ellers
Excellence
ERM
grading
LULUCF
mills
BER
punch
applaud
ongo
reser@@
localized
graphical
-like
tying
Mei
assign@@
Stewart
tightened
diction
Symbol
Salaries
sights
slightest
brighter
ferry
owes
Rid@@
pix@@
episodes
caps
sings
intri@@
confron@@
ascri@@
Zhen
Premi@@
UNU-@@
TEAP
Run
Ss
disguise
Piracy
transform@@
Didn
burden-sharing
pancre@@
,00@@
setup
McDonald
Architecture
verb@@
Economist
Mont@@
Greg@@
drums
Influence
confessed
hydration
gratified
389
ACK@@
Wuhan
373
stigm@@
Luanda
Anton@@
watercourse
evade
hima
charities
Turin
sculpture
Intervention
shields
decision-makers
acry@@
SY@@
hello
408
Fur@@
Side
metal@@
icked
erc@@
Mario
Bail@@
ée
attaching
anese
decentr@@
trivial
rov
&apos;E@@
Veter@@
reliably
trop@@
sanctuary
willingly
replicate
constell@@
Pep@@
Nev@@
amateur
ldnt
ramifications
bloodshed
pepper
processors
Hariri
recuper@@
htm.
hail
reintegrate
ling@@
cyn@@
UG@@
There@@
Assessments
eagle
usion
tuning
（
SLA
-sharing
retali@@
lov@@
extern@@
Gall@@
relaxing
973
accentu@@
requisi@@
elli
angar@@
Dil@@
Remarks
soever
indu@@
House@@
UNIPSIL
plagued
Insufficient
irrational
yarn
412
Marc
arer
pillow
morphology
lifts
elevation
ultrasound
Carl
Paraly@@
accep@@
Multi-year
ais@@
inconvenience
post-war
South-@@
transmittal
Interaction
sects
Safe@@
monk
acquaintance
nity
terminating
Fannie
peanu@@
hier
SN
anza
rebuilt
cites
Author
Decentralization
Bla@@
digest
revived
Auditorium
justifications
Clu@@
EA-6B
adaptability
summons
prompting
bladder
nationalist
extrac@@
IK@@
Visiting
achieves
eptive
hered@@
discarded
Brahimi
Publishing
Bing@@
solven@@
reminding
automobiles
Pro
leaning
Cogn@@
bious
tling
thum@@
launchers
Linguistic
maltreatment
Og@@
statehood
skil@@
attackers
sewerage
TRE@@
Helm@@
apt
343
2,100
boil
Installation
Chandler
prophet
realism
lith@@
Countering
arma@@
resemble
forgery
339
Coffee
Deplete
Sally
Salt
rebu@@
oria
itiner@@
NY
hero@@
typing
Bashir
Deutsche
ghty
dive
unnecessarily
DD
Looks
Intel@@
hereto
Vacancy
Origin
Dong
osa
Environ@@
rhea
stances
415
biz@@
loun@@
Wo@@
grass@@
packs
hosp@@
Ship@@
grac@@
orphan@@
4,8@@
Round@@
threads
vanished
Ener@@
hill@@
Trademark
Tsang
er.@@
LGBT
substrate
veteran
Chrysler
Cut
Cassation
RIC@@
UNOG
Bau@@
pronounce
nigh@@
alkali
cartel
Perfec@@
417
commissioner
ause
performers
handcu@@
428
rack
Assignment
exploitative
vative
ipping
Hygiene
experimentation
traveler
cauc@@
Enactment
assess@@
money@@
wisely
steril@@
prerogatives
Lucy
underneath
sue
corrobor@@
rationality
cuc@@
Quick-impact
apprentic@@
plains
Declarations
Yaoundé
377
dinosa@@
successors
Billy
sali@@
Rates
comedy
snack
esteem
bread@@
Mandat@@
smallholder
latitude
counc@@
12.2
FICSA
dissenting
accrue
363
obli@@
IFOR
Engineers
woo@@
pedestrian
Meth@@
Decree-Law
ct@@
national-level
shing
Facts
perman@@
dalam
fantasy
Forensic
labor@@
drun@@
exotic
faculties
lary
symposiums
toxic@@
hereafter
crediting
concre@@
L.39
unveiled
g.
fum@@
Bell
lanes
humid
UBS
Architec@@
turbulent
hydrox@@
curing
mandate-holders
devoting
fountain
DCP
Nicolas
airborne
forfe@@
Desi@@
syllab@@
entally
Conver@@
voc@@
aden@@
pilgri@@
Tibet@@
dew
oc
&apos;Djamena
decomposition
0a
avan
ruth@@
undo
alloys
Believe
leveraged
statistic
descen@@
belongings
Metal
revolu@@
tyran@@
permeability
philatelic
arran@@
Unid@@
Laun@@
Bougainville
cis@@
clerical
neighbor@@
eit
10.3
souvenir
ddling
snap@@
vase
Soft
redeployments
vial
analogous
runway
Tracking
Introduce
professionally
APR@@
conquer
Premises
adven@@
3.30
begin@@
404
Da
ffled
416
Realizing
Chronicle
ence-building
vs.
TRA@@
usur@@
IO
sounding
r.
twisted
idah
AO
Jason
Jon@@
pill
morrow
advis@@
reinstatement
triumph@@
veterans
Ghaz@@
510
disruptive
oak
ш@@
harvested
piles
enza
Ning@@
Ability
infer@@
anti-Semitism
itry
Sym@@
Aleppo
grenade
help@@
Ngu@@
crossroads
expres@@
artificially
nutri@@
shortened
repudi@@
pou@@
chlorofluorocarbons
scare
ral
Dark
spoil
earing
Fostering
IDB
mosques
dd
Eighteenth
warmer
logies
exclu@@
SU
southwest
NT
Yangtze
globalizing
thunder@@
03-@@
Hebei
CPD
367
475
456
Wester@@
skies
devol@@
lassi@@
ateau
Advis@@
warring
cles
ior
survivor
Tian@@
basa
toxin
disg@@
architects
distributions
362
Detec@@
bare@@
.gov.@@
fluids
emen
SPLM
ер@@
fearful
Bishkek
es.
chee@@
Jiang@@
Deli@@
Sac@@
Timber
familiarity
REPRESENTA@@
multi-party
Moder@@
endor
moderation
Tsui
Behavi@@
waking
additionally
Betty
540
ridden
sement
OzL.Pro.@@
NP
ORGANIZATION
Politics
standstill
casts
ults
Á@@
poised
Pit@@
congenital
Inc@@
copied
thyroid
grou@@
asserting
eta
same-sex
aleg@@
illegality
Carol
COMP@@
witch
harmonic
Oct.
exacerbating
notorious
ml
1953
King@@
illors
4,200
referendums
baking
aping
MISC.5
aldo
ideologies
cartri@@
rell
essional
Cola
syndic@@
flap
Sister
ane@@
422
stab@@
Colombo
Responsibilities
Nav@@
emotionally
narr@@
coaches
Cargo
IFIC@@
Visa
adj
Buy
Kol@@
Rape
embar@@
Flor@@
reless
compliment
aye
seam@@
Cameron
retrospec@@
consult@@
ype
3.0
wart
corroborated
Roberts
administers
405
plausible
soared
660
emancipation
EGTT
erie
Kung
droits
non-food
interven@@
L.30
aggregation
Seller
viscosity
391
asph@@
onomy
BAN
ket-@@
Integr@@
5,200
12.30
Non-recurrent
favor@@
anonym@@
olitions
orie
Advances
Every@@
spel
Assurance
Evolution
cottage
devoid
publishers
LETTER
orna@@
arresting
constitutionally
knot
Cooperatives
go-@@
fairs
orient
hypothe@@
L.36
Low@@
ropic
382
411
perpetr@@
moderator
comic
UNSMI@@
permissibility
northwest
rust
publisher
Interested
cache
izations
Jerry
NCDs
ten-year
planetary
pane
demar@@
1.30
ju
Formed
Stric@@
MC@@
enlightened
escorts
transformer
dedere
Bell@@
Bruce
Servicing
arren
Bird
taker
articulation
replying
presumptive
Photo@@
enunci@@
knowledgeable
raph@@
weeds
er-level
ustices
periodical
coastline
RIGHT
hourly
erect
edic@@
admissions
Theatre
veil
uals
Ballistic
AC.96
Hep@@
Sali@@
ère
autop@@
nonsense
tuality
reckon
dependant
descriptive
MEAs
China鈥檚
Administr@@
501
interfaith
342
lump-sum
IEL@@
look@@
limb
mat
reconciliations
pasture
392
3,700
potable
ts.@@
Jing@@
qing
applause
newer
typo@@
contended
DC2-@@
inhibit@@
headlines
nominating
innov@@
wardly
rabbits
multiplicity
enormously
rels
internationalization
Osama
38,@@
Gan@@
erase
lottery
Cun
Endowment
Bernanke
Hann@@
mindset
Maur@@
indemn@@
hesitation
titan@@
misfortune
run-up
infringements
uptake
conceptu@@
kernel
upro@@
clerks
cultivating
Contingent-owned
mont
firearm
clero@@
Ordinary
navigational
swer@@
igni@@
Iraq-Kuwait
INST@@
vie
outrage
Kurdistan
usher
Hans@@
volunte@@
Efficient
mpic
MER@@
descended
eability
River@@
Graham
rotate
Defenders
travelers
Expanding
peer-@@
Lyn@@
extravag@@
Cry@@
Completed
Deg@@
Ye
segmentation
1160
politicized
scand@@
Exhi@@
Thought
Vulnerable
371
rescu@@
443
ingi@@
.m.@@
NF@@
..@@
agne
UN-Oceans
Matri@@
Fujian
luxu@@
confin@@
UNTAC
rab@@
bred
accommodating
Koreans
excavation
envelop@@
Fall
Seattle
nee
counterfe@@
organise
overcrowded
openings
Deci@@
Spon@@
DRA@@
nearer
liquidated
Sak@@
tapes
cartels
exquisite
Tig@@
Presently
prestigious
Australians
painter
alogue
font
itely
emphasi@@
mourning
beverage
combat@@
prognosis
dispat@@
retiring
abat@@
45-@@
cost-of-living
361
SECOND
ubi@@
MON@@
Va@@
intolerable
delim@@
monkeys
Guinean
deflation
mob
lading
prises
doms
0.0@@
carri@@
ionizing
wash@@
fixation
lier
ERUs
Soldi@@
dash
Sustained
generals
gyna@@
torque
copying
deri@@
Las
oline
strat@@
brigades
Vancouver
rene@@
retrieved
unexpectedly
arsen@@
halving
ambian
Links
resuming
Eg
Signatures
hang@@
danced
Essential
gu
ign
gency
2016-2017
Yale
CHW
stipulating
Parad@@
Ken
usa
semi
interception
cyber
inadvertently
confir@@
jewellery
interacting
redundancy
realistically
encapsul@@
yaw@@
concealment
catalyse
athle@@
most-@@
Wai
Candidates
Clear@@
avier
Kle@@
hel
39,@@
arim
Vac@@
Supports
finals
Kindly
3,400
ischem@@
Abol@@
tetanus
Colum@@
PROMO@@
Theore@@
boiled
organis@@
нд@@
Vice-Chairs
mega@@
augmented
reci@@
guerrilla
donkey
labelled
UNSMIL
elbow
reprisal
illo
Minors
32-@@
rejuven@@
abd@@
exceedingly
netic
slump
comfortably
codified
postage
liquids
sediments
G20
16,000
defe@@
erto
LI
Hir@@
Mapping
follow@@
fugitive
Your@@
439
obliges
lav@@
tionality
irreparable
fail@@
Fail@@
Awareness-raising
P-1
zen@@
Chechnya
corrup@@
merchants
interdiction
portrayed
his@@
Thirty
Andy
prefecture
adultery
Imp@@
capital-@@
1820
Illinois
MINURCA
esc@@
Raise
mingled
trim
Regime
quotations
newly-@@
358
fairer
differentials
liti@@
PEOP@@
appliance
opes
4-5
devaluation
Yokohama
359
Allow@@
ove
ashore
Al-Quds
2003-2004
409
mised
batt@@
opport@@
12.1
436
sadly
procu@@
judicare
Consi@@
monaster@@
remembering
insisting
Resumed
з@@
Maximum
Introductory
Jama@@
backwards
Creative
RED
Child@@
frankly
tunnels
lus@@
fo
worded
5.30
tup
congressional
specialised
PG
Send
racially
goats
authentic@@
Part@@
г@@
cephal@@
elim@@
W-@@
Maltese
portedly
bushes
Grandpa
dles
Civic
facets
ң
vap@@
compass
Schem@@
youngsters
operandi
lt
Format
Ball@@
dissent
Assembl@@
cancel@@
structive
reten@@
ERD
L.37
converter
cogn@@
secretarial
Suggestions
UNIS@@
adverti@@
Red@@
Entrepreneurship
constra@@
patriotic
Quad@@
Ration@@
Bedouin
suming
Bos@@
magnet
lemon
perc@@
п@@
cos
cone
inqu@@
Shanxi
6a
tif@@
sab@@
moist@@
Icelandic
ANNEX
puzz@@
greed
Hezbollah
verbs
othy
bral
Symbols
heap
comprehend
Neil
Fire@@
salute
pre-existing
project-@@
tor-General
decommis@@
manuel
369
Heights
Hitler
ael
cycling
gravit@@
Dignity
quarter@@
balance-@@
turers
suppressed
discloses
scour@@
fle
vastly
Guangxi
chas@@
me.@@
Rich@@
truste@@
selectively
eph@@
pamphlets
IPR@@
hut
derogable
Fif@@
sophistication
ce-based
Kl@@
ue-@@
Announ@@
Consular
ín
BINUB
Four@@
status-of-forces
hl
contagious
anti-terrorist
1591
vatives
ENCE
Interpre@@
disrupting
isnt
luent
RC@@
coup@@
Environmentally
Strasbourg
postmark
COPUOS
pupp@@
Lawrence
Preamble
Composite
vens
motivations
fraternal
assassinations
Nit@@
FI
feminine
Loo@@
L.31
fort@@
placeable
Gy@@
`at
hindrance
ific
ometers
work-months
corrigendum
Sle@@
adaptable
dus@@
uru
fores@@
coatings
Upgrading
Preparing
anytime
Fres@@
announ@@
enjoyable
listings
alising
cherished
acupuncture
Mathematic@@
senti@@
Jo
glam@@
aths
excre@@
hk
region-@@
materially
reven@@
PAHO
Chau
identity-related
Merkel
Nicaraguan
Nyala
stun@@
Celebr@@
ARD
licensee
Procurator
copy@@
Sex@@
Deliber@@
sufferings
rationalizing
HQ
Domin@@
403
geometric
Conse@@
trou@@
renovated
clari@@
asser@@
Danglars
spine
suspending
rotary
sensory
Rat@@
amb@@
collegi@@
Ian
ICES
Thompson
itatively
busi@@
Divisions
pede@@
Attempts
dice
overes@@
Serv@@
come@@
ductions
Reserves
Naturally
aj
obese
outfit
ated@@
Decided
downstairs
inducing
Shaw
Congrat@@
borrower
allotment
partment
scent
havens
pronunciation
Brasi@@
Tas@@
Fi
-in-law
eradicated
aar
MISC.@@
stagnant
geneity
leans
Enti@@
syr@@
lization
ib
doz@@
recognises
replaces
Mid-term
Organisations
368
giants
FIFTH
tor-@@
Qingdao
intermittent
asphalt
confine
512
calibr@@
reassure
suitably
uda
UPU
Kobe
confrontations
Zah@@
exchange-rate
arding
emph@@
rapes
socks
diagnose
illings
parked
Claude
Kelly
ing-house
averaging
950
Julia
Tour
imperfect
suspicions
Employer
iteration
locals
oi
favouring
adow
Apparently
Urge
flowed
paradox
pizza
cun
horri@@
aiding
greg@@
Astronau@@
UNICRI
Fried@@
etho@@
L.40
Mart
cyclones
Hosti@@
Stand
orn
photoc@@
Born
Calling
incin@@
379
companions
tec
modem
translates
snap
er-in-@@
heighten
Clim@@
determinations
wron@@
mentor
cognizant
Sponsorship
wrist
Supervis@@
teenager
kingly
inscribe
Hong@@
southeast
tomatoes
ficial
withhold
435
squir@@
REN@@
captivity
2011-2012
aq
bearings
Chengdu
atorates
guing
06-@@
Depts
ASYCUDA
T.@@
faul@@
Khalil
urity
transcripts
Corporal
L.35
everlasting
action@@
pedagogical
flexibly
retre@@
antioxid@@
meaningfully
Silk
PLENARY
Signific@@
11,000
fluent
Offers
multiply
shiel@@
inclination
myth@@
reconstruct
supplemental
phy
tem
Sep@@
Samawah
critic
north-@@
invent
Auditing
bby
Vice-Chairpersons
Corn@@
WAS@@
Mut@@
transcript
kuk
deep-rooted
prefec@@
Milo@@
abet@@
Archi@@
bris
lever
yun
Renminbi
Add.8
ankle
4,400
spur@@
plateau
bere@@
garden@@
tos
rend
455
technician
situational
arious
Hell@@
HIGH
havoc
ectomy
mations
MW@@
playground
4.0
clue
715
Sham@@
cab
Consumers
taxable
beverages
dents
urred
estin@@
herbs
aperture
couldnt
CN.5
sulfur
distributors
navigate
temples
lav
repaid
agen@@
Struc@@
Expen@@
hurting
Comptroller
reappointment
dinars
manipulate
DATED
alter@@
edical
therefor
taine@@
Dave
salvage
vest@@
diffuse
Rut@@
bombed
veloppement
cav@@
offending
MICIVIH
Attacks
navig@@
in-law
ten-@@
605
modus
couch
distinctly
airy
treaty-based
Twentieth
wick
stron@@
connects
Occa@@
re-established
7,200
sory
quotes
tox@@
eway
鈥淚@@
É@@
attendants
Withdrawal
bour@@
30s
Sheet
Avi@@
Associ@@
specific@@
51@@
stre
fundament@@
RE
facilit@@
brink
AST
addi@@
Accident
celain
packagings
uneasy
concur
covenants
closet
ultra
Parlia@@
floo@@
jade
sionally
elity
423
tosis
383
nosis
imple@@
correctness
dens
append@@
donate
REPUBLIC
Rev.@@
qu
instructor
hurdles
SYST@@
laps
Briefings
associ@@
unambiguous
[...]
