<unk>
<s>
</s>
的
，
。
和
在
.
、
了
是
,
年
)
(
/
对
委员会
月
与
第
并
中
我
问题
将
为
国家
》
《
-
；
会议
有
"
：
他
日
一个
联合国
我们
不
或
报告
发展
其
国际
你
提供
（
）
工作
到
以
上
关于
组织
人
进行
也
就
以及
这些
所
包括
这
通过
1
社会
该
方案
情况
其他
有关
而
特别
还
方面
执行
向
都
他们
机构
政府
决议
被
活动
地
号
及
没有
建议
所有
可
妇女
2
但
安全
时
行动
经济
3
项目
人权
公约
说
会
可以
需要
下
应
大会
根据
区域
规定
理事会
她
它
于
提出
合作
从
可能
决定
儿童
4
5
个
必须
6
新
使
代表
“
支持
技术
已
由
10
影响
法律
权利
A
12
认为
各
更
”
政策
来
要求
秘书长
继续
促进
一些
要
7
加强
目标
采取
管理
和平
措施
保护
系统
提交
服务
确保
条
使用
能力
:
主要
缔约国
研究
计划
把
本
后
内
这种
作为
任何
重要
？
努力
建立
注意
9
这个
已经
主席
如果
给
等
因此
11
草案
审议
请
举行
资源
先生
文件
多
8
段
实现
期间
这一
·
人员
很
教育
之间
各国
能
因为
一
信息
最
成员
者
审查
行为
基金
环境
得到
实施
全球
领域
援助
世界
增加
开展
着
考虑
地区
表示
中国
持续
相关
自己
参与
获得
战略
其中
一项
议程
代表团
支助
协调
有效
但是
作出
方法
讨论
及其
小组
预算
a
正在
能够
作用
由于
让
工作人员
美国
政治
指出
公司
程序
处理
一种
资料
至
人民
目前
许多
开始
特派团
它们
方式
解决
进一步
做
提高
中心
机制
秘书处
任务
意见
非洲
说明
条约
参加
事务
取得
里
制定
培训
减少
次
评估
调查
确定
发展中国家
人口
框架
去
前
原则
15
又
同时
进程
具有
时间
各种
b
目的
而且
希望
这样
部分
美元
部门
不是
国
生活
工作组
费用
以便
用
强调
名
30
成为
现在
文化
利用
平等
不同
间
发言
应当
此外
同
发生
应该
标准
分析
2005
为了
;
2008
是否
适当
制度
缔约方
性
维持
地方
存在
对于
接受
—
必要
好
20
按照
2006
数据
关系
会员国
造成
基础
什么
设立
*
产生
最后
行政
?
2010
法
结果
范围
全面
2009
机会
专家
办事处
消除
2007
办法
那
建设
投资
具体
进展
不能
2004
受到
14
帮助
司法
承诺
负责
各项
家庭
协助
如
13
鼓励
就是
一次
并且
即
做法
责任
充分
共同
知道
吗
资金
用于
想
非
2011
安排
两个
如何
性别
18
16
法院
受
这方面
贸易
款
监测
咨询
得
严重
涉及
过程
条件
议定书
人们
尤其
义务
事项
一切
大
欢迎
需
非政府
2000
2003
歧视
形式
日至
基本
过
部队
企业
完成
办公室
以色列
业务
改革
批准
挑战
那些
2002
冲突
则
例如
犯罪
们
期
市场
适用
尽管
2012
21
个人
之后
认识
国内
当
采用
介绍
17
选举
控制
自由
关切
c
附件
出现
之
以下
难民
仍然
2001
武器
成果
协定
未
19
或者
31
见
两年
关注
优先
临时
改善
仍
[
．
人道主义
直接
比
生产
利益
出
表明
健康
之前
非常
社区
一般
这项
报告员
案件
评价
原因
当局
时候
以来
25
虽然
22
联合
然而
无法
增长
000
立法
最近
现有
过去
稳定
自
因
按
作
]
暴力
24
履行
重申
23
禁止
防止
独立
一直
积极
经费
1999
2013
限制
恐怖主义
内容
安理会
这是
巴勒斯坦
不会
一份
了解
发现
结构
！
导致
风险
综合
收到
需求
监督
某些
打击
区
B
另
因素
地位
状况
土著
人类
高
同意
针对
广泛
请求
1998
E
呼吁
审计
领土
推动
结束
承认
纳入
协商
经
全国
制订
谈判
面临
厅
论坛
您
扩大
保障
实际
对话
保证
选择
集团
指导
材料
产品
警察
只有
定期
军事
起
26
欧洲
C
27
该国
联系
28
条款
总统
规则
宣言
规划
发达国家
却
来自
完全
再
只
违反
设计
发挥
整个
遵守
S
上述
法庭
网络
收入
从而
伊拉克
成功
我国
一@@
学校
财政
记录
非法
重点
协议
你们
占
一样
长期
外
侵犯
员额
较
正式
预防
重新
加入
之一
威胁
事件
更加
岁
明确
不@@
城市
d
部
伙伴关系
当地
还是
程度
经常
土地
小
方
项
不断
准备
成员国
29
符合
分
二
确认
同样
每个
约
经验
拥有
此
均
应对
公民
下列
还有
类
表
改进
有助于
千年
设备
大@@
结论
达到
变化
内部
普遍
基于
感到
保持
一起
一名
旨在
不过
宪法
像
科学
做出
每
恢复
就业
合同
未来
学生
空间
带来
给予
％
大学
权
人数
很多
显示
准则
群体
民主
e
编写
法官
设施
申请
开发
运动
倡议
专业
本国
女士
解释
所述
进入
才
年度
刑事
境内
日本
副
点
水平
贩运
改变
银行
重大
现象
受害者
公共
知识
支付
保健
缺乏
举办
应用
事
指标
有些
孩子
列入
看到
保留
回顾
正
实体
反映
处
阶段
价值
艾滋病
条例
管制
官员
宣传
局势
落实
起来
国际法
允许
那么
工具
水
下午
构成
宗教
看
超过
贫穷
反对
传统
提到
大量
拘留
1996
享有
1997
最大
手段
成立
危机
女性
提议
组成
数量
满足
宣布
民间
50
今天
核武器
尊重
以上
呢
后续
调整
实行
危险
农业
行动计划
伙伴
2014
证明
通知
资产
文书
然后
60
酷刑
达成
基金会
一点
理由
只是
非正式
裁军
补充
访问
1994
所以
签署
关键
无
授权
一部分
英语
艾滋病毒
P
统计
扩散
万美元
支出
为此
出口
采购
协会
声明
若干
财务
通常
残疾人
质量
职能
吧
总
领导
编制
三个
主任
亿美元
1995
各方
另外
拟议
地点
总部
一定
困难
登记
单位
在内
来说
40
今后
分配
学习
森林
三
第五
治疗
曾
重要性
贡献
提案
大多数
收集
每年
修订
更好
印度
亚洲
权力
喜欢
如下
尚未
观察员
题为
证据
答复
青年
增强
外国
一位
拟订
属于
中@@
首脑会议
告诉
－
移民
模式
气候变化
有人
除
担任
课程
苏丹
生物
不要
阿富汗
从事
毒品
再次
称
小@@
意义
1993
多边
其它
农村
创造
一级
专门
鉴于
估计
罪行
移徙
自愿
常驻
财产
第二
基础设施
寻求
加以
宪章
比较
特殊
欧洲联盟
加拿大
团体
以前
至少
议会
化
步骤
而言
维护
她们
核心
D
避免
法国
甚至
黎巴嫩
信
一致
走
纲领
公众
敦促
引起
工业
战争
发表
子
第六
迅速
通信
统一
相信
交流
最终
越来越
的话
住
来源
十分
公开
运作
依照
能源
不仅
高级专员
公平
观点
纽约
主题
流离失所
损失
最佳
似乎
几个
核准
署
历史
新闻
召开
如此
任命
联盟
第一
价格
商定
比例
运输
司
不得
供
据
预期
赔偿
真正
债务
概念
承担
贸发
团
有权
语言
医疗
首先
性质
此类
部署
低
东西
才能
理解
成本
日内瓦
粮食
予以
100
计算
预计
传播
除了
精神
良好
金融
双方
高级
愿意
体制
率
一年
表现
磋商
趋势
遭受
指控
定义
35
家
媒体
死亡
分别
57
这里
举措
职位
交易
商业
索赔
检查
那个
训练
感谢
网站
邀请
贫困
日期
平民
卫生
事实
无@@
随着
民族
工人
45
组
事情
采取行动
职业
实质性
依据
降低
00
辩论
’
两性
类似
几乎
开发署
住房
55
65
形成
很大
古巴
背景
达
32
障碍
当前
详细
香港
生效
找到
德国
捐款
资助
下降
34
58
59
多@@
体系
立即
十年
探讨
人@@
捐助
发出
清单
决策
主管
上诉
指定
及时
讲习班
62
与会者
61
反
全部
那样
成
B@@
最高
疾病
行使
特定
33
这次
英国
效率
容易
紧急
朋友
高级别
公正
明显
占领
身份
海洋
出席
不可
律师
各级
64
损害
一系列
起诉
式
2015
爱
私营部门
带
本身
往往
一般性
载
阿拉伯
电子
足够
核
专家组
致力于
48
上午
36
破坏
物质
会议室
办
少数
审判
至关重要
仅
视为
赞赏
52
修改
63
接触
处于
37
联合王国
经过
拒绝
所作
澳大利亚
领导人
数字
那里
顾问
53
型
有限
54
56
道
生命
共和国
药物
国际公约
专题
天
意味着
重视
且
女孩
大约
索马里
反应
截至
名单
部长
四
出来
39
最新
头
斯
没
离开
此种
适应
量
干事
科
为什么
地雷
开发计划署
T@@
届
数目
66
…
任择
居民
!
人权委员会
i
1990
外地
评论
小时
以后
人士
S@@
M@@
监狱
上@@
数额
之外
H@@
跟
竞争
力量
机关
筹资
巨大
平衡
即使
D@@
所涉
筹备
罪
侵害
觉得
第一次
大规模
今年
研究所
以外
研讨会
立场
工程
水@@
股
相互
吃
停止
工作队
专员
意识
长
卢旺达
救济
38
站
复杂
三@@
数
信托
51
49
节
表决
随后
俄罗斯联邦
最好
武装冲突
理论
钱
也许
第三
德
电话
省
欧盟
增进
67
巴西
货物
马@@
局
商品
41
合理
食物
听
压力
墨西哥
加勒比
不足
42
唯一
制裁
科索沃
拉@@
日益
各自
谁
打算
各个
职责
一下
联邦
令人
1992
全体会议
平均
多样性
47
44
阿@@
有@@
世纪
父母
用户
男子
待遇
'
南
申诉
母亲
延长
州
大部分
9@@
攸关
46
过渡
K@@
巴基斯坦
便利
便
遭到
享受
转让
高@@
供资
68
北京
清楚
L@@
而是
f
万
来文
是因为
43
账户
武装
资格
之@@
治理
预测
修正
问
效果
维也纳
G@@
实际上
未能
N@@
列
创新
获取
大家
科威特
不再
重建
须
R@@
在于
官方
拉丁美洲
机
分发
销售
自@@
集中
流动
后果
福利
太平洋
技能
将会
飞机
500
贷款
检察官
土耳其
提及
法治
总是
P@@
新@@
埃及
指
级
体
公布
当然
态度
时期
执行局
委会
放在
车
当时
对此
信任
安保
协调员
攻击
人力资源
初步
本文
事实上
加
种族歧视
可@@
规范
年龄
变得
劳工
刚果民主共和国
开放
虐待
启动
查明
更新
南非
类型
诉讼
看法
私人
数据库
用途
拉
提请
指南
包含
制造
判决
份
供应
工发
既
状态
转移
200
0@@
正如
助理
方向
两@@
起草
灾害
途径
外部
利比里亚
org
令
海地
8@@
表达
残疾
国民
地@@
我要
C@@
核查
77
返回
死
自然
期限
劳动
案
市
采取措施
多年
组成部分
特点
主席团
费
行业
观察
特
相当
五
不利
每天
使得
意大利
行
额外
1991
F@@
道路
依然
袭击
化学品
克
怎么
通报
总体
这么
心理
总额
一天
展开
候选人
订正
之中
国家一级
只要
投入
西班牙
卡@@
简单
全
全世界
显然
双边
下@@
文
客户
医生
票
对@@
结合
可能性
相对
附属
内@@
驻
议事规则
线
最低
路
旅行
难民署
功能
酌情
图
相同
器
剥夺
学
事务部
种族
维和
I
花
哪些
回答
妇女地位
叫
有时
语文
主流
分享
瑞士
模型
指示
种族主义
暴力行为
上升
父亲
所有人
裁决
美利坚合众国
中期
发布
达尔富尔
报道
经营
子女
透明度
派
这@@
强迫
o
全球化
s@@
载有
试图
摘要
之下
男女
错误
力
更为
汽车
医院
规模
现金
西@@
俄罗斯
干预
太
特设
度
试验
中东
有利于
常设
书
位
一条
主持
解决办法
坚持
进口
工程处
集体
正确
现行
差异
相应
逮捕
卫星
雇员
女童
差距
边界
多少
进步
面前
员
69
教师
70
协作
中央
原子能
食品
Add.1
津贴
室
一家
法令
叙利亚
执法
次级
金
外交
啊
物
门
石油
发@@
手
颁布
心@@
剥削
正常
以期
只能
赞扬
g
感觉
并非
队
特@@
资本
后勤
科特迪瓦
气候
争取
男性
大使
女
利
第四
un
测试
经历
开
担保
多数
写
补救
地球
法案
主权
秘书
加@@
民众
预防犯罪
建筑
拟定
分类
网
军队
取消
世界银行
伊朗
证书
高兴
任期
购买
去年
第二次
尽可能
现实
合法
两
有所
相比
确实
派遣
「
非洲联盟
心
本@@
」
发
F
成就
潜在
层面
居住
人力
er
容忍
共识
身体
减轻
失踪
制
切实
防治
车辆
投票
若
遇到
阻碍
海@@
担心
环境署
单独
合并
逐步
根本
平台
言
仲裁
多个
生
阁下
马
货币
卡
除非
挪威
筹措
业绩
印度尼西亚
肯定
用来
赋予
基地
严格
免费
替代
开支
青少年
即将
装置
速度
证实
案文
A@@
废物
高度
诸如
巴@@
出版物
四个
设
因而
天@@
制止
现代
满意
特征
进
透明
保险
找
合作伙伴
阿根廷
米
300
面对
得以
处罚
公务员
体现
年代
思想
家庭暴力
出@@
所载
斯@@
类别
法规
申诉人
决心
www
实践
我@@
买
第一个
e@@
惩罚
储存
荷兰
东帝汶
伤害
吁请
值
人道主义法
燃料
80
波斯尼亚
密切
调动
比赛
弹药
污染
上文
赞同
别人
快速
安@@
高专
推广
动物
消费
s
国籍
日@@
刑法
推进
塞拉利昂
时@@
适合
那@@
d@@
效力
排放
万@@
共
团结
议题
道德
无论
h
b@@
寻找
分@@
常常
m@@
一旦
件
后来
小岛屿
以往
取决于
付款
乌克兰
制作
前@@
年底
同@@
软件
自身
阐述
代理
德@@
认可
对象
释放
不到
争端
四@@
外@@
共同体
监管
位置
估计数
突出
出版
跨国
尔
融资
反恐
儿子
位于
所@@
促使
养
角度
长@@
附近
瑞典
谴责
罗@@
打
n@@
想要
大楼
话
种
工资
哥伦比亚
同一
强烈
男人
纳
白@@
永远
场所
曾经
该项
新西兰
运行
可是
学院
回应
款项
l@@
埃塞俄比亚
al
打@@
自治
an
示范
妨碍
90
快
语
E@@
巩固
例子
记者
危害
可靠
未经
近
非@@
更大
咨
自然资源
促请
面
直到
页
命令
普通
概述
涵盖
失去
成绩
混合
时代
武装部队
布隆迪
放弃
南部
以@@
女人
无核武器
讲
额
专门机构
整体
还要
融入
值得
几年
外层空间
摩洛哥
荒漠化
确立
首次
c@@
亚@@
业
族裔
加沙
显著
参考
手册
斗争
捐助者
尼日利亚
审理
修正案
吸引
全@@
少
六
全体
一套
某
婚姻
y@@
国@@
1@@
死亡率
意愿
总理
一体化
投资者
十@@
场
西
生殖
书面
重@@
声称
续
受理
联合会
i@@
证人
拿
W@@
科@@
腐败
p@@
恶化
物品
一道
其@@
过@@
神
公共部门
庇护
装备
感染
政治权利
职务
菲律宾
脆弱
产出
主义
信贷
分摊
死刑
2@@
信息技术
M
尼
相
共计
依赖
劳动力
消费者
r@@
难以
员工
中有
亦
效益
真的
具备
注重
开@@
不得不
期望
尽快
衡量
别
入
五@@
加快
终止
受害人
南斯拉夫
管理局
泰国
行预
痛苦
期待
三年
法@@
利比亚
G
描述
实验
电影
病
仅仅
讨论会
过境
细则
准确
两种
发起
乌干达
北
澄清
J@@
自我
年轻
气
管辖权
运用
图书馆
t@@
定于
有着
老@@
征聘
如@@
并未
利@@
旅游
建造
情报
核裁军
本次
很快
V@@
周期
监禁
清洁
部长级
争议
实地
阿尔及利亚
规划署
最初
界定
设想
负担
引渡
简要
年度报告
薪金
正是
看见
声音
和解
艺术
经委会
已有
很少
雇主
转@@
金@@
和@@
就此
列出
岛
怀疑
听到
英文
宗旨
持久
75
格鲁吉亚
a@@
患者
下来
听取
与其
重返
称为
㈠
400
赞成
人居
妻子
先
推迟
询问
照顾
任意
k@@
想法
教授
应急
海关
光
好处
怎样
掉
空缺
设法
老年人
认真
掌握
第三次
潜力
机场
共有
㈡
五年
被告
两次
提供援助
管
阻止
发言者
事业
自动
肯尼亚
少数民族
光@@
克服
彻底
黑塞哥维那
特性
一场
an@@
格
拨款
有利
剂
花@@
y
前往
台
设置
讲话
金融机构
而@@
生@@
观察团
兴趣
低于
阿塞拜疆
驱逐
飞行
操作
h@@
气体
象
交换
关心
供应商
重复
界
西非
成@@
规约
72
豁免
会计
财务报表
管辖
ar@@
二@@
600
基
丈夫
文@@
谅解
马来西亚
刚果
月份
意思
塞浦路斯
奥地利
裁军谈判
些
受益
变成
减贫
应付
伊斯兰
提名
阿
销毁
片
亚
厄立特里亚
与此同时
通讯
口头
两名
百分比
恤金
创建
10@@
欧元
外勤
几@@
检测
许可证
教学
多种
新闻部
护理
完善
相@@
哈@@
O@@
公民权利
互动
要素
安装
智利
建设性
优势
相反
或许
角色
大型
案例
出于
谨
世界各地
回到
奥@@
五个
为@@
伊朗伊斯兰共和国
敏感
逐渐
指数
补偿
将来
罗马
深入
比@@
密切合作
计算机
排除
前景
al@@
系
提醒
东道国
合
观念
联络
缅甸
任
失败
或是
后@@
削减
山
教科文组织
注册
本届
翻译
我会
取代
可行
布@@
他人
尼@@
加上
事先
看来
所谓
外国人
主张
流
船
委员
18@@
初级
许可
发放
备忘录
布
阿拉伯叙利亚共和国
告知
巴黎
士兵
71
1.@@
这位
希腊
出生
这份
从@@
星期
会上
er@@
收益
总数
例
名字
热@@
f@@
报
当选
遵循
C.2
姆
克@@
加速
伦敦
上帝
协商一致
细胞
故事
惯例
早期
板
w@@
in@@
家人
属
层
名义
工会
风@@
章
备选
否则
4@@
补贴
转
印发
结婚
农民
用品
科技
失业
主动
应@@
73
每月
声
经济体
消息
情形
受@@
十一届
看看
大韩民国
出售
议员
作业
保存
热
不够
限度
一半
陈述
夫
回
培养
导言
完整
76
短期
习惯
渔业
丹麦
一只
粮农组织
近东
北部
缺少
伊@@
营养
正@@
元
in
每@@
送
病人
文章
丰富
分子
有用
囚犯
会@@
军
比如
眼睛
基@@
电@@
人人
干
年轻人
L
名额
74
约旦
手@@
发射
不论
口
人格
尔@@
音乐
油
税
生态系统
南@@
尊严
en
卖淫
穿
g@@
孟加拉国
第四次
各类
明白
克罗地亚
气@@
名@@
品
原@@
于是
暂停
变@@
电脑
格@@
鱼
分布
国际法庭
波兰
对待
警方
来看
考试
独特
积极参与
内罗毕
概算
流@@
滥用
最高法院
职等
为期
紧张
78
安哥拉
白俄罗斯
重
测量
绝对
设在
转变
一件
特遣队
缔结
安置
理想
某种
方便
用@@
低@@
名称
驻地
塔
移交
儿
纳@@
芬兰
互联网
各地
房间
六@@
波@@
目录
方针
加剧
任何人
获悉
自然灾害
汇编
800
策略
强
基准
推行
美@@
随时
首席
康复
雇用
近年来
I@@
Y@@
房子
有害
始终
球
体育
衣服
回@@
伊
以此
组合
各@@
不管
志愿人员
事故
山@@
巴
充足
妈妈
广告
男孩
当事人
n
身上
性能
主办
秘鲁
突尼斯
可持续性
婴儿
单
废除
交付
产业
文本
毁灭性
第二个
连接
强化
资源管理
改为
约束力
下面
政党
分庭
渠道
着手
主
认定
U@@
反@@
连续
於
负责人
亿
会计准则
风
据称
格式
头@@
en@@
耶和华
信仰
C.3
裁定
帮
事态
比率
总@@
v@@
尽
难
得@@
坚定
架
比利时
边
调解
时间表
79
植物
上海
邻国
里@@
真
附加
国外
融合
科学家
at@@
投诉
提升
信心
危地马拉
加工
扩展
公@@
问责制
接近
关闭
生存
突然
柬埔寨
单@@
管理人员
恐怖
星期一
不久
空@@
另一方面
年@@
私营
专门知识
总结
不应
es
后者
本人
星期五
好@@
马里
门@@
电视
化学
感
支援
快乐
老
小型
国际贸易
连
内陆
萨@@
其他人
动
缺陷
u
动态
处境
海外
7@@
古@@
复员
作@@
得出
双@@
的确
地震
雷@@
绿色
色
关联
先前
ar
城
核定
协同
词
何种
国际法院
跑
灵活
当@@
董事会
配置
图@@
t
交通
病毒
行政当局
他@@
82
如今
知识产权
尼泊尔
极大
原
u@@
一国
诉
愿
持有
美洲
斯里兰卡
瓦@@
退休
间接
700
家@@
依靠
共享
回来
81
载于
性暴力
兼
等待
学会
老师
纲要
新加坡
通@@
河
南南合作
6@@
沙@@
爆炸
倒
汞
穷人
参数
海洋法
源
正义
探索
靠
反腐败
房屋
推出
主@@
中国政府
真@@
Z@@
发言人
美
纪念
林
汇率
贸易法
签名
变
普@@
变革
85
教
强奸
首长
缓解
表格
不人道
企图
地带
以为
坚决
委内瑞拉
3@@
区别
移动
武力
村
做到
有罪
多次
召集
幸福
ad@@
一方面
来@@
塞尔维亚
看起来
厄瓜多尔
各位
上空
83
排雷
单方面
法定
受伤
那种
当中
巴勒斯坦人
CN.4
信号
拖延
金属
远
明@@
现状
周围
删除
余额
价
秩序
药品
有力
联
汇报
极为
el@@
神@@
游戏
有益
红@@
空气
表面
偿还
转型
个别
社会保障
晚上
此项
超@@
塔@@
跟踪
负债
签订
获
太@@
波
单一
至于
达@@
恩
守则
警告
不想
起@@
联合国开发计划署
未@@
说法
越南
罪犯
on@@
提@@
数@@
可用
遣返
法语
限
形势
86
un@@
强大
95
文明
标志
87
照片
来到
维@@
开幕
援助团
黑@@
转递
效应
国别
级别
审评
爱尔兰
完
地理
之内
早
必要性
核可
固定
批评
皮@@
这场
充满
丧失
树
秘密
沟通
it@@
两项
84
订立
绩效
120
交@@
98
极端
处置
坐在
包
被迫
自从
出去
上面
协调一致
合@@
感兴趣
财富
能否
摊款
93
帐户
某个
实质
竞争力
简化
四年
网上
残忍
边境
谈
往
日起
版
西方
七
遗憾
拟
领空
说话
读
金额
R
犯
哪
身
分列
分散
外交部长
披露
女儿
埃@@
繁荣
第一届
强调指出
视察
92
怀孕
前提
处决
大大
212
京都
现代化
o@@
这类
字
还应
愿望
空中
公里
国务院
收@@
罗
亚美尼亚
视
配合
假
假设
轻武器
所属
小学
维修
塞@@
15@@
葡萄牙
兰
紧急情况
时限
97
房
j@@
应有
行@@
就业机会
统计数据
96
工艺
变动
待
人群
分钟
仇外
阅读
差
刺激
族
职权范围
91
任职
西亚
明天
很难
八@@
药
终了
清@@
性@@
塞内加尔
合适
z@@
质疑
十五届
该@@
5@@
工厂
暂时
1989
14@@
库
到达
94
不妨
大幅
88
北爱尔兰
星期四
加纳
其余
识别
森
区域合作
过度
继承
k
中非共和国
地址
多样化
问责
有机
查阅
照料
一步
下去
Rev.1
解决方案
法律援助
引发
为止
预算外
莫@@
表@@
这儿
状
档案
经理
博@@
地域
开会
89
定
皮
爱@@
世贸组织
诊断
C.5
T
方@@
兄弟
调@@
半@@
高于
领取
150
破产
现已
一张
导弹
选出
八
港
领袖
索赔人
尝试
东部
留下
am@@
迄今
99
安
公路
捐助国
别的
规章
展示
节目
13@@
监察员
倾向
有辱
星期二
C.1
粮食安全
ch@@
杀害
升级
非殖民化
犯下
约翰
每次
乌拉圭
火@@
哥斯达黎加
着重
入侵
谈到
贩卖
有限公司
民事
本地
碳
一方
罗马尼亚
解除武装
外交部
库存
$
沙特阿拉伯
on
中间
促成
座
著
咨询服务
轨道
吉@@
常会
不幸
记得
灾难
物资
国际标准
阐明
左右
男女平等
朝鲜民主主义人民共和国
乍得
参照
有效性
装
作品
离
星期三
具
含有
行事
女@@
宝贵
根源
迪
体@@
手术
税收
合格
900
定罪
检验
l
经验教训
利率
纪律
动力
托@@
包容性
博士
○
已@@
联刚
第二届
总干事
区分
生态
没收
圣@@
好像
党
温室
Al
楼
县
3.@@
就要
车@@
加大
奥运会
物体
Ch@@
信通
现场
依法
查询
饥饿
追求
班
１
交给
油@@
净额
其实
利润
>
越
至今
思考
彼此
5%
贝@@
是从
南方
众多
消耗
天气
空
安全部队
狗
H
当事方
内部监督
海上
鲁@@
等等
海
作者
定为
清除
列为
所说
经@@
真实
同事
角
家里
细节
算法
在线
米@@
铭记
发行
因特网
火
N
所列
所在
标题
岛屿
形
响应
从未
万人
打开
有点
发展权
集
实验室
放
杀伤
先@@
干@@
里面
庆祝
差别
萨尔瓦多
选民
最为
赢得
监察
多哈
对付
奥巴马
首要
发给
这件
因@@
百@@
该法
例外
必需
所得
由此
韩国
@
退化
证
永久
1988
进@@
时刻
m
工
对策
捷克共和国
化学武器
el
作出贡献
常规武器
相当于
入@@
航空
质
编辑
连@@
尼加拉瓜
块
东@@
动员
登记册
勒
平@@
转交
所有权
学@@
穆斯林
提起
厂
必要措施
纠正
证券
种种
SR.@@
草坪
生产总值
轮
直@@
回收
流行
酒
广播
哈萨克斯坦
净
条@@
0
中学
简报
政权
杀
第二条
O
化@@
团队
大不列颠
点@@
匈牙利
一致性
主管部门
能@@
干旱
玻利维亚
身@@
发了
实例
兹
制约
进度
战斗
提高认识
图像
苏@@
对外
水资源
日子
提
真是
咨商
侵略
疟疾
黄@@
要@@
超出
现
客观
面积
is@@
迪@@
代表性
伟大
时至
用作
覆盖
支柱
违背
用以
一词
指@@
2.@@
公认
口@@
离职
成效
机@@
０
撤销
十三届
结@@
均衡
朝
美丽
夫人
强有力
少年
大陆
招募
形象
索@@
迄今为止
军备
持
全权
判断
子@@
港口
编列
观测
种植
倡导
‘
吨
自决
排放量
地面
一段
注
先进
船舶
瓦
接收
商
每周
独立性
周
易
明
忽视
常
喀麦隆
句
也门
é
金融危机
每日
排斥
约束
席位
办理
负有
ia
林@@
il@@
侧重于
温度
祝贺
认证
原来
或@@
脆弱性
面@@
核@@
㈢
宏观经济
一贯
判例
设定
洛@@
情绪
动@@
关押
做好
成长
r
军@@
1980
963
课
深
高效
会晤
台湾
结论性
解除
答案
精@@
中华人民共和国
那儿
or@@
错
恐怖分子
铁@@
满
as@@
最@@
股票
钻石
亚太经社会
临床
网页
12@@
家属
恰当
别@@
封锁
帕@@
日常
木@@
一所
谢谢
限于
19@@
17@@
高等教育
坐
强制
同等
距离
伤
摆脱
吸收
价值观
技术转让
奇
奖
禁运
营地
那时
刚
污染物
培训班
ic@@
尽早
联合国大会
电
环境保护
绑架
保安
信@@
毛里求斯
杂志
裁谈会
千@@
爆发
决策者
洗钱
溴
薪酬
深@@
国内法
放@@
太阳
复@@
酸
会费
在@@
终于
活
不错
回家
为何
选定
极
雷
应由
16@@
Al@@
画
十二届
ol@@
本法
沿海
论文
直至
和平利用
ing
配偶
没@@
卡塔尔
石@@
迹象
优化
报纸
0.@@
+
年初
流程
份额
库@@
信息系统
论
种类
陷入
循环
分歧
工作文件
灵活性
调
石
辅助
会谈
由@@
20@@
未成年人
制品
较大
意外
版本
全球性
保@@
根
尽量
授予
从来
包容
de
参与者
削弱
强制性
莱@@
意图
宗
ur@@
分离
国家元首
学术
公园
歧视性
ab@@
单元
分为
牙买加
申请人
as
血@@
改造
凡
j
开办
代价
被占领土
接@@
填补
另有
教@@
七@@
旅游业
下次
机遇
一支
近期
哪里
赛
革命
增多
十届
定@@
不必
纸
塞
复原
更@@
脱离
店
指称
电子邮件
曼
顾客
迫切需要
托
言论自由
得不到
初次
行政部门
遭
短
调查结果
颜色
防@@
论述
计量
几内亚比绍
要是
清理
选
试点
排@@
失@@
生计
实@@
再生能源
见到
农村妇女
共同努力
政府首脑
含量
月底
顺利
该部
情
笑
卫生组织
后面
更改
此次
输入
华盛顿
诺
我谨
情@@
消失
首都
期@@
美国@@
V
债权人
飞@@
看@@
无论是
缓慢
希@@
赞比亚
公报
昨天
10%
给出
查@@
草
和谐
艾@@
id@@
人为
110
条文
取
第六条
此@@
旧
队伍
管理系统
不仅仅
试@@
指导方针
=
不当
大小
HRC
中部
详情
模拟
核实
年前
阿尔巴尼亚
巴塞尔
Corr.1
消灭
增编
马上
萨
局面
民兵
本来
接着
新型
入境
`
张
暂行
委托
色情
极其
二十@@
犯罪行为
专@@
前面
常见
250
系列
王@@
国王
其次
计划生育
上次
人物
援引
复苏
散发
同次
预定
家庭成员
代@@
意
留在
结果表明
管理层
免遭
牌
人权法
除外
足以
优惠
是不是
土壤
会见
仔细
对方
难民营
装@@
5.@@
抗@@
微@@
合法性
国会
审查会议
脚
学科
倍
基因
街
压@@
作物
保密
童工
期内
多么
建筑物
买卖
FCCC
1%
面向
产量
基本上
下文
船只
富有
定居点
实物
事宜
ah
K
人生
保加利亚
刚刚
不罚
成熟
激励
围绕
西岸
上涨
机器
新兴
立@@
落
人才
迫使
文职人员
弱势群体
王
安全部门
付
电信
再@@
养护
强@@
增长率
哈
活力
联黎
共@@
经济委员会
真相
想象
言论
俱乐部
辐射
老人
亚太
指挥官
报@@
草稿
文字
求
免受
工作者
管@@
发达
普及
http
失望
异@@
下述
张@@
im@@
眼
无害
青年人
司法部
联@@
远@@
工@@
添加
蒙古
六个
蒙特利尔
任用
极@@
传真
著名
包@@
计
自由化
第十四条
不少
然
节省
ag@@
习俗
所示
路@@
报酬
生产力
常规
老板
and
莫桑比克
麦@@
此事
长时间
世界人权宣言
熟悉
次数
冷@@
广大
地图
验证
筹备工作
联塞
罚款
20%
乌@@
剩余
...
矛盾
世界卫生组织
设有
开设
圆桌会议
被捕
对抗
干涉
缩小
通
常@@
无效
华@@
编号
友好
冲击
整@@
起到
et@@
依
西部
第三届
es@@
非正规
50%
气氛
带@@
核试验
朝鲜
恐惧
承受
麽
审
脸
发动
署长
联合国秘书处
ou@@
料
担忧
喝
有待
生育
肉
应为
编
满@@
疫苗
105
一架
津巴布韦
司长
害怕
分段
什
压
想到
失业率
笔
发挥作用
及@@
受害
冻结
健全
列@@
权限
8%
很@@
底
产
姓名
权能
忘记
爱情
土@@
巡逻
标准化
菜
批款
第一@@
布基纳法索
特权
教训
半
置于
&
据说
力@@
联合国环境规划署
温@@
费@@
补助金
制@@
知情
签证
特使
切@@
眼@@
国际劳工组织
短缺
应用程序
零
顿
事务处
收费
第三方
4.@@
几天
跨界
北@@
兵
社会主义
波动
家长
几内亚
施加
一块
申明
of
修复
经合组织
血
─
九@@
盘
这笔
箱
找出
开列
不用
所用
能量
技巧
即@@
看着
说@@
声@@
爆炸物
1986
振兴
梦想
一周
修建
职
着重指出
无疑
CEDAW
如同
战
此后
青@@
远远
风险管理
截止
多项
组@@
不了
ri@@
支配
机械
整合
梅@@
医学
解@@
斯洛文尼亚
总共
中非
相似
旅费
人均
包装
套
玩
赠款
残疾儿童
动机
六个月
恩@@
at
UNEP
过来
3%
职类
ay@@
市民
科技咨询
代
死@@
爸爸
领土完整
转向
J
膜
预防性
村庄
海事
分开
要点
其后
缴款
驳回
盟约
当代
招聘
免疫
福祉
诺@@
and@@
东
排
斯洛伐克
美好
群
判处
102
命运
运送
分担
引入
刑事法庭
液
4%
达成协议
序言
九
生长
本着
殖民地
不结盟运动
人事
毛额
节@@
下跌
联邦政府
开采
李@@
向@@
多名
联利
力求
一句
士
铁路
第七条
乌兹别克斯坦
使@@
划分
计划署
今日
130
黑山
欧洲委员会
em@@
ed@@
2%
高质量
仇恨
欺诈
选@@
土
货
采纳
带有
白
一部
必@@
影响力
紧迫
一座
中等
指挥
素
灯
债券
基本权利
显得
并@@
附
回返
性虐待
抗议
坦桑尼亚联合共和国
小姐
警察部队
产妇
弱势
煽动
哦
较为
杜@@
101
某一
页次
术语
家园
师
比额
物种
蒂
防范
诉诸
奖励
推@@
致
认捐
颁发
想@@
民警
法律文书
杰@@
卷
取得成功
记忆
权@@
111
不足以
群岛
收
脱@@
作出努力
辩护
活@@
工业化
正当
会议议程
关税
7%
于@@
贝宁
电力
提前
弄
卫生部
总务
奥
购置
ak@@
丝
星
必不可少
紧@@
见@@
卖
大众
住宅
103
通用
不愿
望
核能
东耶路撒冷
各个方面
工作量
契约
典型
缴纳
礼物
元素
第十届
发送
年间
深刻
救助
离婚
撒哈拉
谨慎
本条
II
之际
只@@
被@@
边缘
到@@
户
枚
亲@@
报表
漂亮
治安
Sh@@
大力
短@@
商店
取@@
送交
酒店
打电话
走向
干扰
尚
近@@
敌人
架构
目
经济危机
胡@@
麻烦
撤回
独@@
首@@
手机
有趣
副本
奠定
坏
系统地
指令
104
运营
协调会
中亚
运动员
106
塞族
症
球@@
付出
1967
互相
索
勘探
延迟
重组
麻醉药品
谋求
网址
大幅度
并于
到底
案情
假如
之日起
范畴
塔吉克斯坦
6%
耶路撒冷
服
办公
晚
含
联检
交
反馈
西撒哈拉
持久性
怎么样
照
裂变
伦
呀
仪式
红
改@@
和平解决
一段时间
深信
代替
轻@@
皮肤
增至
马耳他
中小企业
品牌
过于
这家
必然
出发
经社理事会
妇发
骨
成人
成分
会员
驱动
病@@
路线
心里
密@@
西藏
官
易@@
伯@@
德班
难@@
收购
世界贸易组织
药@@
停火
108
说道
国际原子能机构
毕业
针对性
林业
谈话
有所增加
抵达
正规
退出
浓度
re@@
胜利
食@@
超越
联合国儿童基金会
睡
学者
叙述
弥补
事@@
即便
尊重人权
撤出
章程
渴望
福@@
环保
快@@
洛
事物
中美洲
权益
准备金
更多地
娜
接
积累
花费
转换
结
院
请@@
准许
生成
手续
泰@@
活跃
追踪
部落
团长
1987
112
冲@@
东盟
印刷
弃权
含义
CN.9
补编
记
游@@
本书
巴林
休息
可怕
感受
第五次
结余
养恤
否认
9%
一边
周年
第四条
刚才
镇
第二章
行动者
不受
越@@
英@@
降
两级
叶
透过
现@@
低收入
第三条
X
跳
is
明年
使命
107
抓住
引导
中所载
枪
愉快
我能
小额
呆
一人
营
储备
前进
1985
演讲
外联
证件
跨国公司
三分之一
经济@@
科学技术
纳米比亚
韦@@
第五条
书@@
公共行政
权威
骚扰
闭会
邦
算
提倡
7.@@
偏见
届会
解
手中
自主
转化
尽管如此
两位
寿命
运@@
av@@
既定
体面
啦
组建
穆@@
出色
致使
第四届
L.@@
目的地
中国@@
口译
荷
营养不良
征求
苏丹政府
承包商
记住
统治
减缓
关键作用
中文
求@@
南部非洲
签发
联科
遗产
战斗人员
２
实在
美国政府
墙
表示感谢
经济社会
逻辑
拉加
落@@
一类
将要
普
爱沙尼亚
一辆
一片
两者
路线图
紧密
理念
p
题
采矿
遭遇
跨
咖啡
视频
毫无
打破
民
某人
传@@
表演
确切
冰@@
上学
顾及
搜索
无需
头发
激烈
经共体
可否
迁移
普遍性
吃@@
毛@@
智慧
利息
早上
地说
之上
军事行动
兰@@
退@@
115
基本建设
细@@
使用者
一届
主导
完美
看出
每一
ac@@
配@@
供水
接纳
05
警官
支@@
碎片
大西洋
艰难
三名
欧@@
ro@@
司法制度
鱼类
施工
走@@
114
么
160
30%
140
糟糕
欣见
还会
当作
网@@
Q@@
换@@
该司
奇@@
赞助
联合国总部
演变
预@@
进来
苦@@
巴拿马
负面影响
环@@
天然气
巴拉圭
弗@@
困境
建@@
拉脱维亚
住所
贵
遏制
摧毁
已于
操守
113
签字
按@@
统筹
犯有
充分利用
109
领@@
施行
次序
除@@
食
看上去
斯德哥尔摩
理@@
中止
不好
小心
闭门
尽力
竞选
环
第一章
代码
脑@@
向前
会期
热情
到来
离@@
1982
十四届
种族灭绝
全面禁止
流入
洪都拉斯
税务
推荐
英
ir@@
服务器
平
堕胎
1373
人民政府
臭氧
合作社
直升机
乐观
霍@@
所指
汉@@
更换
补助
租赁
一个月
减@@
需@@
作法
教堂
隔离
ad
腿
地中海
边缘化
乡村
原籍
忙
理
一组
双重
职员
土库曼斯坦
维
订约
鸟
船@@
分裂
立
收取
样
农@@
am
物@@
蒙@@
部@@
塞人
29@@
海底
.1
居
116
中断
盖
社会福利
刀
军火
一生
步
金钱
绝大多数
音
普通照会
偏@@
租金
外债
优质
U
却是
有没有
构建
名册
原理
便于
感到遗憾
更正
增@@
日前
该条
频率
可行性
木材
外空
宣称
感情
辆
司@@
势头
检查组
两国
质@@
斐济
不予
随
采取有效
or
118
减免
人体
冰岛
6.@@
浪费
聘用
122
建
此前
高级官员
立陶宛
构想
第三个
申报
消极
博物馆
参观
老年
人民币
动作
项下
耶稣
护照
通货膨胀
华
做@@
展览
查
老龄
职业培训
饮食
几次
自行
藏
副@@
术
乐@@
周@@
ut@@
糖
th@@
精确
从中
DP
统计数字
海岸
等级
x
反对派
乐
三次
随@@
对应
企业家
鱼@@
卢@@
国际@@
报复
重叠
动议
层次
看作
捍卫
个案
一再
惩处
早@@
换
吉尔吉斯斯坦
传递
飞
考察
维护者
117
撤离
教育部
风格
孕妇
禁毒
措辞
第九条
土著人
先决条件
康@@
8.@@
指责
联海
毫无疑问
抑制
家具
弹@@
造@@
合成
调节
119
耶
有时候
顺序
汤姆
游客
地上
程
工程师
以南
牵头
传染病
支
样子
聪明
指明
审讯
国防
呈
下载
要么
系数
Mr
集会
进出口
负
电邮
损坏
具体措施
】
一笔
挑选
塔利班
城镇
酒@@
木
资讯
盖@@
成年人
政
危及
齐@@
刑法典
严峻
争论
混乱
十
埃
阿拉伯联合酋长国
180
之所以
注意力
关
第五十九
气象
配备
印象
陈@@
威@@
语@@
非索
目前为止
听@@
立刻
法律事务
惩治
饮用水
投@@
多哥
作战
延误
捐赠
接到
海盗
初期
全文
河@@
毫米
预警
升
翻@@
９
ed
执法人员
司机
计@@
桥
圆@@
拯救
旅馆
x@@
救援
赫@@
教会
议定
班@@
滑@@
采访
布什
断
两份
民@@
路上
相关性
公共政策
追加
恶劣
团伙
估算
标签
黑
公共卫生
不满
确信
存@@
洗@@
有意
将军
聚@@
牛
刑事诉讼
ul@@
送@@
实
看待
公共服务
社
两人
具体情况
办@@
救灾
西班牙语
刑事责任
Add.@@
强度
实务
监控
像是
痛
大多
儿基会
电子商务
追究
羁押
禁令
国民议会
农场
内地
et
关@@
久
圈
据此
测定
罗姆人
投
不安
28@@
谈论
耐@@
马其顿共和国
委
法人
穷国
道@@
最多
床
癌症
创业
优秀
变更
假定
本案
小说
军官
色@@
第五十八
无国籍
收回
故意
电台
法文
今晚
化合物
主体
信函
房地产
储蓄
线@@
尊敬
曼谷
更具
经济学家
检察长
提取
垃圾
抗
st@@
参加者
听说
精简
ov@@
分至
修@@
动荡
斯特
放松
概况
运
亲爱
这时
将近
9.@@
火车
得出结论
物理
大脑
量@@
不变
亿@@
端
遗留
明确规定
40%
非国家
财务报告
一事
街头
125
_
对比
过分
吉布提
毛
定位
.2
买方
理事
国家@@
采@@
放射性
第九届
早日
少女
红色
清
解决问题
几十年
萨摩亚
谋杀
筹集
列举
核证
概要
专用
自决权
01
令人满意
当今
警察局
形@@
职工
野@@
凯@@
克斯
ib@@
讲@@
玛@@
od@@
等于
穿着
内政部
综合性
史
弹
尼日尔
仪
敌对行动
复制
内阁
过渡时期
股东
曼@@
命
峰会
训研
行径
只会
无人
个@@
论点
既然
零@@
标记
梦
客
人民法院
抱怨
身边
清晰
制造商
概览
适足
南亚
抱
王国
09
丁
123
递交
黑暗
政府部门
异常
力度
书记
雅@@
um@@
圣
味
尽@@
缩短
马拉维
考@@
生境
那位
2.1
通道
产@@
专利
ev@@
牺牲
卢森堡
必
一本
七个
女生
证词
／
信念
解雇
女子
附录
雨
占有
纤维
杯
根@@
菲@@
篇
批
邮件
进行谈判
施@@
存款
转型期
80%
区内
the
示威
文献
欧洲人
外面
炸弹
121
辛@@
等@@
男@@
Mar@@
1978
见解
流行病
草@@
纠纷
软@@
练习
灭绝种族
文职
奖学金
展望
视@@
普查
北方
二十一
三分之二
编@@
印
本质
根除
保
刑事诉讼法
坐@@
救
坚信
见下文
托克劳
大会决议
内在
个体
专题讨论
将@@
IDB.@@
纸@@
作家
邮政
娱乐
划界
沃@@
太太
横@@
os
原则上
引用
移@@
患
假@@
欧安组织
文学
战@@
蒙特雷
ap@@
志愿
灵魂
相互依存
警务
属性
<
一会儿
玻璃
服务中心
贩卖人口
含@@
卫生保健
前任
遗传
指派
回报
严厉
om@@
处在
第五十七届
借口
虫
入学率
无线电
捕捞
蓝@@
标
收养
思维
多米尼加共和国
周末
商@@
湖
孔
马达加斯加
预先
沙
市场准入
特色
若@@
伊斯兰会议组织
函数
读者
服装
三种
无关
为主
解释性
配额
流通
忆及
入学
1981
记@@
第二阶段
吉
汇款
模块
蔓延
补@@
诊所
题目
两天
研制
剩下
奇怪
ec@@
ha@@
延期
猫
情感
代理人
司法部门
大赦
ud@@
苦难
编纂
St@@
附上
CONF.@@
抵消
贾@@
持久和平
07
派出
龙
原始
中将
Add.2
聚集
护@@
携带
CRC
古
即可
获益
巴巴多斯
测@@
归
观
劳@@
数值
海洋环境
公务
真诚
博
顶
标@@
频繁
山区
慢慢
抵抗
数学
一揽子
电子@@
原料
松@@
续会
哪个
轮@@
改组
存储
妥善
小孩
神经
国际货币基金组织
留@@
诗
守@@
场合
基督教
文中
稳定性
【
大气
职权
施政
Ar@@
导
部委
群众
1970
支持者
以供
阴@@
助长
何时
甘@@
牛@@
戈@@
燃烧
微笑
那天
骨@@
减
原先
戴
底@@
恐吓
应予
民族和解
主人
所在地
区域性
医疗保健
124
评注
博茨瓦纳
1.1
登@@
实效
司法机关
册
借鉴
第七届
袋
引@@
卫生设施
种子
观众
旧@@
回合
了@@
约@@
裔
场地
症状
校@@
初@@
ah@@
处以
朝@@
藏@@
第二@@
世
核不扩散
os@@
ig@@
第一步
导航
温
鉴定
㈣
核算
复杂性
不但
ot@@
伤亡
星@@
录
意@@
阳光
病例
品质
白色
股市
列支敦士登
还@@
读@@
第三国
归还
无条件
言@@
鼓舞
目@@
抵押
福
肉@@
准
硬@@
参@@
存
供@@
夫妇
空运
审计员
友谊
航行
叶@@
蒂@@
马尔代夫
预算编制
东欧
但@@
便@@
湾
连续性
载列
枪支
详尽
幅度
联合国日内瓦办事处
节约
而已
业已
.@@
名为
升@@
亲属
尼亚
英里
难道
1984
复兴
往@@
用尽
优点
扭转
us@@
三项
费率
男
体重
雇佣军
订
息
散@@
128
Original
一大
双
08
尤@@
勒@@
预见
接下来
挂
归@@
.4
认同
扎
境外
劳动者
深切
领
倒@@
团@@
夫@@
接待
歌
夜
段落
农产品
进去
一群
听见
138
类@@
技术支持
树@@
什么样
东南亚
邮票
同学
无论如何
可靠性
富@@
公告
ov
跳@@
暗@@
西欧
究竟
权力下放
违法行为
哪儿
第六届
恶@@
选项
06
清洗
着@@
铁
加深
降@@
忽略
各部
有个
矿
时说
借此机会
体罚
吸引力
现任
扫盲
适宜
关键问题
伯
结构性
火箭
微型
第二天
股份
国内外
25%
天空
134
淘汰
第六次
赤贫
音@@
自动化
全民投票
ir
平静
所提
货@@
衣@@
2020
耶@@
127
雪@@
警@@
信中
缺点
得知
诸多
完整性
世卫
it
盐
少@@
第十一届
回归
General
第五届
中所
左@@
股@@
受欢迎
政@@
庭长
一面
损伤
调查团
153
款额
界限
布鲁塞尔
126
定居
义
地下
继
欧洲共同体
收容
酶
自杀
集@@
绳之以法
他会
相结合
回复
登
云
举
吸烟
境况
乱
假期
益处
抽@@
海牙
替代品
银@@
毛里塔尼亚
烟@@
重大进展
破@@
预防措施
研发
遵照
模糊
1973
az@@
加紧努力
玻利瓦尔
云@@
透露
大概
日历
据报
集束
唱
十六届
管道
阵线
联合国人口基金
盘旋
果
茨
卷入
财务状况
杆
出台
le@@
to
懂
导@@
155
姑娘
急@@
处@@
戈
紧张局势
理性
实用
作出反应
阿尔@@
孕产妇
慷慨
毒@@
丽
用水
甲@@
中午
追@@
抱歉
规律
圭亚那
呼吸
独立宣言
创作
各项规定
送到
承付
可信
甄选
陆地
何@@
丽@@
章节
买@@
管理机构
想起
断@@
扩张
刑罚
占据
阶层
养@@
探@@
15%
二氧化碳
引进
不良
香
军人
图片
步@@
助@@
大卫
译文
乘客
哭
伊斯兰教
荣幸
佩@@
夜@@
北约
尸体
性骚扰
补救措施
绝@@
解放
旅客
非统组织
无视
专长
姆@@
东京
家中
11.@@
报导
矿物
English
苏联
扬
制造业
杂@@
甲基
朝着
信用
磨@@
极为重要
累积
多地
1949
替
固有
氟
总量
对不起
私@@
监视
细菌
毒性
初
球员
不可或缺
裁减
时机
小组讨论
非洲大陆
国防部
愤怒
区域间
苹果
躺
问@@
击
不丹
违法
惠益
区@@
赛@@
拍
迫害
运转
球队
衣
农药
公私
聚会
第八届
第十九条
拨
对手
事务司
合约
母@@
莫斯科
132
田
通告
aw@@
甲
难题
航空公司
首
op@@
129
莱
增设
输出
切
公
同行
调集
妥协
旁边
麻
受过
中小型
拒
扎@@
身份证
粉
客人
庞大
消@@
影
慈善
生产能力
幸运
马德里
一批
INF
主持人
卖方
摩尔多瓦共和国
曲
早晨
交通@@
穿过
进而
第一阶段
il
贩毒
这使
玛丽
极端主义
季度
印@@
绿@@
民用
独立国家
迈出
Distr
An@@
焦点
去@@
卡尔
称赞
致命
再度
1979
背后
官长
杰克
勇气
学术界
常用
介入
流量
与会
项@@
这部
冷
当事
自治区
简介
占领国
扶持
链
投标
所致
受益人
经社
连同
2016
警卫
自行车
涉嫌
资金来源
鞋
2.2
果@@
对本
三大
追回
债务人
码
无辜
这两项
整理
CD
相一致
第一条
写@@
实力
令人遗憾
阿拉伯国家联盟
董事
崩溃
us
昂贵
惊@@
［
走私
护士
135
远程
各种各样
到期
钢
分娩
社会@@
衰退
沿着
应是
世@@
丁@@
虽
话题
上周
余@@
ie
ation
故障
切割
客@@
撒
3.1
洗
拖@@
吹@@
缴付
z
约翰内斯堡
商务
财政部
烟
133
较@@
父
注射
桑@@
发明
交往
玛
花园
盛@@
苏
香@@
暂定
立法会
不必要
man
内外
茶
大批
嘴
id
棒
蛋白
形态
伦@@
之二
忘
产假
背@@
脸上
永@@
房舍
无障碍
精力
第十二届
不让
谢@@
170
落后
停@@
遥感
波多黎各
1540
抢劫
哥本哈根
三十@@
仪器
靠近
充分考虑
妇女组织
70%
精神@@
］
法外
大学生
域
信件
演员
宇宙
联委会
充当
io
改动
校
限额
样本
脚@@
悲剧
拿@@
卡车
相符
基层
中方
拆除
岩
UN@@
度@@
城市化
26@@
学员
令人@@
耳@@
法律顾问
托管
伴随
征收
主意
经济学
划拨
生命权
影片
60%
三方
窗口
带到
思@@
182
搞
几种
黄金
人身
弱
走进
待@@
2017
第五十四届
吸毒
象征
园
公斤
几项
不确定性
金融市场
简直
侧重
扮演
违约
伊拉克政府
服务业
联苏
90%
照@@
加重
X@@
加蓬
麻醉品
战略性
雅
折@@
轻松
号法
ti@@
141
市@@
挂钩
TD
体验
技术@@
伴侣
年份
朱@@
桌子
天然
烟草
停
幸存者
不可分割
沉重
131
孤立
动用
扣押
修理
迎接
感@@
毕业生
戈兰
地名
好好
附注
这会
民主党
灰@@
巴格达
乳@@
136
修
地向
保护措施
使人
Am@@
古老
说服
莫
备@@
发育
院长
散
款@@
太阳能
偷运
赤字
教育权
宪法法院
年来
抵制
英译汉
关岛
犯人
自信
隐@@
一致意见
可疑
全国性
阵地
中央银行
惊讶
部件
政治@@
不适
网络@@
链接
远离
意志
宽容
养老金
夏天
电视台
延伸
试
够
控制@@
流动性
各州
良心
布雷顿
奥运
1.2
拘押
仓库
奴役
浏览
从前
算@@
俄
辞职
健康状况
毫不
居@@
兼顾
这座
微
蔬菜
借助
隔离墙
市长
前所未有
辅导
紧
时应
联合国粮食及农业组织
黑人
台@@
画@@
决定性
文化遗产
氯化
举报
影@@
接种
第三章
用语
不如
减灾
务
长期以来
征得
心中
信誉
度过
不法行为
一篇
到处
依@@
巨@@
1983
免除
迫切
乱@@
出席会议
殴打
希
采取任何
新增
ani
哲学
水果
宁
连贯
公寓
判定
热带
承@@
划@@
主管机构
破
联网
不知
便宜
猪
右@@
PC
早些时候
此案
拖欠
餐厅
差@@
过时
插入
招@@
速
一百@@
亚的斯亚贝巴
169
斡旋
齐
回国
致@@
字@@
胁迫
多边贸易
电池
qu@@
贝
海军
撰写
侦查
混@@
粉@@
险
闭幕
W
大程度
指引
查看
易于
馆
撒@@
生意
认@@
生产性
延续
哪@@
述及
展
词汇
之类
严格遵守
ine
素质
遵约
睡眠
拿出
142
回去
外来
可怜
招标
沉@@
af@@
特别法庭
匹配
12.@@
鲁
公然
最小
省@@
龙@@
按时
互助
杀死
蓄意
予
发病率
EC
生气
被控
量化
调查表
有毒
分组
商人
判刑
很小
eg@@
第十条
３
治@@
生产者
蓝色
中立
努力实现
深感
欣赏
海啸
态
赫
僵局
仿真
全额
体内
拘禁
休@@
高层
药物滥用
经常性
深化
母
创立
血液
IN@@
替换
疗法
势力
填写
炎
高效率
吸@@
孤儿
然@@
10.@@
ra
乔治
艺术家
薄弱
形状
下令
杰出
迷@@
梅
一体
救@@
创伤
发言稿
不可避免
吸取
只不过
法典
军备竞赛
高度重视
疑问
自主权
皇家
162
第一款
便是
协商会议
交叉
阿曼
课题
科学研究
资@@
139
执行机构
称@@
房@@
足
套@@
十二
im
á
原文
交存
睡觉
编入
黑色
容器
WP.@@
造
疡
谈谈
众所周知
莉
通知书
学家
硬件
书籍
第七
措词
令人鼓舞
街道
物流
增效
供应链
ek@@
默@@
第十三届
多重
石头
建制
游
无力
幼儿
长度
成年
传感器
当天
局长
性别歧视
02
足球
Ma@@
月初
八个
医疗保险
class
再也
写作
边@@
射@@
137
Q
驾驶
色彩
洞
松
静@@
幅
非洲人
税@@
借
兹@@
订单
营销
高等法院
源自
强劲
30@@
附表
应收款
后代
同情
差旅
亲自
AR@@
支撑
尺寸
机器人
联合行动
八届
小规模
获@@
03
贴
人工
在场
自卫
急剧
浮@@
酸@@
彼得
ra@@
正面
道理
历史性
录音
显@@
样品
大国
可见
145
贯彻
东亚
暴露
甚
展@@
阿布哈兹
环境影响
CO
预审
未决
液体
该次
奴隶
第六十六
潮
兴@@
犹太人
世界粮食计划署
冷战
反复
纪录
就@@
派驻
胶@@
艰苦
困扰
观看
交谈
似的
空白
虚拟
审核
知@@
顺@@
播放
品@@
�
缺@@
v
犯罪活动
上市
忧虑
延@@
夏@@
简@@
住宿
制备
痛@@
保持一致
贵国
166
143
席
红十字
有效率
讨厌
器官
患有
同一个
技术性
以色列政府
约定
现况
比尔
保罗
q@@
议
恐怕
兑现
陈
寄@@
可爱
暴行
iz@@
面试
一向
保养
镜
丝@@
输@@
答辩
开车
研训
心灵
局@@
另@@
此时
问卷
瑞@@
鹿特丹
绝不
特立尼达和多巴哥
抚养
相辅相成
响
卖@@
元@@
致力
航班
立法机构
冈比亚
多方
行李
夫妻
高中
ob@@
逃离
佛@@
复审
荣誉
交易所
认知
留
统计资料
1000
心脏
扶贫
品种
吃饭
乔@@
锁
年内
征税
Ad@@
伊斯坦布尔
市场经济
里程碑
民政
04
心情
son
季
144
承担责任
1960
相互作用
餐
省份
限制性
而定
乘
虚@@
探测
板@@
各省
居留
日常生活
巴哈马
推翻
ina
冠军
弹性
严肃
无数
220
至@@
瓶
种群
宣读
大使馆
通胀
误@@
业@@
27@@
后裔
146
C.4
第三@@
省级
货币基金
莱索托
if@@
ent@@
弱点
巴布亚新几内亚
伤@@
平等权利
国有
罢工
选择性
深度
毒
蒙
ez
战略规划
临
密度
点击
噢
着眼于
门口
结构调整
防御
航@@
暴力事件
牛奶
第八条
饮料
财政年度
家伙
借@@
多元化
早就
一把
栏
拍卖
解散
胆@@
战略方针
句子
第二十三届
学位
社会保险
桥梁
面包
便利化
管理部
刑事犯罪
上班
呈现
开罗
25@@
列表
直布罗陀
强制执行
尽量减少
邮@@
雨@@
被害人
社团
菌
狂@@
搜查
肇事者
舒适
商业@@
详细资料
消耗性
轴
索取
传达
民航
同步
在职
牙@@
声援
注销
屠杀
IS@@
往来
2.5
威
飞离
月@@
背
235
５
保护区
季节
常任理事
足@@
分区
置
汲取
受益者
157
残@@
部长会议
资讯科技
ik@@
数据@@
央行
家族
土著居民
剧
从不
扫描
生产率
高达
发动机
147
差不多
大麻
小册子
洋@@
和平部队
函
第四@@
号码
保险公司
人选
le
参议院
管理工作
思
暗示
爬
合办
稿
外汇
ard
承包者
GDP
剂量
第二十届
1975
马克
源于
飞越
筹备会议
禁@@
基线
否定
Y
3.2
生物武器
分项
ang@@
变量
跨部门
治
1974
乙@@
ow@@
答应
战胜
勇敢
两周
密切相关
负面
传输
变为
156
新闻稿
告
洪水
裁撤
没什么
发展部
老挝人民民主共和国
环境卫生
缴
约会
潜能
学年
尤为
地质
池
下滑
拜@@
民主化
愿景
进攻
赢
诚实
订@@
系@@
见面
获准
余留
喜爱
卷@@
丧生
去世
前后
习惯法
存放
钢@@
揭示
广场
承办
岗位
综述
发表意见
保卫
慢
第十二条
13.@@
以免
开心
矿@@
战略目标
震惊
旁
六年
软
创@@
话@@
附有
所定
富
我方
系统@@
势
必要条件
自由@@
捕鱼
多方面
犯罪者
重计
禁产
牙
喷@@
第四章
步伐
惊人
二苯醚
粘@@
游泳
节日
坦@@
薄@@
传染性
汇@@
4.1
一间
联合国安全理事会
危险废物
移
土地利用
七年
烧@@
宽@@
传送
任@@
氢
中欧
晋升
营业
感激
铲除
富裕
原件
定性
史@@
重量
人口普查
考验
冒险
积@@
毒素
混凝土
互@@
媒介
盈余
多人
赋权
书记官
大臣
讲座
军方
视角
仅@@
片@@
151
粗@@
罪@@
城@@
演出
ć
组件
不利于
明智
近来
徒刑
党@@
El@@
不停
新闻界
财力
100%
井
置@@
玩具
个人@@
很长
智能
私有化
舍
雇佣
曲线
早已
草拟
加紧
疗效
依赖于
沙特
突破
这点
三天
灵@@
波恩
女工
塑料
毁坏
附带
成千上万
传
注入
最低工资
AC.@@
14.@@
国家计划
活性
走上
外界
咱们
供给
oc@@
汇
次@@
避孕
你@@
二级
一颗
第六十
缔约
154
简短
构造
大会堂
铜
总局
350
不明
农
日刊
懂得
位@@
族群
对照

利亚
百万美元
ing@@
联合国贸易和发展会议
应计
某种程度
末
西撒
万名
劳动法
十七届
公职人员
继续加强
策划
ic
胸@@
210
轻
合理化
锻炼
实况
日后
厨房
王子
竞争性
坦桑尼亚
种@@
线路
欧元区
窗户
注明
有形
安全@@
152
第二期
安全性
几位
不限
免于
安盟
婚礼
司法程序
实时
侵权行为
北美
身心
泡沫
展现
仅限于
性健康
针
装饰
Th@@
群@@
炉
初始
嗯
大厦
大选
AC.109
158
生物@@
一并
基本@@
中央政府
穆罕默德
强行
文盲
产物
Le@@
关键因素
放缓
í
拍摄
盘@@
切实有效
148
屋
党派
希族
饮水
肿瘤
编码
象@@
玩@@
彩@@
受到限制
上去
270
含水层
149
火器
反而
汽油
端@@
河流
广@@
插@@
定稿
南北
围@@
金融服务
251
欢@@
内心
sh@@
161
ST
领事
鬼
後
推定
宽
指望
柱
规格
上限
改
小计
总计
估值
丹
一台
审批
第七章
秒
大于
裁判
旋转
局部
祖国
隐藏
磁@@
干净
纯粹
定价
审视
钟
前途
义@@
申请书
市政
天内
井@@
大致
航
第二节
疯狂
发电机
总之
叫做
千
经由
III
亿元
在此期间
奉
西班牙文
破坏性
下届
老鼠
射
支票
漫长
也就是说
长远
帮@@
急性
all@@
190
资发
艰巨
上网
下属
派@@
扭曲
1977
校长
严@@
营@@
自豪
摩加迪沙
信用证
2.3
基础教育
收获
拥挤
1961
节余
士@@
联阿
同期
金伯利
礼
糖尿病
嫌疑人
南斯拉夫联盟共和国
红十字国际委员会
优@@
考
出入
飓风
一节
资源分配
1971
首相
创意
外交政策
健康权
函件
以使
高速
紧缩
ok@@
脑
答
各项措施
误解
押
沮丧
培训中心
百万
瘤
充@@
澳门
这句
钱@@
激发
一同
届满
证@@
年级
表决权
特许
宗教信仰
牧师
树木
麻@@
睡@@
联络小组
革新
出身
太空
占@@
逃@@
大陆架
不敢
走廊
监督机构
该处
休假
创造性
第二项
新生儿
扣
系统性
不可@@
俩
殖民主义
不论是
视觉
竞赛
表述
16.@@
手里
请愿
杀人
述
发票
直
笔@@
蛋
创
欧
多元
密码
C.6
载@@
原子
ay
SC
胜
讲述
人会
原有
枪@@
苏格兰
乔
日向
联大
基石
尾
封@@
阿拉伯语
降至
摩@@
触@@
列报
昨日
水域
座位
角@@
环节
应收
受援国
特派
史密斯
操纵
显而易见
普遍存在
送给
隔@@
第二款
独联体
社交
细
ug@@
智力
冒@@
籍
购物
之友
仆人
逾期
职@@
英尺
江@@
万元
汉
仲裁庭
出庭
脂肪
堡
饭店
提高效率
红十字会
PV.@@
耐心
被判
据估计
生日
Bar@@
价@@
附@@
保护环境
检
陪同
树立
载入
停留
全力支持
纯@@
在家
销
23@@
竞争法
贸易协定
定居者
布朗
欠
至迟
监护人
隆
新喀里多尼亚
免
240
词@@
毁
医药
密集
#
减至
控制系统
检查站
行政长官
贴@@
226
交流信息
雷达
创收
不同于
灵
uk@@
15.@@
参与性
监@@
科摩罗
分析师
%
发电
过多
贫民窟
湖区
一声
英镑
茶@@
羊
污水
教材
时所
增大
本周
摩纳哥
跨越
活着
审计报告
铜@@
偷@@
亮
已知
结核病
移植
拿到
A.@@
总收入
严重性
报价
非盟
急需
本项
路径
基伍
超
摆@@
估价
太多
CA@@
Ab@@
译
撞
真理
善
特别强调
怕
宁@@
婚@@
钥匙
Re@@
PRST
同性恋
英雄
神圣
夏季
管理员
善@@
内战
长大
窗
哥
餐馆
控告
履约
侦察机
业主
大纲
呼@@
1976
进出
回忆
条中
文档
努@@
武@@
采集
大声
交通运输
佛得角
邻居
激光
工业@@
∶
为本
田@@
储备金
壁
星期六
阻@@
慢性
速@@
这条
一对
六种
曲@@
防
履行职责
表示满意
服从
ou
技术咨询
法制
随函
人称
汁
黄
医务
208
终身
冲
申@@
毁灭
尔斯
难以@@
疼痛
165
五名
继续执行
走出
古代
丹@@
特有
00@@
消费量
镇压
组成员
192
过渡政府
159
九个
口粮
湿@@
刚@@
日志
头上
屏幕
击@@
性行为
ill@@
舒服
土族
广
眼前
示@@
志愿者
ers
流域
平行
该股
市镇
弄@@
无意
撤消
新鲜
湿
201
时光
头脑
体育@@
控制措施
4.2
情节
一根
海运
致函
表示遗憾
为例
友
刺@@
国家主权
主义者
臭氧层
模@@
联索
出资
堆
壳
癌
严重威胁
大胆
露
厚
范例
抓
欺骗
涂@@
贯穿
转达
蛇
露@@
湖@@
ip@@
重债
科学@@
前者
总督
祝
肌肉
血管
固@@
略
圣诞节
作证
差额
日本政府
油价
国情
防护
我愿
故
温暖
免@@
第一份
该案
冬天
舞
ana
生育率
赶@@
总的来说
ub@@
找@@
专注
波黑
不行
仿佛
隐私
敌方
久@@
值得注意
电路
一新
前体
今@@
众@@
两倍
传染
封
极其重要
Car@@
四名
金融@@
新闻@@
庭
举@@
浅@@
薪
春天
应力
标识
打死
230
宝@@
ch
春@@
硬
岩石
越境
多久
等到
传媒
透@@
审前
滚@@
众议院
167
妈
宫
货运
制成
大门
百分之@@
刑
沙漠
RC
选票
帐
某@@
购@@
少量
美洲国家组织
沿
兴奋
椅子
分工
1.5
政治家
教室
妹妹
汇集
扬@@
审慎
1972
扔
检讨
明星
第八
舞台
导向
eb@@
ass@@
租@@
简易
兵@@
主管机关
公营
分成
相称
提示
车队
当年
舱
性格
冰
L.1
集装箱
味道
时尚
演@@
港@@
怎么办
戴@@
评级
参见
全新
条所
雪
务实
专
知
单个
什@@
事例
公式
侵入
伪造
CO@@
解放军
扣除
教练
挖掘
反叛
闻
景
陆@@
多万
肯
一次性
分阶段
录像
阻挠
伯利兹
剪@@
意识形态
马丁
iv@@
唐@@
舒@@
乡
服@@
效能
Kh@@
般
永久性
帮忙
毕竟
例句
核对
213
专业知识
义务教育
推
负@@
弗
名叫
淡水
累计
260
信用卡
第二十四届
众
上来
付@@
热线
复合
饼
隆@@
程序性
野生
每届
概括
终@@
189
迈@@
情景
挺
迹
第一项
号@@
乌
实习
不太
怪
切实可行
最长
晶@@
罪名
所起
飘@@
缺口
逃避
确@@
沉默
三年期
三角
营造
禁
禁毒署
余地
无须
舆论
哥哥
两家
堂
桶
中为
利害关系
经营者
筛选
否决
杜
甜@@
保险@@
183
等国
结算
164
机密
地下水
50@@
总产值
肯@@
接口
平等待遇
观@@
简称
163
床上
碳@@
亲
这名
搬迁
额@@
封闭
印度洋
横向
兵力
失
ong
项目管理
侧
敌对
拓展
联络点
㈤
175
惩戒
供其
被告人
室内
差旅费
针@@
货币政策
不起
申请者
携手
容@@
242
东欧国家
变形
优先权
诚意
税率
211
怀@@
更是
院校
警
顶@@
瑞
管理制度
集合
扫雷
名词
全民
提问
奉行
服务@@
Br@@
深表
幕
此基础
敌
ang
里奥
夹@@
结成
四分之一
纵@@
值@@
蛋白质
绝望
第二十六条
起飞
名誉
缉获
of@@
最早
保管
此处
裁
刊登
一处
喜@@
正好
17.@@
祖@@
材
事务局
敬@@
保守
届时
英格兰
鸡
氧
日程
启@@
XV
汽@@
短暂
宣告
残酷
地板
研究生
启用
校园
泥@@
检索
谋@@
牲畜
地为
资
商业银行
止@@
振动
第七次
恰@@
第六十九
监护
不动产
既有
告@@
介绍性
百
着重于
原本
维尔
以求
火灾
索偿
增值
寻@@
续@@
联络处
暴@@
刘@@
手指
职司
上半年
歌@@
227
迈克尔
就此结束
一遍
获释
魅力
刺
温和
阿拉伯人
制度化
国际金融
种族隔离
一阵
贿赂
检@@
执@@
划定
爆
煤
冒
商品价格
决@@
在外
例外情况
卢
173
发表声明
总裁
驻科
构成威胁
四周
农业部门
测
租用
适用范围
咨询机构
或非
目光
队员
廉价
海域
煤@@
有何
承运人
建成
第十七条
管理@@
来讲
辩护律师
可取
紧急状态
之害
孔@@
般的
天使
签署国
尾@@
理事国
略@@
景@@
人家
Sal@@
深远
MA@@
行政@@
铀
168
称之为
阿拉伯文
通往
薄
end@@
命名
ant@@
172
某项
此一
武装力量
级@@
与@@
先例
碎
帽子
工作日
科技@@
登记处
脱
昨晚
掩盖
18.@@
定型
风暴
不合理
填@@
一层
2.4
废料
盒
独自
3.3
少于
该科
赤道几内亚
射击
跟着
美联储
负担得起
珠@@
第四十九届
猜
折磨
配
限定
把握
民法
悲惨
转运
四十@@
机理
凭
耳
ER@@
坏@@
腔
奴隶制
出境
震@@
各届
英语@@
爵士
异议
案@@
妮
我来
受损
道歉
市场@@
模板
贝鲁特
谱
汇总
保留意见
更高
帕
效
完全符合
生产商
楼@@
创造条件
酒吧
泵
请问
合作项目
悲伤
交换意见
乃至
下落
缩@@
第五章
数百万
朗
轻易
祈祷
激动
积压
谈@@
曾@@
管理者
第九
斯威士兰
育@@
天主教
重新@@
已婚
做些
词语
萨赫勒
苏里南
内向
造林
惠@@
汤
凡@@
宪政
调解人
借贷
谷
发生变化
个性
单身
ell@@
速效
占用
第三节
信仰自由
节能
休
团聚
防扩散
抵@@
凡是
叛乱
负有责任
率@@
结社自由
卫生@@
船上
数码
姐姐
教徒
无罪
诗@@
记载
苦
页面
泽@@
结果显示
相处
退休金
莎
Kar@@
大家庭
参议员
塞浦路斯共和国
白宫
图表
禁试
害
征@@
持@@
248
钻@@
产权
大力支持
精神药物
鼻@@
诸@@
筒
重大贡献
无权
化学@@
24@@
出示
拼@@
保育
骄傲
一日
自然人
设@@
一枚
氏
双手
171
第一批
世界@@
陪伴
ó
局限于
零售
共和党
父@@
劳动@@
素@@
19.@@
巧克力
浓缩
放到
裂@@
商标
那边
议案
神秘
审@@
腹@@
垄断
务@@
沃
民族@@
愚蠢
符号
千克
全氟
先后
菲
财务管理
垂@@
虚假
艇
封信
统计局
艘
行列
经典
薪水
执政
两类
搬
com
淡@@
型@@
榜样
新政府
高昂
房地
家务
轰炸
跑@@
渐渐
0%
巴勒斯坦国
以色列国防军
极度
起点
开枪
崇高
多达
原告
不准
裂
法律依据
业界
偶尔
槽
尿@@
升高
地理信息系统
乡@@
伦理
历史@@
闪@@
交货
规@@
厚@@
志@@
取缔
西非国家
本函
下放
耳朵
肤色
说出
准确性
调查员
月球
反过来
电流
到位
最具
缓和
激@@
卫@@
几周
174
礼貌
４
饭
８
碰到
森@@
高校
杰
会计师
议会选举
势@@
距
列明
选手
庄严
iy@@
零件
官@@
住户
逃
75%
容量
非洲统一组织
十一
引擎
SA@@
排名
生病
一案
og@@
犹太
1969
错@@
侵蚀
其管辖
阿卜耶伊
闭@@
应立即
骑
缺席
发布会
随之
继续下去
忍受
朗@@
教学@@
拍@@
命@@
购
怪@@
工作@@
杀@@
185
仍@@
1951
外勤人员
以致
尖@@
防卫
良@@
小国
好象
轨
帝国
街上
及早
晚@@
转入
运费
214
增列
开来
超级
初等教育
合计
玉米
访谈
随意
鼠
联发援
分割
公共汽车
拉特
问道
est@@
一艘
锡
广阔
安静
联格
生殖器
哥@@
内政
侮辱
生理
预备
男童
鸿沟
灾后
会面
力图
十周年
啤酒
战士
暂@@
单词
并入
C.@@
Sa@@
应于
国防军
拜
基本法
评审
抛弃
坎@@
注视
干燥
平方米
哈利
累
签
遥远
谢
辞
累@@
噪音
公共秩序
下表
峰
通行
股权
框
金融体系
无限
our@@
法医
戏
前来
每人
放置
预报
索引
坐下
战术
安全措施
人员编制
定量
债
与非
消极影响
食用
la
两大
役
压迫
截@@
守
判@@
字母
舍@@
各个领域
想想
水泥
最有
核设施
40@@
公主
思路
IV
扣@@
181
控诉
追查
倾@@
论@@
灯@@
小组会议
一轮
百分点
186
岸
圣卢西亚
罐
摆在
压缩
技术人员
环境@@
机会均等
层@@
受伤害
增添
ry
误差
访问团
中等教育
彻底消除
历@@
读书
柜
灭
中应
部位
驻@@
格局
中介
农发
低下
出缺
失效
微生物
北非
缩减
剧@@
扩充
所罗门群岛
琳
本港
应从
Add.3
下半年
管理处
杨@@
自然@@
ash@@
调用
干什么
殖民
序列
调度
提供者
即决
吊@@
教廷
191
胶
不符
Sch@@
生物学
空气污染
美属
利益冲突
5.1
宝
177
In@@
热烈
第十九届
博客
184
许@@
灌溉
柔@@
除此之外
兼@@
普遍认为
感染者
所称
岩@@
须@@
联保
瓦努阿图
薪资
婚
东非
罗伯特
喀布尔
聘请
一倍
判处死刑
偿付
振@@
范@@
斗
造福
四项
有效期
忠诚
北极
建立联系
关键性
菜@@
密
所知
政策措施
天基
事务所
安慰
联合体
ach@@
双语
总会
丢
视听
囊
查验
志
法律法规
穿@@
似
加共体
合金
下达
178
研究者
建筑@@
克林顿
浸@@
最少
从业人员
临@@
Sub.2
夜晚
其所
精算
基督
偏离
市区
改良
ES
废@@
人身安全
汽车@@
ey@@
户@@
德尔
锡@@
目睹
法律义务
码头
完@@
坚@@
公顷
祝福
四方
豪@@
牵@@
院@@
有所改善
均@@
450
异
art@@
海水
1.3
股价
225
oy@@
233
那次
银行业
坚实
香港特别行政区
在实践中
牌照
跳舞
第纳尔
奖金
动词
不结盟
图瓦卢
之处
精度
重新考虑
不顾
教育领域
学费
就算
船长
使用权
寒@@
汗
割@@
决不
习@@
幻想
适@@
你好
这张
租
ey
评@@
脸@@
幼@@
―
稳步
酒精
数年
每当
各不相同
熟练
欧共体
轻微
育儿
手工
时常
运输@@
乘坐
断定
报名
破裂
阵
全都
协
县级
死去
限@@
187
等候
re
开关
第六十@@
民用航空
黄色
微软
相关者
岛上
评委
低估
坑
文化@@
靠@@
刻
领先
舞@@
使该
搜寻
占领军
第十一条
律师协会
英国人
率为
略有
六月
逐字
粒
户主
会议厅
中说
神经@@
委任
晚餐
一个@@
大屠杀
银
个人资料
江
是非
贝尔
丰@@
开辟
村@@
覆盖面
研究员
付诸
批@@
精神病
详细情况
吻
抵触
执行官
工程@@
阀
跨@@
罗姆
一般来说
深深
枝
海洋生物
挂@@
规划系统
儿@@
隧道
Di@@
176
接管
RES
第十五届
安南
祝愿
键
得益于
联伊
只好
拖
敏感性
公职
案子
199
监察组
村民
度假
东方
功@@
稍@@
陪
尚@@
城乡
分支
206
圆
扫@@
ent
故@@
财务@@
外聘
空军
培育
醇
年龄组
谷歌
预警系统
对称
20.@@
文物
当今世界
邻近
奋斗
方程
多于
乐意
期限内
218
增
水中
十五
未成年
增订
母婴
电讯
喊
心脏病
202
信息管理
发生率
恨
亨利
它会
一期
对面
哈马斯
另一方
周一
克制
的@@
罗斯
第十六届
颗粒
歌曲
诞生
长久
全人类
逾
丢失
混合物
国民经济
一封
元首
阿里
243
墙上
法律效力
冬季
Dec.@@
肠
版权
牙齿
ard@@
尚待
207
As@@
国际性
5.2
坛
评定
天堂
因子
加勒比地区
监督管理
上校
新建
煤炭
开启
194
子弹
焦虑
随机
有所不同
见证
迁徙
加倍努力
废水
–
综管
规范性
性取向
入口
声誉
卫生部门
有望
铺
int
阿鲁沙
完毕
突@@
杂项
匮乏
弹道导弹
充分发挥
境
布林迪西
如上
令人担忧
十个
麦
检疫
氯@@
提出申请
装运
审案
千美元
离子
戏剧
商业性
走过
医@@
欢乐
电视节目
二十年
零部件
此举
委@@
第十五条
扩@@
信息@@
知名
伯爵
欲
十二@@
搜集
宗教自由
205
汤@@
移动电话
体育运动
演习
ess@@
节点
Ag@@
半数
1963
贝尔格莱德
外籍
糖@@
听证会
代表大会
审定
借款
服务提供者
７
1325
兴奋剂
佛
住@@
em
孤独
222
卓越
188
裁@@
年会
WG
石棉
英联邦
挫折
第十七届
智@@
潜@@
乘@@
新年
经济合作与发展组织
Z
冠
烤@@
效用
６
乐队
塞舌尔
段时间
193
灾难性
减排
高风险
小麦
充实
ai
夜间
柏林
炸药
全力
ist@@
警务人员
见本
瓦尔
4.3
经济衰退
倾听
拟@@
PA@@
洪@@
间@@
梦@@
ep@@
夏
错过
划
高出
干部
莉@@
第一年
猛@@
布什总统
存货
间隔
控制权
历来
醒
育
颇
全年
机票
谷@@
平方公里
硫@@
汉语
一款
Sp@@
盐@@
电压
恶
209
争辩
纯
竟然
听众
大鼠
余下
偶然
联合声明
此人
特区
围
界面
果断
学到
ara
未曾
Sam@@
液@@
179
俄@@
订购
考绩
跨境
以至于
擦
烧
屋顶
南极
青
争@@
CAT
第四十八届
不时
检察
业务@@
纺织品
符合国际
透
何处
现阶段
男生
狼
w
礼@@
执照
转为
奥林匹克
拉斯
具@@
SBI
熊
镇@@
剑
亿人
Con@@
一头
上个月
季@@
萨米
处长
强加
196
拘留所
调拨
拆@@
帽
市政府
湿地
比重
新生
人道
贸易@@
维生素
教科书
分支机构
即时
喂
点钟
始于
所处
伤残
采
进化
ur
翻修
au@@
升值
喀土穆
面谈
排列
母语
竭尽全力
海峡
竞争对手
多余
午餐
现时
根据上述
桩
泡
漏洞
嘉@@
一整套
课堂
容纳
从来不
C.12
碱
无限期
频@@
游行
胃@@
公正性
第十八条
蓝
磅
是@@
猎@@
默
寡妇
泛@@
来信
一代
堆@@
迈进
均匀
教员
Ali
行星
一览表
ind@@
滴
外交官
氧化
军用
203
念
奇迹
原材料
折扣
缘
uc@@
迟到
准@@
大城市
预料
葡萄酒
大厅
密切联系
营运
241
起因
悬@@
部族
氛围
善意
希尔
280
第十八届
伏@@
延
摩
情报@@
ew@@
贫@@
压制
228
过后
家庭@@
见表
铅
不该
必将
Har@@
极少
表情
原油
段@@
200@@
检查和
有序
留给
与否
贵方
五岁
持续增长
事后
敌军
科研
判
根本原因
单纯
千万
共同@@
服兵役
法律咨询
幼儿园
＿
吸入
阴影
短语
束
弟弟
橡胶
纷纷
该段
＊
条约法
221
204
诽谤
乐趣
课@@
国家机关
同盟
医务人员
脂
水道
后期
防空
CH@@
分解
负责管理
渔船
ICEF
两架
本土
多边条约
豆@@
负荷
ef@@
漏@@
邪恶
要说
擦@@
盯
空调
旅
付给
日趋
绘制
会计@@
牢固
ha
三级
险@@
诉@@
高峰
总人口
伴
中向
亟需
骗
姿态
惨@@
稀@@
模
交流经验
晚些时候
急
羊@@
翻
鼻子
价格@@
休会
据@@
保护@@
钟@@
237
不去
基金组织
净@@
流向
角度看
覆盖率
谨向
催化剂
记入
识字
赚
签@@
无线
195
相连
大气层
挑衅
尔德
赔偿金
生活水准
一杯
LA@@
航运
上级
舞蹈
AP@@
一封信
营养@@
票据
公共安全
景观
ST@@
一章
鼓掌
持有人
承
轮胎
选举法
样@@
矿业
越过
磷
互利
高等
周二
拨出
移民局
奈@@
止
ari
否决权
一门
播@@
庇护所
唱@@
人民@@
挑战性
臂
扶养
除名
大自然
俄国
那条
相等
容许
非线性
百慕大
215
ell
生于
电缆
铝
益@@
尺度
卡拉
承包
RA@@
静
备
DNA
戒@@
兑换
捍卫者
流感
酮
控
换句话说
荒@@
Su@@
认
光明
铺@@
太平洋地区
八年
最快
改革方案
慢@@
领导层
266
弯@@
行政助理
保护法
过高
缅甸政府
五月
炮弹
向上
法例
野蛮
贪污
设计师
鼓@@
玫瑰
血统
可卡因
第十四届
行为人
216
加州
噪声
eh
吹
浆
暗杀
盈利
改正
吓
海滩
侵权
变暖
塑造
一月
安提瓜和巴布达
刑事案件
COP
聚
复
访问期间
人质
半岛
鸡@@
诗人
IC@@
刀@@
大宗
269
斜@@
站@@
碰撞
赔偿额
已获
但须
互补
施
197
回避
鞋@@
广义
符
评
烦恼
皆
外资
En@@
绳
信息中心
原谅
吞@@
纳税人
熟
查访
共同利益
健@@
顾
253
赖
易受
散步
香港@@
总经理
剥夺权利
摇@@
Gu@@
敬意
并发症
矩阵
动脉
年度预算
露出
四月
绕@@
热爱
经济援助
微妙
标明
办公厅
疲劳
起着
推销
甚@@
小男孩
焦@@
IT
ers@@
替代性
令@@
圣经
料@@
准入
灰色
泰
洁净
阿拉木图
动乱
备用
查尔斯
这部分
众人
小小的
ta
敢
规
挽救
浓@@
保人
原定
浪漫
备件
定向
举动
而成
第三十@@
动力学
几
捕@@
早餐
形容
棉@@
斯特@@
芝加哥
挑@@
程@@
现代@@
口袋
人口@@
非法行为
缺
而来
大为
阿克拉
航天
所有者
金沙萨
研究成果
欲@@
伸@@
中央@@
交由
und@@
明确指出
南美洲
假日
沿@@
物项
住区
当务之急
出差
投资@@
期刊
绿
肥胖
十三
座@@
厕所
注@@
直辖市
oh@@
外长
锁@@
劳
所在国
袭
水源
各项政策
无可@@
坦
皇@@
保护主义
联席会议
化管
L.2
孤@@
简历
基会
不可逆转
芬
清真寺
缝@@
狮子
通货膨胀率
司法部长
Tr@@
ex@@
俄文
ICCD
变性
龄
根深蒂固
三月
廷
第五@@
加热
销@@
野生动物
联东
属@@
棉花
不止
反对党
韩@@
搞@@
4.5
人中
言语
废止
账目
中请
魔@@
策
叫@@
反洗钱
迎@@
带给
刻@@
斗@@
发展局
家乡
增幅
法郎
商用
反思
联合国国际贸易法委员会
258
粒子
反驳
每一项
摄影
sc
雾
格林纳达
蛋糕
空前
公海
感到高兴
按钮
洞@@
历
报销
拉姆
给@@
好几个
星期天
财@@
溶@@
出口国
光盘
式@@
休闲
长期存在
帕劳
一分钟
制服
打印
熔@@
巴厘
准予
愿@@
中旬
天体
贸易谈判
电话号码
喝@@
管理制
百姓
第八@@
各政党
组织法
3.5
海湾
担负
旁@@
发生冲突
终结
交战
精
巨额
减弱
中型
恋
ati@@
忠实
氮
梁
anc@@
兴
年纪
并行
ust@@
礼拜
专业化
逊
宾@@
抵销
棘手
ya
ity
途中
12%
优良
最终目标
早婚
克隆
制剂
商品@@
搭@@
360
腾
Gr@@
安道尔
雄@@
九龙
代表权
不清
仲裁员
第一节
尖
著作
开幕式
失衡
九年
渗透
CRP.@@
惊奇
穿越
竟
童@@
合伙
胺
热量
排定
enn@@
252
解读
CERD
研@@
威廉
贬值
预订
不住
欠@@
写信
版@@
社会工作者
ro
无家可归
绕
198
树脂
巧
毫克
收缴
激情
价格上涨
令人不安
左
笑@@
销售@@
迷
结核
陆军
三维
几分钟
化石
善政
htm
贵@@
高速公路
寒冷
服用
意向
1948
音乐@@
鲜@@
储@@
坦克
变换
一眼
欠款
周边
德黑兰
抓@@
中毒
起初
图书
进一步提高
拔@@
264
热点
被动
一幅
圣文森特
汤加
Be@@
起源
包裹
时才
上课
表中
宁愿
寄
补
多层面
瞧
5000
夸@@
闲@@
劲
白人
主持会议
州@@
书面形式
阳@@
绝
接洽
南太平洋
合法化
密封
语法
两条
碎@@
空间科学
服务质量
ga
徒
搬@@
静止
揭露
紧急行动
保全
第一季度
年里
发现自己
罩
仅为
EM@@
宏观
退还
派别
女王
马舍尔
绘画
积极支持
查找
觉
摸
冷静
调和
薪@@
征
马绍尔群岛
树林
255
捉@@
麦克
场景
抢@@
254
演
卡拉巴赫
亲密
谋生
固体
四次
警报
注定
217
语音
ka
调查报告
①
桑
避难
动植物
胜任
齿
吃惊
烦@@
乍
上将
相比之下
余
印尼
滴@@
带领
长达
常任
刑@@
不定
应以
不出
谋
备灾
悬而未决
折
模仿
辩称
电器
逐@@
为准
器@@
界@@
税款
遇见
外国投资
从此
临时代办
肠@@
第一期
师@@
数据处理
抵御
氯
旋@@
圣诞
GS
集成
科菲
都市
白天
加以解决
本章
276
Pr@@
一度
奖@@
建议书
一番
减小
描绘
七月
工商
236
制图
罕见
让步
上下
机械@@
21.@@
真空
用地
胜@@
免税
ak
水质
吴@@
演奏
具体@@
犬
诚信
身心健康
德拉
野
金属@@
焊接
伸出
国家有关
三国
比较@@
餐@@
另见
中是
犯罪人
跟进
过剩
务必
发展趋势
妊娠
海洛因
稍后
第十六条
石油@@
第六章
立法机关
垂直
斑@@
东南欧
医疗卫生
腰@@
审计工作
似@@
选用
~
格林纳丁斯
责成
大街
珠
第四节
屈@@
妇
差价
图案
荡
涉@@
华尔街
律
住院
..
战略伙伴
爬@@
姐妹
集群
情事
归因于
2.6
农业@@
争夺
为限
拉美
组织@@
出口商
全盘
专项
核武库
非暴力
运载工具
渥太华
遗@@
券
降到
例@@
继@@
容
仍旧
狭窄
心理学
核爆炸
El
265
恐怖活动
灭绝
运载
遇
赴
丝毫
印制
受雇
退
死者
碰@@
再见
精英
弃
监督机制
漫@@
ID@@
订阅
ik
刊物
鸡蛋
非常任
球场
平面
ish@@
办事
詹姆斯
磺酸
服刑
for
低成本
民族团结
创新性
银行@@
眼镜
限期
论证
不堪
尔特
街@@
广为
欣@@
大地
其为
宿舍
径
科目
总监
丧@@
偷
收缩
Ham@@
改划
ate
总体而言
分在
稳
价值链
珍贵
眼光
挤@@
屋子
发展@@
烈@@
外表
电话@@
参看
第十三条
大道
开头
da
随便
各次
驶@@
去除
宗@@
特许权
深海
像@@
不懈努力
CE@@
296
妻
质量保证
译成
意在
223
难度
33@@
腐蚀
受访者
顿@@
列于
6.2
增补
广告@@
欲望
纹
永恒
不像
第二十@@
第二次世界大战
移送
232
电源
军用飞机
制定者
两者之间
九月
计入
咬
现存
雨水
广播电台
um
290
佳@@
硝@@
非核心
来临
德斯
借调
盆地
坚强
竞@@
禽流感
ol
231
摩西
纵向
氧@@
这套
退回
以内
牢@@
康
有益于
讯息
aj@@
人发
马尔@@
乃是
238
返@@
谘询
接替
再生
如上所述
期满
244
砂@@
本月
相互尊重
13%
出租
删去
战场
全境
车站
阿比让
偏远
质素
捕获
引人注目
可观
资深
财产权
爱好
商讨
处理@@
函@@
跌
盛
艺术@@
游说
ann@@
牧@@
使馆
摩尔多瓦
q
船员
夹
沿岸
维奇
渔@@
iss@@
紧急状况
唯@@
沟
获得成功
出具
高温
流失
AC.105
车间
右
郊区
持续性
菌@@
不肯
邦@@
口译员
统@@
CCW
凭借
星球
〕
访
暗
中所列
这块
几点
奋@@
宜
换言之
票@@
拨@@
地铁
公民投票
批准书
偏远地区
氧化@@
750
5.3
扰乱
应予以
建模
连贯性
224
非常重视
一是
供电
牢房
246
看不见
董事长
垫
撰文
辍学
之用
纳税
娅
酯
灰
剧院
合法权益
悬挂
辛烷
巡逻队
复议
SBSTA
IT@@
国旗
丑
体检
ma
欧洲理事会
刑警
打交道
讯
6.1
耗@@
皮特
稳固
己
有无
政治化
疏@@
潘基文
详述
民间组织
演说
刑期
应享
周三
这事
好事
例行
出租车
污@@
1950
炮
247
努力提高
AN@@
哀@@
步行
归咎于
一律
1966
底部
一时
作好
望@@
逗留
劳工法
显
阳
达格
获胜
恐怖袭击
1968
珊瑚礁
关怀
概@@
总体目标
卢萨卡
经受
无知
方可
候
心理健康
3.4
肝@@
Is@@
234
币
陷于
世上
藉
收藏
Ex@@
资本主义
柯@@
平均数
门槛
检察院
保险费
长者
表示同意
荣
本署
缺失
事实证明
吩咐
Fr@@
里约热内卢
萧条
境地
关爱
内务部
清算
电气
泡@@
缩编
日渐
图形
进修
看过
军事法庭
衬衫
联布
架次
正常化
清醒
拜访
日止
货物运输
261
安全网
全职
该款
生命周期
全环
箱子
1.4
门户
第四十六届
战略部署
纽@@
赛季
战时
开火
通报情况
〔
织@@
下雨
不见
重型
定制
城里
泄漏
示威者
总值
开展业务
结社
马车
遍
线索
鸦片
ie@@
踢
这段
腰
责令
亏损
浪
构成犯罪
旅@@
普京
凸@@
节奏
舰
答@@
停滞
CR@@
欧盟委员会
多媒体
输送
音乐会
未满
涅@@
勾@@
嘿
320
外出
肾@@
之地
大海
荷@@
本合同
法则
火焰
星期日
孙@@
总协定
付费
周转
女孩子
CCPR
感冒
计算方法
壮@@
ian
狂
毫不@@
sp@@
友@@
秋@@
行走
性传播
技@@
纪念活动
繁@@
35%
教育部门
International
贫困人口
盗窃
洲
送往
滑
罪恶
触发
残割
府
还给
分部
里约集团
遵行
配套
三条
地产
求助
捷克
IC
辈
奶
看不到
善良
合伙人
日益增长
联署
议长
非常高兴
凝@@
放下
219
气温
减损
肝
足额
政客
文莱达鲁萨兰国
第四个
瑙鲁
伊丽莎白
火山
第七@@
不良影响
局限性
内涵
序
ric@@
致意
关节
275
和平谈判
光学
损
机能
社@@
23.@@
视力
传说
率领
主权国家
生活@@
悲@@
葬
伤心
挖@@
冬@@
一般而言
远距离
陌生人
学历
漏
多大
第三款
紫@@
胎儿
不容
逆@@
潮流
257
幽默
致辞
引
址
受限制
养育
冻@@
东北
雷曼
航空@@
另一名
视作
刊
殿
饥荒
283
骑@@
款中
介质
朝鲜半岛
宣传@@
韦
主计长
早先
萨尔
338
GC.@@
嘛
败
惠及
宪兵
逃跑
献@@
放宽
周日
年鉴
候补
每位
245
时效
忠@@
新近
照射
桌上
对冲
送回
档
同伴
诚@@
脚注
肩@@
频道
巡@@
效@@
共存
赦免
不然
建设项目
一股
可不
行之有效
场@@
手臂
墨@@
会同
Sha@@
诱惑
ath@@
再说
地理位置
index
桌@@
窗@@
尚无
系指
请洽
功率
289
ee
没错
当初
拒@@
亦可
第二十二届
五十周年
楼宇
侧@@
来源于
国家统计局
泽
终端
谎言
环境退化
局局长
眼泪
就读
构架
从根本上
二十
铝@@
参与方
怒
财政状况
平稳
教养
不佳
om
所得税
CP
停下来
散布
经纪人
墙@@
控@@
过滤
高水平
善治
电脑@@
最低标准
灾
拥抱
减去
实现目标
二者
依旧
激素
过失
数月
电视@@
互相@@
za
写道
贷
情况通报
687
反射
而应
公共事务
第八次
阴谋
公吨
崛起
宽带
不断扩大
辰
利用率
炮@@
商界
好转
月亮
达喀尔
海平面
城市规划
冷却
月间
本应
电机
八国集团
邻@@
蒙受
未获
iyah
燃油
肺
int@@
信徒
听力
ast@@
草地
水面
1267
温柔
送达
文凭
试着
激进
笔译
难过
画面
芯片
杀戮
物业
决策机构
带走
切尔诺贝利
驱逐出境
伤口
至多
翻新
上市公司
克拉
东南亚国家联盟
表现形式
头部
多样
第四十七届
顺
驻扎
忍@@
杀虫剂
工作岗位
典@@
伏
首脑
努
线性
自由贸易
达尔
紧紧
自我@@
公立
源@@
收容所
气味
领导者
食品@@
所获
奥斯陆
锌
同类
瘫痪
搁置
宠物
圣地亚哥
踏@@
农田
医师
指认
力学
过渡期
开创
逆转录
出国
开端
并用
安全区
CC@@
鹿
选区
丙@@
中东地区
准军事
兽
鲍@@
混淆
测验
来源国
总署
旗
Ba@@
停车场
偶
推移
荣耀
英寸
犯@@
轮流
创办
油田
昆虫
未缴
讽刺
习
大马士革
际
CP.@@
人来
里亚
手法
亚太地区
切断
牢记
万个
阵@@
赤@@
赚取
体积
刮@@
春
SO@@
警惕
案中
国在
深受
肥
泥
宾
威尔士
身为
简
经济效益
金融部门
一致同意
丘@@
碗
Bl@@
人均收入
圣马力诺
举例
tion
园@@
包围
掠夺
动摇
光线
察
吉姆
DVD
非传统
兼职
童年
午@@
数据中心
员@@
幻@@
新娘
全身
就业率
娶
爆@@
顾@@
心态
刷
根本性
镜子
上述情况
嫁给
专业人士
接受国
盒子
运气
装修
海里
反抗
珍@@
埋
骨折
ot
第十@@
Mor@@
装有
Res@@
速率
似宜
行驶
年满
渣
抛@@
^
助
就职
州长
恐怖组织
陛下
布尔
聊天
张贴
俗@@
埃厄
妇女儿童
泰勒
是否是
影像
在此之前
第一位
额度
教导
能为
溜@@
重振
提法
佐@@
宣扬
管理信息系统
柴油
钉
VI
中心@@
产科
击败
全会
95%
伪@@
电网
oun@@
步枪
ama
成像
man@@
繁殖
账
蜂@@
颗
视野
艺
乙
戏@@
任何一方
拒绝接受
舞弊
斑
教育@@
仿@@
老龄化
停战
反应堆
福克兰群岛
数字@@
站点
两只
笑话
姓
识
领地
细目
36@@
一语
熟@@
人性
天赋
绝不能
第二类
疑@@
各阶层
后悔
研究院
迈向
产后
259
宜@@
杀伤性
里斯
隐私权
放心
纸张
专职
眼中
祭
书写
330
era
远景
明亮
新闻媒体
极限
多边合作
钢铁
最终用户
菜单
ES@@
车子
新界
㈥
击中
试行
局限
涌入
逆转
兑
稍
频
一员
沉积
俄语
门户网站
创造力
4.4
诗歌
不带
敲@@
国家级
ij@@
屋里
AT@@
共用
归属
糟
花钱
都@@
几名
整整
屋@@
特殊教育
海港
不太可能
日为
amb@@
鉴别
享用
撞@@
何
发言权
竭力
感动
喝酒
迈克
赞成票
既@@
NPT
激增
胎
狗@@
第四十届
天才
赶上
三人
宝贝
旅程
第一类
昏@@
ev
288
检控
善于
陪审团
提出异议
肺@@
开发@@
程序@@
Pl@@
重新部署
看电视
有鉴于此
望远镜
生活费
测试@@
分数
洛杉矶
骂
勤
令人震惊
650
服役
倾斜
厄@@
抽样
地毯
鞋子
不足之处
影子
默认
整天
口头报告
主观
适用性
灭@@
摆
恒@@
产品@@
秀
氢@@
控制器
第十次
恶意
授@@
粮
脂@@
牌@@
适于
督察
照明
坐标
倒退
民主@@
249
雅典
点儿
肌@@
归类
水准
在世界上
可予
布拉@@
居住地
PR@@
医
购买力
宝宝
人能
科技委
胃
履行义务
布局
对联
带头
CT
IMF
打印机
DE@@
解体
膨胀
本信
致电
高压
Part
劫持
证明书
施加压力
老挝
24.@@
Par@@
巴士
扭@@
协理
挺@@
降落
侦察
南斯拉夫联邦
导则
小女孩
三位
兴建
适度
握
探访
安全局
沿线
争吵
核技术
冰箱
融
消息来源
229
脉冲
gl@@
琴
停车
识字率
生产国
遥@@
艾
宴会
排序
厌恶
覆@@
劝
加利
Bo@@
瓜@@
国贸
凝聚力
硕士
流产
次要
第一天
体会
虽@@
不懈
临近
金牌
天上
精彩
正当理由
睡着
唱歌
元件
扎伊尔
末@@
掌
285
安圭拉
窝
捐@@
示
第九次
十二月
挖
SA
法学院
沿海地区
甜
Add.4
以防
共产党
宿@@
改建
1958
雷斯
瓜
民间团体
敬
猜测
待命
搭配
html
操@@
第二十五条
脑袋
有钱
皇帝
就任
净化
售
可望
探
核销
上届
ich@@
工商业
犯罪集团
ace
SP
新任
Cl@@
物料
好多
银行家
拨给
柏@@
尼科西亚
人力资本
公共利益
技术培训
废弃
更长
真主党
磷@@
239
卡塔赫纳
att@@
财政部长
赚钱
第二十一条
偏低
前瞻性
喜悦
秋天
磨
束缚
聘
来访
克什米尔
机动
Fl@@
310
筹集资金
国际海事组织
搭
情势
世界杯
本协定
饰
践踏
五项
迷人
凉
嘉莉
摩擦
缓冲区
昆@@
哪怕
第二十条
格林
ung
固定@@
坚定不移
学业
放大
判决书
意味
传统@@
AL@@
征服
海报
公开@@
离去
诱@@
时会
272
Col@@
司法人员
微小
规例
理智
多种多样
第六@@
宝石
看守
CRP.1
翻译成
太阳@@
当日
550
败@@
集中@@
谷物
倘若
第一轮
路易斯
罂粟
克里@@
特里
国防部长
IM@@
祭司
凯
录@@
把手
奶@@
软件@@
印度政府
矿产
瑟
灯光
启发
危险性
群组
操作系统
一副
第二轮
口语
极了
宽松
自力更生
天文台
衫
玉@@
厉害
厂@@
并不一定
抗击
痕迹
掌控
翼
酗酒
人民代表大会
性关系
旱灾
组织者
西北
新闻记者
国际贸易中心
one
每隔
备案
结案
锅
中起
私营企业
列车
登记@@
外交@@
大事
Pro@@
公爵
摩托车
植被
扶@@
享@@
奉献
负债表
贾
日于
玻璃@@
富人
开玩笑
酸盐
262
中级
占领区
奔@@
我家
红新月会
氏@@
困惑
战斗机
武
85%
彼@@
挣扎
抽烟
第二十四条
停火协定
轿车
打断
18%
吸毒者
价值观念
国有企业
互补性
焚烧
托马斯
牢
叔叔
列名
292
日益严重
可行性研究
临时性
地形
主导作用
微观
演示
典范
怀
赏@@
参考资料
POPS
身分
res@@
妇@@
社群
蒙特塞
楼梯
景象
燃@@
凯恩
个案研究
族人
归纳
避@@
非法活动
解放运动
受众
恢复正常
北京@@
天线
积极主动
生产@@
扣留
1964
验@@
PDF
会议记录
宫@@
Abu
小企业
簿
民族主义
决不能
重新分配
南共体
避孕药
春季
忽然
有过
岁月
布宜诺斯艾利斯
倾倒
东北部
英国@@
球迷
撤@@
遴选
光谱
型号
运往
收支
抬头
阶级
申请表
部际
轮调
ek
亲戚
准时
平时
力争
CN.7
按计划
新德里
计算机@@
跟@@
年期
代表作
十四
行人
兴起
大大增加
罚金
引述
政治犯
界线
数十年
法学家
二十世纪
推理
祷告
受让人
微波
杜绝
政变
钙
38@@
做事
pl@@
投机
职业@@
远处
国际刑警组织
教派
做成
武装集团
亚人
罚
态势
老婆
380
PO@@
尘
保持联系
遮@@
溶液
256
豁免权
11%
叛@@
零零
民事诉讼
主教
切合实际
回事
弯曲
链@@
263
对立
第二十三条
偶@@
阿卜杜拉
五十
号召
卧室
可可
子公司
告诫
先知
谨@@
阶
财产损失
决
转而
比如说
示例
市值
礼品
印第安人
纽约市
析
杂项收入
自动@@
枝@@
递送
潘@@
上游
可预测性
超声
生殖器官
监核
co
内为
周转基金
发性
cl@@
圣多美和普林西比
减肥
缩
惟一
没事
水分
底下
同文信
话语
歌手
严
使本
违@@
征募
信赖
边防
公安机关
澳大利亚政府
每种
有意思
字符
能效
房价
情愿
GC
6.3
指向
赞美
另行
此刻
阿卜杜勒
晚会
隔
316
利息收入
发病
债权
直接参与
二次
加勒比海
OS
帐篷

开口
结局
用法
缔造
今天上午
合法权利
失误
付诸实施
平常
受灾
tr@@
对外贸易
服务台
题@@
十分重视
遭@@
P.@@
初中
稳@@
茨@@
AS@@
垫@@
主导地位
插
丹尼尔
遵从
未必
新闻自由
第九@@
深入研究
醒来
发誓
约瑟夫
亚非
县@@
艾哈迈德
中东问题
炉@@
一双
昂
34@@
委派
劳力
鸟@@
存活
走路
恐慌
ow
两岸
夺取
署@@
夺@@
2.7
痕
边际
年届会
滥杀
四处
功效
雷区
好消息
尔顿
篇幅
不用说
滥@@
万亿美元
想着
首领
两届
旱地
称作
阿布贾
害@@
尼斯
欧空局
生涯
胳膊
术后
豆
迈
Man@@
否
履行任务
ne
鬼@@
世人
出血
约翰逊
桃@@
均等
1701
第四十三届
珍惜
翅膀
专委
病假
途
经济合作组织
助手
体制改革
ba
尺
他于
其间
格拉
主旨
推测
请参阅
交通工具
硅@@
传单
肥@@
练
人有
祖先
蓝图
凶@@
萨拉
敲定
传授
知名人士
祸害
气象@@
来往
大有
写入
时数
半个
检查员
宗教团体
风景
跟随
愚@@
严重后果
十九
寻常
积
第三十八届
平安
ano
职业生涯
桥@@
八月
琼斯
蓝线
宣誓
三倍
双边协定
狼@@
看成
L.3
碰
郡
商业活动
厄
CN.15
埋@@
雄心勃勃
当事国
拦截
穷@@
浅
受惠
垃圾@@
任务区
破产法
数字化
理应
第二十六届
电视机
有名
管理司
和平共处
脖子
草原
养殖
冬
367
勤@@
协力
不致
半年
控件
市中心
稍微
工作效率
穆
责任感
求解
登上
使团
天生
呼声
电梯
UN
漂@@
该厅
箱@@
可比
EN@@
不遗余力
心理@@
分销
环境法
交易@@
耕地
自营
域外
无误
研
披@@
鹰
警员
辍学率
着力
积极性
真诚地
十月
手上
17%
佐证
点燃
互惠
缘故
钢琴
十八
弥合
房产
一带
Mc@@
播
非常感谢
逃犯
RE@@
一顿
尴尬
传统习俗
味@@
非洲开发银行
镜头
攻@@
空袭
时有
章@@
每名
诉求
na
归于
土壤@@
视委
煮
精心
Ay@@
数次
超支
洁@@
困@@
两国政府
摘@@
编程
波利萨
DC
床@@
双重标准
苗
预算内
ong@@
第三十九届
旅游@@
一点点
Mon@@
286
矿产资源
剧烈
布雷
304
来文方
第二十七届
弯
迟@@
失业者
进口国
广泛应用
开拓
换取
周四
试试
周六
论及
ane
第二份
配方
违规
带动
迟
快速反应
系统对
才@@
公立学校
布置
让@@
57@@
举止
优雅
陈旧
工作进展
母乳喂养
拥@@
文第
ab
直线
即应
财政政策
盟友
通向
案文见
率先
困
ert@@
财物
星星
反倾销
抽象
娃
狂热
缝
Mohamed
眼下
奶奶
利马
火星
冲动
ri
轻型
第二十五届
拐@@
我爱你
厘米
遇@@
305
滤@@
ica
飞行员
冲突地区
长官
267
推断
文盲率
威尔
彩
网球
学期
所犯
亡
Em@@
核扩散
有史以来
计算@@
正直
名人
单证
终生
科学院
肺结核
基督徒
剩
Co
筹@@
领养
嘉宾
不成
磁
吓@@
狄@@
吸
不易
壁@@
核心作用
公益
掉@@
议事
布隆迪政府
第四十二届
致死
避开
前线
中小学
注释
国土
1514
没能
居然
旗帜
一经
肩膀
赞@@
第二号
废
鸟类
26.@@
青春
边境地区
第二十七条
5.5
密切协作
物价
盖茨
配件
凯科
14%
动物园
被盗
硫丹
人文
敌意
行为准则
个省
科学界
生态环境
开曼群岛
非凡
大都
美妙
一小部分
all
饲料
女朋友
涨
二月
腾@@
所能
WG@@
登录
几何
ern@@
滚
隐瞒
无聊
工商企业
佣金
IS
一点儿
查出
45%
可信度
合资
外观
你方
环己烷
盛行
载体
ion@@
综合症
秋
战后
贫困线
消化
不曾
男女之间
仓
预付款
ice
安第斯
壁垒
服务员
奔
有期徒刑
冠@@
放入
归功于
混
灾@@
接入
句@@
治愈
概率
内有
民选
敲
买家
全球战略
坦率
同日
阿塞拜疆共和国
事关
ata
281
增长速度
触犯
商会
287
周五
一会
砍@@
国际化
就让
下周
Ben@@
一侧
神奇
恪守
通盘
闹@@
算是
规章制度
椅
340
各部委
pdf
哭泣
单据
杂
乎
过期
对非
ova
具体步骤
邮寄
疏忽
带上
延至
六氯
更能
这话
损害赔偿
奏
援用
许
航空器
7.1
角落
获利
毗邻
ex
清偿
辉煌
外科
农作物
价钱
北美洲
运河
灾区
篇文章
开除
溶剂
短时间
大体上
济@@
脏
出发点
李
尤为重要
1965
米兰
赶
这本
五天
更为重要
外汇@@
Qu@@
它@@
ank@@
器材
妇人
格陵兰
IP@@
第二年
塑@@
触及
外贸
又@@
秋季
连任
虎@@
经纪
猪@@
私有
筹款
萨拉热窝
3000
贵族
助益
逃脱
调控
乐于
航天器
厂商
广州
永不
静态
厚度
标准@@
oo@@
协调会议
425
268
5.4
同工同酬
逍遥法外
撕@@
适应性
牛肉
不在乎
躲
奉@@
现正
道德@@
玩家
沉积物
可比性
消防
谈及
泉
填
Gh@@
船旗国
纳粹
投票权
各段
FAO
金枪鱼
分析方法
方括号
微不足道
16%
团结一致
可为
报刊
锐@@
盆
电报
一千@@
面上
十七
国务卿
ary
典礼
超市
觉@@
二是
纳米
ale
结清
落入
导游
崇拜
债@@
宁静
介@@
现实意义
脉
阿尔及尔
内存
水量
下调
农户
往年
长老
庆@@
表示祝贺
援@@
不善
柄
废弃物
私立
周岁
制药
挥@@
人口比例
交互
不及
产品质量
gov
任何理由
没法
荣@@
细胞@@
密克罗尼西亚联邦
兼容
295
获取信息
输
Ac@@
一至
很强
促@@
新设
人事@@
伞
断裂
整套
忘@@
DA@@
佛教
纽约联合国总部
疲软
艾伦
去过
零售商
恋爱
把@@
蒸@@
战机
一时期
升至
覆盖范围
加班
中所作
数个
杰夫
L.4
诚挚
1945
专业@@
22.@@
摄@@
驱@@
实证
嫌疑犯
山脉
腺
油气
一口
城堡
行程
蒸汽
欧洲央行
升温
灌@@
述@@
自由权
福音
se@@
美国国会
无偿
小于
乳腺癌
预言
被忽视
硬币
宽恕
较少
our
器具
全面实施
UNA0@@
山上
未知
滥伤
医学@@
初审
丑闻
患病
相机
较长
编拟
上方
陷
梁@@
合规
顽固
物理学
疫情
濒危
鲜明
偿债
苯@@
完工
情报局
粗
At@@
舞会
转到
出版社
有所提高
核燃料
听证
得分
收据
满意度
羞辱
颠覆
乌兹别克斯坦共和国
解析
逮捕令
全面解决
公用事业
状@@
威慑
今天下午
暖@@
商学院
光纤
嘲笑
十六
不许
决赛
漆
运动@@
财政@@
二年
小孩子
挤
涂料
277
煤矿
释@@
妮@@
自助
年龄段
案文@@
应邀
资源@@
降解
高血压
肖@@
成本@@
油漆
神话
经管
公司@@
蛋@@
勃@@
训@@
消防@@
非法@@
ts
国际事务
ii
淋@@
时要
斟酌
四分之三
And@@
奥尔@@
独一无二
逼
深处
夜里
1962
协@@
薄膜
收音机
导演
塞尔维亚共和国
心理学家
Khal@@
自由选择
就象
红外
骚乱
参谋
码@@
手枪
一共
打扰
讯问
当成
陶@@
信奉
家禽
领导@@
任职者
Un@@
极力
陶瓷
传来
四种
犹如
汉堡
庆
多国部队
口号
呆@@
销量
轴@@
促
远见
预约
非歧视
2030
60@@
随即
款下
轴承
方法学
辩解
载明
穷
非营利
CP.7
断言
裁研
年限
涌
网播
前提条件
小镇
Or@@
同胞
衍生
骨头
备份
打造
Cor@@
通风
本发明
马拉
架@@
倍@@
豪华
起床
挨@@
快速增长
工具包
积极@@
〉
架飞机
商事
卵@@
ord@@
拔
365
贪@@
账款
哈里
.3
返还
con@@
一刻
撞击
辞@@
向下
场址
中以
高管
未清
并购
麻疹
六方会谈
小鼠
279
衷心
赖@@
欧安会
FPA
摸@@
覆
外交关系
仙@@
平均水平
adi
招
艺术品
澳门特别行政区
咨询@@
留住
不具
票数
虚拟@@
铃
责备
反对票
前夕
假装
28.@@
考生
地被
友好关系
座谈会
ion
疯
头痛
留意
后备
卫队
诺言
酱
不高
eh@@
引爆
闹
爱国
推动力
见图
澳洲
防备
有利条件
不负责任
数以千计
Abd@@
耕作
39@@
拘@@
盈@@
鸟儿
严密
抱@@
个州
地缘
沦为
近几个月
人人平等
训练有素
笑容
泛
减低
评述
省长
和平@@
我用
验
Sar@@
第三十七届
ht@@
pro@@
祂
监
万吨
派对
停顿
览
棒@@
挪@@
责任人
核动力
运营商
犯罪分子
理查德
人民检察院
调研
Ram@@
必定
午饭
6.4
结婚年龄
借用
猛烈
加权
存档
1946
涌@@
显现
一九@@
国际电联
预示
五分钟
念@@
ens@@
291
名声
纺织
圣保罗
食品安全
评判
棍
镀@@
集会自由
受权
不已
舟
人向
PS
可不是
这片
杠杆
加拿大政府
嗣后
下称
认出
全国人民代表大会
等同于
敏@@
特克斯
寡@@
擅长
一职
典
邮局
议@@
瑟@@
总统令
执行@@
帐目
解答
该局
检方
水管
6.5
坟墓
勉强
7.2
更快
欠缺
生动
新一代
蔑视
译@@
外交使团
白俄罗斯共和国
居所
处处长
湖泊
疗@@
在政治上
氯化石蜡
420
耦合
第八章
普通@@
莱斯
十二个
EA
往返
27.@@
沃尔@@
分化
帐@@
总表
递给
不动
前期
黏@@
卓@@
残留
以人为本
队长
瘦@@
农业部
织物
代谢
快点
想像
282
飞往
四川
饱受
波罗的海
医疗机构
淡
写信给
学术@@
如果说
山谷
斯坦
ada
集结
273
严重破坏
无比
一个多
五分之一
谈会
Sim@@
耻辱
耗费
应得
特等
25.@@
香烟
上年
专题组
整
毕@@
第三阶段
外包
镜@@
及时性
参阅
七条
社会群体
地步
Pol@@
成见
教育法
救护车
摊@@
带薪
蜡烛
赫勒拿
魔法
喀@@
不远
0.7%
青年党
文件@@
274
亲人
饲养
汇票
砍伐
活产
装配
责任制
电力@@
福特
本期
存入
妓女
广泛支持
CD@@
肌
可供
洋
收拾
一行
魔鬼
珠宝
双边合作
水下
激起
浪@@
520
晓
法域
烤
不便
22%
John
瓶颈
绳子
不大可能
凭证
激活
彩色
肿
同居
会为
首位
起诉书
令人信服
宽泛
毫无@@
克罗地亚共和国
应变
爱人
处理器
出卖
藐视
做过
鼓
前沿
理论@@
弟兄
优美
有机@@
开门
are
转载
急救
抢
吐@@
饱@@
OL
〈
玛丽亚
大师
私下
辩
攻
阅@@
航天局
氯苯
扩建
共同市场
Pet@@
法院院长
发射@@
库克群岛
武装人员
儿童@@
妥当
泄露
坡
SS
Af@@
转动
强硬
静脉
370
日本@@
裙子
海盗行为
第三十六届
850
因数
安娜
err@@
从没
业务流程
便会
佳
跌@@
疼
偏
趋于
Rev@@
篮球
ala
行长
ce
长得
信息安全
绝大部分
繁忙
树枝
惩教
轻轻
训
广泛传播
可惜
迫@@
圣基茨
平均@@
高科技
日元
尼维斯
几十@@
启示
尼克
误导
格外
贫困者
公共场所
斯基
队@@
无法@@
胡子
配有
优于
跟上
尚有
第一百
取出
预付
ence
上司
军营
基薪
平原
收益率
流体
基加利
著@@
责
299
无法控制
反弹
圣地
始@@
潮@@
护送
各区
目标群体
模具
了不起
绞@@
矫正
缴费
Mal@@
巴拉
消费品
坚固
定额
党员
纪
充满活力
恩德培
箭
阅
卜
逼@@
性侵犯
矩
兔子
灵感
郑@@
430
社会活动
证明文件
同志
姿势
遣
岛@@
内所
走访
怒@@
方框
院子
〇
水电
受灾国
工业部门
馀
蓄@@
水文
避难所
筹划
每项
Se@@
鸣@@
Add.5
难得
有损
调配
普里什蒂纳
Far@@
ero
植
第七十三
放射
AM@@
审问
集体@@
惯常
大片
恰恰
投标书
Ak@@
进驻
某事
军事@@
CC
古怪
快捷
不算
抄@@
革@@
偿
胖
叹
有赖于
The
联安
检查@@
听从
不大
尾巴
族@@
轮换
爷爷
遗址
尼亚@@
身体健康
螺@@
严格执行
减量
画家
近几年
苯
粗暴
琴@@
协助执行
若干@@
酋长
检察机关
嘴@@
圆满
思想@@
培@@
Ber@@
二人
歌唱
一如既往
货车
好奇
亮@@
裤
移民法
基本要素
堂@@
海洋资源
求职
奴
道义
问候
302
公信力
血清
尊@@
兆
失踪者
财
受控
小伙子
篮@@
扑@@
期货
大笔
ge
懒@@
之时
童
需求量
弥@@
适用法律
闻名
跃@@
快要
紧迫性
树上
萎缩
发作
非洲之角
盘子
诸
适时
不服
身后
交通事故
1954
情人
和睦
飙升
弱@@
近日
图里
迪拜
彻@@
创始人
ph@@
303
催化
半小时
数千
裤子
祖母
跑步
咬@@
渔民
东南
科研@@
第三十四届
视图
疾@@
阻力
更强
五十@@
祭@@
SGB
和善
相互合作
装载
更替
转给
巨头
高频
涂
伙计
国立
辩@@
近几年来
销售额
时向
借此
Ros@@
照会
忧@@
好莱坞
万国宫
车上
胸
硅
里昂
一整天
潮湿
两点
切除
磨损
镍
诱导
或者说
卧@@
301
总支出
馆@@
经济损失
圈@@
外语
资本@@
口径
固定翼
狭隘
yn@@
催@@
Inc
加密
拨付
语言@@
出自
妙@@
老虎
优越
工资@@
掩@@
特殊性
ET@@
怀着
⑴
试用
二百@@
末尾
发掘
屑
城市@@
份子
席@@
荡@@
住处
规避
戈马
泛滥
嫩
伸张正义
比起
聆听
词典
照看
门外
迁@@
圆桌
部份
卡片
坚持不懈
今
变异
战俘
世界性
合乎
入伍
老化
遗忘
没想到
骗@@
本款
疑虑
如能
小学生
赌博
找个
保障制度
开出
帅
瞄准
斯坦@@
米尔
递
扯
叶子
合理性
不力
维尔京群岛
律@@
简述
IN
许诺
性犯罪
主机
ID
Ms
1244
面孔
墙壁
哈瓦那
社会工作
勇@@
喜
番
六条
烹饪
278
公允
271
杯@@
离境
祖父
高盛
肉类
芭@@
牧民
倡导者
而作
哺乳动物
总能
圆满成功
人造
残暴
安曼
书面通知
肉体
多米尼克
下一代
英国政府
播出
十一月
友善
发光
四大
欧亚
敏
细致
出门
个人身份
身材
深圳
亚洲开发银行
化解
发酵
六名
SE@@
纪念@@
库拉
完备
高地
手套
itt@@
作文
非裔
克减
嫌犯
di
不可思议
副作用
纪念日
胚胎
哀悼
无形
联赛
成份
论据
廊
修订本
霜
热烈欢迎
列示
悲痛
阳性
拉尔
自然环境
扰
诊
传给
子孙
L.7
肘
居高不下
ort@@
资历
间谍
疏散
开庭
33%
917
一视同仁
巨人
幕@@
几率
不久前
ali
esa
塔尔
麦凯恩
最高@@
俗
锦@@
ich
询
振
亚共和国
宾馆
好看
暴风雨
民主联盟
掌@@
法律@@
贸易中心
珊瑚
招待会
盲人
本能
纪念碑
犹大
息@@
巴里
联络官
棕色
颈@@
特种
齿@@
瘦
称呼
牧场
猴子
亦@@
青年@@
伯格
自给自足
笼统
太好了
嗨
富有成效
粒@@
润滑油
受审
顺便
己@@
日增
奎@@
九条
重力
不宜
Mat@@
定期存款
关键词
王后
想象力
旗@@
he@@
利用@@
三份
化验
用处
账单
001
寒
起码
oj@@
戈尔诺
耗氧
伴@@
硫
两用
消费@@
2.8
最大化
肩
双性恋
通行证
民主政体
核计划
7.5
第一句
西南
国债
少数几个
综合@@
投资银行
液压
例证
结盟
简便
匿名
繁重
裁员
ul
化学物质
前款
网格
卫生系统
护
麦克@@
存量
遗嘱
直径
坎帕拉
塞尔
争执
字典
海面
一路
才干
ton
竹@@
桌
同一天
室@@
打败
饮酒
翁
果实
键盘
ment
分会
紧急措施
方在
一连串
津@@
安援
嘴唇
构@@
耽搁
渡@@
奖项
卡特
70@@
加元
L.6
促销
葡萄
酌处
匠
渐进
在经济上
抹
原型
多长时间
景色
劳务
太大
侨民
法国人
滞
新疆
择@@
所设
毛病
人心
转身
欣慰
预
戒指
隶属
蒙罗维亚
趣
崭新
ess
过量
掩饰
四条
ance
贸
在短期内
周期性
所长
尘@@
私人资本
照管
为首
壶
法学
分析表明
放进
辨认
感染率
呼叫
关键@@
辛
这起
商务部
旅行社
米歇尔
顶部
第二十二条
苏珊
不向
难以置信
医疗@@
砂
iri@@
暴
继承权
庭审
迁
ih@@
残余
各有
补给
卑@@
有助
短信
第二十八届
集体行动
鲜花
添@@
看似
298
要件
毁林
440
本节
一流
480
自发
抑郁
空间站
传唤
呈现出
进口@@
黑海
干活
福利部
知晓
劫@@
出任
蚀
圆形
五次
身子
鼓吹
大米
48@@
协商会
凭@@
南南
简洁
歪曲
微额
纹@@
法律责任
284
缸
297
赐
这为
探测器
E.@@
砖
齿轮
IX
膏
内载
学前教育
陆上
家政
ON@@
书店
组办
关上
取样
多数票
字样
谘
Per@@
供参考
维拉
柜台
佣工
ill
售@@
目击者
现实情况
赤道
甲烷
纱
婆
凯瑟琳
呼
这批
技
赶到
健身
下游
仰@@
滞后
盗@@
吸附
单击
ure
朱巴
稀少
霍
教皇
Mu@@
行为@@
口岸
冰淇淋
结尾
尤
VII
遗弃
锋
金色
对受
茎
瑞士法郎
竟@@
火炬
普通法
挡
分派
辛格
中国共产党
以补
二战
摄入
栋
交际
走开
川
低温
改叙为
几百@@
范本
客观性
校正
瓦斯
格尔
ier
躲避
311
儿女
演化
电影@@
记录在案
中产阶级
相关联
上任
拉德
第三十五届
证券公司
环境部
依法追究
大大减少
唱片
接获
股本
一审
Sc@@
精密
294
磁场
仁@@
哨所
植@@
生态@@
强壮
受害国
指挥@@
押@@
la@@
关系@@
裙
弦
未作
清晨
地狱
技术开发
现今
联卢
充分认识
国籍法
原产地
手表
ino
详@@
烷
Bu@@
真实性
附加值
军警
脉@@
所持
退役
价格指数
三十年
阻挡
充分就业
展览会
组装
轨迹
最易
遗失
基因@@
企@@
叛乱分子
65%
do
京@@
串@@
烂
战略@@
衬@@
弗兰克
欧洲议会
攀升
掌管
美军
布莱尔
过得
第三十三届
病情
第二季度
为数
闭
国营
发展前景
惹@@
Wal@@
L.8
截然不同
枯@@
溢@@
通信@@
瓶子
卡特尔
饿
求职者
各派
布鲁@@
雅加达
邮政局
改革开放
因应
纳斯
ult@@
尿
担当
兼并
ain
钠
展出
赛事
底层
肚子
却@@
首歌
廉正
460
联接
朝向
酿@@
已故
脚步
平均值
棚
中长期
贝克
国防@@
霍乱
两起
军事装备
砸
初稿
古巴政府
恤
集中精力
眼里
工商@@
股长
感知
多米尼加
私立学校
美味
俯@@
渐@@
今世
嫉妒
大火
se
问问
人间
资料库
2050
坦诚
抗体
少年犯
晶体
年头
肢体
德里
理所当然
主办@@
乐器
堤
援
毫无意义
事务部长
经销商
37@@
之道
图象
现金流量
转变成
由该
就座
偶像
詹@@
FA@@
区别对待
递@@
归入
运动会
投了
公会
柱@@
爆炸性
经合
优
因果关系
样式
震
aya
表扬
3.6
浪潮
氟氯烃
29.@@
高级@@
』
医治
玩耍
着陆
一读
沙发
前方
考核
上调
已登记
富国
历程
enc@@
国会议员
映@@
JIU
Da@@
分包
多种形式
ira
汇总表
重新安排
悲观
瓦加杜古
继承人
2018
逆
况
路面
处分
大豆
尸@@
国际电信联盟
ena
小型企业
外围
植物@@
异性
DA
比照
名录
七日
很棒
鉴@@
宽度
水灾
一首
庭@@
大人
打发
悠@@
拘捕
哈萨克斯坦共和国
EL@@
嘴里
无所@@
ley
社会学
毫无根据
工商界
楚
编排
详见
幽@@
吐
遇到困难
过早
回报率
各种因素
L.5
锁定
退休年龄
贮存
岭
伍
在意
操
行政拘留
Ahmed
外套
钱包
熊@@
主管人员
ly
售价
消毒
必需品
第五节
降临
陷阱
美德
香蕉
行为能力
投保
离岸
公升
贪婪
虎
中学生
视察员
工业界
促进作用
全是
信息网
证据规则
高涨
裂缝
螺旋
逢
告别
好运
尔多
脾气
忙@@
宏@@
信息化
危急
长短
细分
柔软
营利
账@@
昂@@
ff@@
傻@@
山顶
大笑
阿布
英属维尔京群岛
巴尔干
293
中性
成形
阻
非正常
绝不会
较差
克尔
胜过
但愿
审判@@
递延
福利金
滥用权力
打扮
XX
托运人
罢了
独立@@
苏维埃
葡萄牙语
Me@@
染
401
青春期
大大提高
科尔
爱德华
一下子
所受
卡扎菲
留下来
物件
应用@@
Web
娱乐@@
使用寿命
抚@@
处方
鸭
商业化
男士
部将
十分@@
卫
拆毁
儒@@
器件
公共财政
备有
订于
摒弃
发觉
面貌
恶性循环
辱
看护
墨西哥政府
晶
第三十二届
全民教育
红利
问及
合资企业
映射
投资人
不间断
权衡
墓
高尚
仁
信封
ere
飞行器
RA
上一年
杯子
鲨鱼
变迁
修缮
饭@@
410
53@@
遗传@@
鞭@@
矮@@
认罪
盼望
填充
极好
更是如此
训练@@
惹
单边
聚合物
立足于
Kam@@
并会
L.9
菲尔德
流血
并非如此
氮@@
干细胞
荒谬
积极开展
完全@@
操作@@
印度尼西亚政府
辖区
衔
最迟
暖
腹泻
维护和平
商场
高加索
孙
外汇储备
ber@@
便携式
安宁
多氯联苯
铺平道路
流亡
牙科
香港特区
加固
肝脏
第二种
边远地区
充作
勒索
监委
融@@
镑
兰德
留存
负载
联合@@
弃@@
journal
第二句
遣散
宣@@
束@@
克莱
正当程序
氟@@
1.6
杆@@
教育工作者
窄
计划@@
分手
淹没
自尊
受训
sch@@
养成
充分@@
妥
复杂化
流行病学
悲哀
前一天
PC@@
环卫
开展调查
ue
火车站
文件系统
组长
譬如
三类
匆匆
染@@
For@@
胆
企业界
流浪
备受
该届
棵
柜@@
役@@
庄
新颖
选举权
口味
oo
擅自
饱和
指挥部
VIII
恢复性
这边
说来
蜜蜂
钻
西尔
东道
观察站
会后
短链
勤奋
99.@@
会长
家用
一辈子
抹@@
姓氏
互信
克里斯
聚焦
葛@@
未付
管控
除去
涨@@
北欧国家
分隔
厌倦
成因
叛军
借以
书中
Bank
ire
L.10
承包人
交通管制
赶走
共同点
说谎
字符串
发明@@
CMP.1
坡@@
高潮
巢
oul@@
执法机关
澳
ost@@
面部
SR@@
寿@@
膝盖
男朋友
载述
段次
改叙
大体
追溯
极具
太高
座标
滴滴涕
自私
●
质量标准
雅各
航空安全
当量
事儿
旧金山
契
巧妙
学习@@
312
投掷
运到
炭
普尔
说服力
保护性
焦
授课
兔
双方同意
杰克逊
烈
基里巴斯
统治者
市政当局
再次发生
材@@
政治局势
全方位
建筑业
灿烂
无遗
年末
跨文化
人手
及第
冗长
济
慎重
与众不同
侯赛因
第三十届
哲学家
捷@@
390
瞬间
加大力度
国民@@
大意
阿拉@@
布里
门徒
HIV
这辆
Fa@@
身份证件
柳@@
发电厂
近地
一分
盆@@
媒体报道
脏@@
立足
PA
盘存
律师@@
苯丙胺
第十一次
犹@@
ei
盾
政局
社会科学
总和
ham
雾@@
安定
五年期
保持稳定
电极
北朝鲜
560
中国人民银行
全家
标的
太子港
一小
315
浪费时间
纪@@
录取
新能源
重伤
新闻报道
核电站
朝鲜@@
震动
枢纽
身处
ura
该市
for@@
傻
州政府
出价
放慢
从句
偏向
CP@@
面对面
布拉
上下文
58@@
坝
主角
有损于
凉@@
当地人
亲切
斯塔
上作
学说
辨@@
安非他明
询@@
之初
炸@@
摩根
确定性
踩
范
壮大
寄宿
⑵
氟碳
浇@@
衣物
高原
动画
复合材料
地表
软弱
谨此
候@@
贯彻执行
贫困家庭
课本
终
匆忙
泄@@
立方米
官僚
固体废物
碑
斯科@@
出口@@
花园里
最优
详细信息
右边
Group
内政部长
性感
Ed@@
突发
皇
客厅
举证责任
卫生署
欣
推导
三十
夸大
响@@
轮廓
行者
左边
在校
记录@@
农夫
AP
条目
商务@@
总面积
工地
门诊
减税
回头
双边关系
307
欧洲@@
th
牵涉到
民盟
撤退
参考@@
更糟
坚称
基础@@
起步
答道
低廉
低迷
航线
骑士
XL@@
晓@@
建筑材料
全体成员
Her@@
义务@@
直升飞机
念头
23%
21%
值得一提的是
ung@@
修订案
能源安全
7.3
以至
哺乳
建筑师
路边
1500
电影院
肌肤
6.6
各大
交出
杆菌
祥
大夫
求助于
残
成人教育
木头
旷日持久
28%
直觉
摩根士丹利
ñ
ial
悠久
放映
反击
褐色
选取
立法者
触
之情
外侨
阿富汗人
邀
斯顿
结构@@
建筑工程
猜@@
奈
公共交通
波特
盲目
诺夫
娘
ler
出路
水流
膳食
情报机构
第三世界
一一
皮埃尔
不锈钢
权威性
干嘛
夏威夷
持续时间
开放式
59@@
病变
ia@@
聚合
能源@@
姑@@
土地改革
傲慢
开销
疑
招待
几家
下级
源泉
凯特
晚饭
罐@@
旗下
Mil@@
sc@@
驻留
终点
滩
公共信息
成套
人民解放军
科学知识
循证
金融资产
已久
313
积分
抗生素
失调
赫尔辛基
偷窃
停滞不前
连带
烟雾
法国政府
拟设
政治处
行政法院
ore
积极行动
转送
新闻处
1955
使用率
献给
上以
人以
政体
避孕套
牙医
规程
警卫队
完全同意
北欧
麻醉
阀门
医学院
贫困地区
使者
第十
社区服务
助产士
新一轮
体力
葬礼
双向
臭
刑院
L.15
Val@@
血压
ear@@
希拉里
上星期
追究责任
责@@
歧@@
公民权
部厅
贫
驾车
实用性
一堆
306
第四季度
乃
自称
苯酚
耸@@
行进
而后
候选
平息
留出
整编
选拔
出生率
之久
纷@@
拿走
天数
贸易壁垒
假释
高危
陌生
偏差
海洋学
航空航天
309
国对
村子
一页
城区
这台
讲解
市场份额
重心
户外
季节性
数学模型
恶心
语气
起义
67@@
环境污染
『
贯彻落实
差别待遇
新来
文人
海员
积极合作
项目表
这支
规划@@
合同规定
叶片
成型
芬@@
研究@@
跑道
世界气象组织
利物浦
哇
年青人
查理
BC
康复中心
水库
讲台
瞬@@
升起
Kr@@
47@@
有幸
Gar@@
虾
电子邮箱
爱心
ru@@
ini
确有
虚弱
只得
在上文
缓@@
房租
构
家庭收入
蚊帐
上岗
醉@@
绘图
不合@@
融化
亵渎
企业@@
担@@
修饰
递解
人工流产
增拨
19%
文学@@
知悉
为生
民主选举
不禁
议席
拳@@
领海
自觉
表达式
小偷
依赖性
三日
候选国
水稻
摇
钓鱼
离散
68@@
就是说
误
克里
攀@@
表彰
唯有
ies
编撰
GE@@
德国政府
力气
天天
别处
钩
可用性
机枪
应适当
厨师
滞留
克莱@@
酷@@
L.11
石油价格
ESCAP
规管
敞开
专属
与会代表
贺卡
更进一步
水手
陆
iz
日报
金斯
任一
浴室
紫色
ME@@
存有
宗教@@
德语
惊喜
执业
经验丰富
秀@@
数百@@
民防
评分
Cha@@
尖锐
两地
凶手
轮值
珍妮
E4
饱
REP
CN.3
台湾@@
1959
维持费
银行业务
一丝
岁@@
矿床
烃
砖@@
事务@@
造型
店@@
司令部
amm@@
森林资源
口气
4.6
第三期
破碎
验收
致敬
造就
供应国
伊拉克人
奥斯@@
堵
卫星@@
服务费
所欠
27%
机组
326
泛美
首选
咖啡@@
无记名
探视
信守
摊
矮
技术员
排队
多家
征用
偏好
宣判
忙碌
时段
班级
经营@@
获知
雀@@
搜索引擎
报告期
确凿
复活
肯尼迪
明文规定
炮击
倒闭
欢呼
Vol
万英镑
固然
非洲地区
再循环
听听
举例来说
民法典
身旁
病理
人工@@
招收
拆
腹
调试
辛苦
驾驶员
抗拒
万一
Bur@@
ant
起始
之手
朴
迦@@
争
各司
杨
特拉特
第三十一条
门前
头衔
彭@@
理会
老是
新华社
运输系统
一到
卓有成效
308
乏味
全国@@
辣
希亚
郎
货品
篮子
层级
寺
自愿性
325
屏
潜艇
构件
两侧
并不@@
沟@@
维多利亚
以北
INF.@@
免疫@@
国民大会
抗议者
li
314
文件夹
壳@@
签约
糖果
首批
内部@@
战斗员
洛尔科
临界
24%
温家宝
斯洛伐克共和国
借给
营业@@
空间数据
够@@
ud
该署
大象
博拉
秘
拓宽
两国之间
抽
外阴
芯
540
街区
打扫
艺@@
轰@@
臭@@
墓@@
共产主义
林肯
居民区
1874
审美
CM@@
希伯@@
Az@@
诉状
第三季度
进口商
暴力犯罪
好人
追
ner
革命@@
转发
不能不
暴雨
服务处
较强
第五号
兽医
凸显
用力
呼吸道
外商投资
导师
饮用
马路
应使
保有
想念
应聘
分从
Atlas
B.@@
在我看来
抑郁症
烧毁
克族
资料@@
部在
这篇
打击犯罪
稳定@@
固定资产
微弱
拥有者
当地政府
诠释
条对
硫化物
ech@@
参加国
ovi
迟迟
Michael
字体
乳
高得
分权
野心
正视
桌面
花朵
印刷@@
防灾
毛利人
Mo@@
0000
亚历山大
按摩
炼@@
试验性
报警
山羊
所订
浓
泪@@
赶快
抵
管辖区
Jean
滚动
系统化
470
雇
实验@@
气息
态@@
说明书
据点
环境监测
世界旅游组织
雀
It
全局
纪要
顶级
日记
red@@
剪
授
各处
26%
伟@@
ick@@
损耗
认真@@
着重强调
刚果共和国
主宰
折旧
来回
之多
用具
海边
充斥
裨益
有偿
酷
怎
知名度
穴
洒
伊科
青蛙
318
效仿
款次
产前
泥土
La@@
囚禁
333
亏@@
租约
公共@@
访@@
舌
瓶@@
七名
征求意见
领水
十天
缠@@
1956
历届
抛
天下
转账
趋向
卖掉
待定
沙滩
谨请
按规定
98%
轧@@
遍布
防守
联想
伟
巴塞罗那
投降
保证金
开业
欺@@
OC
孕产
并列
能以
30.@@
恢复@@
耗
神经网络
逐年
离任
浮动
悟
ela
第三项
停下
国际收支
流出
恫吓
兵役
伊斯兰共和国
开通
水生
饮
吉尔
绵@@
小船
批判
劣@@
戴维
芒
保健@@
文化部
子宫
防务
厄尔尼诺
氧气
环境治理
加薪
挪用
扫
Gre@@
清偿债务
主席国
队部
资金不足
华丽
咽
墓地
非军事化
erg@@
叉
政治部
支架
浏览器
舌头
安德烈
两组
颇为
纽带
月度
蝴蝶
场上
履@@
怎么回事
吻合
强力
卢比
安全部
55%
笔者
并不认为
捕捉
劣
顺应
不管怎样
以为@@
渴
缓
燃
楚@@
之路
wor@@
闪电
Cent@@
参与率
著作权
下设
错误@@
猫@@
妇女@@
1957
墨西哥城
课程@@
绑
辆车
胎@@
脊@@
卫生条件
赠@@
不上
埋葬
斜
东南部
班吉
帖
海伦
垂
吸纳
眠
第二十九届
尽头
很差
羊毛
专属经济区
婚姻状况
面粉
劫持人质
未婚
枯竭
oll@@
世俗
约瑟
迎来
撒谎
堵塞
洁
胸部
专辑
大雨
sk@@
肮脏
尸
比喻
皮革
做生意
旋风
测绘
竞争者
绒
旅途
同年
五条
削@@
相互了解
迄今已
戒烟
He@@
韩
ö
废墟
同性
自由贸易区
质量@@
参政
分配资源
自备
港元
淀粉
面具
人际关系
放牧
最起码
克朗
est
新生力量
里斯本
其下
衔接
L.16
感谢您
驳斥
迫击炮
DI
那座
框@@
实用@@
先驱
揭@@
安妮
未遂
腹部
捕
岛国
起身
时间@@
战略武器
陷@@
诉讼法
巡回
八条
兵库
无情
讲授
奶酪
域名
使用暴力
马尼拉
实际行动
邻
水产
决不会
修补
焊@@
age
附文
慈善机构
体外
本年度
行政区
优异
下车
纠@@
里克
入狱
亚斯
排出
密切关系
可笑
拳
婴
厅@@
充分反映
驯鹿
库尔德
kh@@
经济制裁
2.9
不合
Franc@@
玛格丽特
铅@@
地方性
灌输
埃尔@@
烂@@
加倍
射线
L.18
储量
不复存在
深深地
在下文
谢赫
烦
棒球
更广
运载火箭
民族自治
CT@@
金融体制
面包@@
节制
布琼布拉
访客
忠告
莱特
礼服
吕@@
L.13
AC
风力
柴@@
膜@@
迟交
wa
专案
但应
大洋
转让技术
酚
国际协会
上层
股票市场
两族
整顿
饥@@
危@@
PR
露天
切尔西
十分钟
转基因
未交
水事
剥@@
责任@@
eng@@
派系
减速
男孩子
消化@@
散会
之日
该死
监督制度
丢@@
若有
常务委员会
4.7
亚美尼亚共和国
瓦解
咳嗽
ü
时分
晕@@
重罪
耕种
畜牧业
该区
卖出
猛虎
源头
移居
在发言中
申
电动
躁
人要
CRP.2
首尔
近似
就业@@
佩林
讲师
羽毛
英文版
深层
魔
IP
乏
士气
分配情况
十多年
联运
美洲开发银行
L.12
明示
卵
冷漠
该省
产能
基数
Jo@@
来得
高技术
鼻
肺癌
往常
听询
探究
背叛
女友
Mad@@
违规行为
惧怕
特罗
胡锦涛
有限元
管理科
按揭
脚本
醉
增值税
项中
辊
巴西政府
加班费
一棵
愈
ood
紫外线
泪
格雷
ss@@
全面落实
Muhammad
敦请
帐单
530
统一@@
芳@@
创纪录
不公
使用@@
夸张
背道而驰
这才
译员
芋
半导体
泳@@
登陆
暖和
狐狸
ain@@
爷
系统管理
保释
贷@@
ut
储藏
锯@@
38%
复会
晒
马拉@@
小农
pr@@
脚下
创始
搬运
子孙后代
摔@@
强国
鼠标
全面性
780
西北部
相邻
混合@@
美的
香味
无期徒刑
犹豫
流传
首个
过错
围栏
塑料@@
猖獗
近代
迫击炮弹
窗外
387
涂层
诋毁
小事
娃娃
入账
身穿
创下
蒸发
磁盘
下向
钴
年均
Ph@@
国产
小儿麻痹症
鸣
保持沉默
硬化
渗@@
折衷
具体地说
物力
地质@@
制冷
L.14
人身自由
割礼
罢
阿根廷共和国
肥料
滥用职权
游览
第一种
树叶
uk
绅士
傻瓜
哥伦比亚政府
Med@@
加利福尼亚
0.5
试验@@
脊
邦特
办公@@
金矿
MA
契@@
五氯
宇航员
绩
分居
滑雪
旦
亭
还原
行政事务
学童
患上
彼此之间
年终
LE@@
功能@@
国应
术@@
最高级别
国务秘书
每桶
监督@@
复核
密集型
319
工程项目
狱@@
时地
工序
㈦
飞船
宣传教育
不偏不倚
徒@@
MC
土豆
诚
客户服务
肾
祖
提具
gu@@
追溯到
萘
外流
二条
注册@@
近乎
同性恋者
硕士学位
拥护
征询
中药
AL
1.8
手下
稳健
中未
hm@@
36%
综合征
挣
那场
几份
小岛
怎样才能
关键时刻
叙@@
午夜
颇@@
急于
岸@@
相互信任
霸@@
写出
维斯
两边
锅炉
服饰
46@@
下个月
全国人民代表大会常务委员会
房委会
取向
第二十九条
闷@@
Mus@@
氧化物
化肥
维权
灰尘
抬@@
生产线
音频
右手
比索
敏捷
阐释
多国
变化@@
电子地图
世界知识产权组织
象是
阔@@
发出通知
L.19
化工
区域开发
光辉
十五日
萨姆
管理工具
技术创新
照亮
显微镜
土地权
明斯克
尼尔
扫除
领事馆
郊
晒@@
钢铁@@
描写
AR
航海
没人
提早
950
桂@@
相互理解
确
仿效
此项工作
台阶
商谈
拼命
好吃
雕刻
铸@@
马尔维纳斯群岛
加油
在座
麻管局
ita
十六@@
出生日期
冷冻
总有
淫@@
一夜
分析@@
用到
栏@@
公用
口腔
分公司
调停
渊源
au
爽
躲@@
位移
代行
二十五
块@@
入手
宴
弃权票
枪击
同侪
布莱@@
迁往
507
1952
抨击
投标人
有别于
56@@
if
相继
筑@@
沥青
旋
心血管
雄
恒星
PE@@
不均
CO2
侵占
降雨
相适应
ation@@
挫败
普及教育
谢意
其能
坎
323
视频会议
旺@@
马其顿
各异
织
分泌
一看
跨学科
极端分子
港币
光芒
San@@
场面
健
热心
持有者
好坏
方方面面
分配@@
开发新
黛@@
猎人
握手
畸形
洄游
高额
分机
世界市场
极高
钱财
asp
帝力
诈骗
无理
长途@@
ter
Mac@@
HRI
功
发音
序@@
Mohammed
510
特质
警觉
就学
武器弹药
人身保护
隶属于
召唤
监护权
仇视
哈桑
苏丹共和国
练@@
无私
对话者
劳动部
株
MO@@
解放@@
可信性
巧@@
伤害力
以利
恭@@
Ro@@
伍@@
位居
努力争取
微克
极有
边界地区
屋子里
交互式
军事力量
篮
寄给
口服
自立
黎@@
转折点
墨
赋@@
禁用
宏伟
有所@@
模特
阿拉
尽职
同意书
玉
等同
丛@@
近年
专业培训
ans@@
人因
拱@@
标示
660
奏效
土耳其共和国
重新启动
之旅
文化背景
发售
加载
洛克
机油
向导
壮
不成比例
学士
环绕
莲
皇后
期盼
引诱
杀手
区域@@
突显
预支
马尔维纳斯
州市
各界
网络安全
一无所知
高等@@
排水
委托人
1718
任满
炸
求偿
狩猎
第五十
电子政务
美学
耕@@
摄像机
润
don
筛查
个人电脑
地理@@
赐给
会儿
柬埔寨政府
亚伯拉罕
编制工作
炸死
爆炸事件
棉
青睐
写下
患@@
正确@@
道路交通
兄弟姐妹
割
台风
业余
智
社会各界
双眼
对性
Ahmad
阈值
精灵
烫
Ltd
ila
谜
三角洲
长期投资
WG.6
CONF
引人@@
圣城
碟
千名
忙于
erv@@
团结起来
车道
335
Ger@@
对准
膝
外壳
城市论坛
一百一十
什叶派
抚恤金
喂养
坎昆
1947
克利
谱@@
饼干
广播公司
窝@@
叉@@
Shar@@
美食
加特
Ne@@
坊
施用
塑
猜想
减半
之三
梯@@
上演
税务局
民事责任
未予
NO@@
怜悯
浩@@
政令
非关税壁垒
礼宾
客户端
难民@@
司法官员
电线
耗尽
没关系
IF@@
这有
研讨
侵@@
深入分析
调查小组
南美
历年
抗辩
黑夜
稿@@
开立
下班
个性化
活泼
疹
一百零@@
许多年
作风
崇@@
更为严重
会场
源代码
本专题
勘查
直播
扇
出版@@
近海
派往
莎@@
政治性
重大@@
蠢@@
327
侵略者
各个部门
通讯@@
妙
ez@@
寓@@
贼
8.1
公平竞争
EC@@
简明
传播媒介
微粒
寂寞
预留
ip
爱好者
晚期
David
ett@@
ho
窒息
阿拉伯@@
替@@
受阻
广东
搅拌
睁@@
显示器
增长@@
此地
甜蜜
透彻
49@@
增加额
375
pe
ko
CA
通过培训
GA
慌@@
德国人
添加剂
会话
Gl@@
本科
不详
情人节
Ind@@
增速
做饭
祝@@
遗体
羞@@
不至于
L.20
制成品
钚
总而言之
乃@@
闯入
化为
钞票
峡谷
培训@@
4000
惩罚性
广播@@
640
学士学位
而论
联系人
精算师
流利
中作
赫斯
无助于
礼仪
个子
弧@@
板块
ans
湾仔
组在
恳求
肺炎
隙
粉碎
全国人大常委会
斯科
蒂斯
设计@@
冒犯
入睡
润@@
关联性
错综复杂
期末
疲倦
车祸
恶性
mail
古典
KP
一则
317
搜@@
马克思主义
恶魔
撤军
雅虎
凌晨
南极洲
哭@@
光滑
不法
长寿
使用费
Lu@@
借款人
线程
晨@@
铺设
United
突变
瓦利
指纹
佩
°
铸
统计学
知识分子
丸
十足
劳工市场
意大利政府
赶紧
暴乱
分辨
去掉
ja
不切实际
490
彬@@
讲习会
鼠@@
最受
长长的
缩写
回升
副产品
电文
笔记
依次
Mur@@
正要
对口
时髦
专心
制宪
缓冲
甘
田野
视线
每季度
已使
宣传材料
背离
公安@@
气球
律法
向本
金融业
政策性
桃
管教
巴拿马@@
石块
腐@@
亚当
拆卸
ade
归化
Fed
发援会
赔
河水
当场
别国
L.17
右翼
连结
该组
金融交易
巴德
高级法院
海岸线
二十周年
普选
矿山
拉萨
奥斯卡
～
凝聚
衰@@
Er@@
荧光
以下内容
毛派
笑声
大学@@
我刚
肢
资料袋
RI@@
一例
通用@@
化妆品
河谷
﹐
刚好
帝@@
42%
3.7
象征性
mon@@
建国
奇妙
珀
指导@@
北大西洋公约组织
三周
洪
汇聚
80@@
周边地区
rig@@
迪克
脸色
以东
训练班
语句
煤气
锥@@
共处
亚尔
哈尔
法国@@
减刑
伯特
哨
乙醇
接壤
37%
能源供应
过渡性
漫画
瑞士政府
分辨率
歇
五十年
税法
驱回
童婚
幸@@
321
346
这样的话
东正教
齐全
符合@@
川@@
Bou@@
328
ea
Ng@@
型飞机
程式
唤醒
重大意义
语义
hi
第十二
相遇
转播
各族人民
发射器
不列颠
外交人员
楼上
寄养
佐
执政党
AB@@
随之而来
5935
醚
度量
古迹
热门
日程表
符合国家
鲜
第二十八条
修女
步入
经验交流
西班牙政府
住房问题
爸@@
美分
来文@@
沾@@
倒塌
科医生
技术厅
Add.6
离不开
电磁
丛
5.6
最先
致残
加入书
挡@@
银河
一等
蟹
秒钟
小鸟
珀@@
曝光
死因
地处
DS
精通
军控
的黎波里
估@@
触摸
多半
劳工部
国家标准
并不需要
十大
铁矿石
驱使
天气@@
夺
海洋@@
大面积
兰人
全港
情况@@
BS
夫斯基
这时候
Ir@@
补偿金
骨骼
鲸
陆运
秦@@
改性
年长
广播节目
涨幅
悉尼
无线@@
括号
沙龙
吉尔吉斯共和国
疲@@
研究进展
内陆国
UR@@
施以
泳
递增
起源于
淘@@
aa
良知
宰@@
性生活
孟@@
氨@@
祸
参赛
大院
即审
要花
利斯
乙方
难受
分遣队
背上
投票站
胡
紧张@@
人则
起伏
有效途径
警戒
反腐
举起
太过
选中
阿巴斯
水晶
mar@@
维修@@
32%
阿根廷政府
作贡献
620
活动家
55@@
困苦
中间人
串
付清
帝国主义
芽
私隐
舱@@
喜剧
显出
挽回
巴马科
矿工
瓣
š
1737
未经许可
管理条例
雕像
挑
赖斯
捐献
中来
运算
安东尼奥
一代人
泪水
ma@@
预先@@
感应
高空
720
围墙
领带
放射性物质
斥
Bas@@
确保安全
世代
驾驶@@
关键所在
勃勃
矫@@
ski
66@@
照相机
322
过敏
偿金
抗灾
纯洁
难忘
安哥拉政府
隔离区
调入
米勒
窗子
筋
劣势
滋生
致以
慰问
旱@@
头来
别无选择
爱滋病
帆
AI
抽签
用量
焊
追逐
逐一
四天
柔和
珍视
人口老龄化
铸造
居留证
领导力
最低水平
榜
高等学校
Co@@
第四十条
自然界
该党
仁慈
魏@@
嫌疑
警察@@
发电@@
337
供词
罗马@@
ac
身高
若干次
苹果@@
实习生
31%
斯塔@@
KO@@
仆
次日
TP@@
无常
卜@@
粗糙
巴尔
不断@@
莎士比亚
自有
常务副
324
轻轻地
冻
345
羡慕
万物
非人
点头
丰厚
盲@@
汇辑
式化
卡洛斯
指着
清新
复印件
战役
挑起
礼堂
国界
逐出
曾多次
浓缩铀
统计@@
Rob@@
中小
生产量
中西部
Ass@@
遣@@
关键在于
0.5%
帝
海湾合作委员会
平价
投入使用
傍晚
逃走
老朋友
亡@@
高大
闪烁
by
Go@@
岗
海豚
前言
磁带
独有
整洁
解放阵线
安卡拉
巴勒斯坦解放组织
千人
特工
Ru@@
朱
出名
第@@
侧重点
各点
技术标准
耶夫
拟于
请求书
荷兰政府
种姓
统
AC.26
硕@@
畅@@
辅@@
而异
ISO
奢侈品
塘
关掉
眼神
迷惑
钾
流逝
Mas@@
该行
屋宇
园艺
手续费
症@@
可谓
定律
推向
归档
职业病
RO@@
台上
成功经验
期中
官兵
官方语言
矿区
小屋
CN.6
诚然
处所
MS@@
实际@@
火箭弹
基尔
盲
per@@
符合条件
小狗
别忘了
布里@@
屁股
︰
衰老
并存
在乎
打伤
1.7
成品
林地
甲方
称职
楼房
痒
剧本
封面
菲尔
健康@@
晓得
人员伤亡
常识
徐@@
白皮书
若能
相互之间
境界
中均
遍及
途@@
在押
继任
历次
裂纹
迟缓
吞
这一@@
侦@@
喘@@
不吃
年老
察觉
最新进展
条至
碱@@
罚@@
奴@@
投放
进行性
暴力行动
一如
湿度
日益@@
地以
长城
并作
新闻媒介
329
嚷
协调@@
变通
丢弃
新世纪
精美
第三十三条
98.@@
人应
852
染色体
同位素
汗@@
转用
上期
动手
开发商
引信
山地
梯
丙
昌@@
射入
富有成果
自由主义
给定
声望
洞穴
叫声
伪
托尼
ida
Mah@@
法老
加工@@
一口气
侨@@
盟国
察@@
Rep@@
7.4
0.7
一律平等
比勒陀利亚
钻井
献
专制
间隙
燕@@
pp@@
足迹
普斯卡
军事基地
弄清
订定
葡萄牙@@
omb@@
体育馆
介于
粘
家庭环境
各项任务
仅次于
赔偿@@
腺@@
TC
窥@@
面板
职业道德
喉@@
大衣
奥林匹克运动会
拿来
ke
Bel@@
捷
分量
金字塔
临到
卸@@
ao
竞标
小时候
L.22
COP.@@
拍卖@@
埃尔
眠@@
失控
抽屉
正确性
动向
ile
land
驴
时速
计算机设备
邓@@
成瘾
69@@
凹@@
抬起
Peter
奇异
打下
梅托
佣
能见度
斐@@
弟
闪
颤抖
ull@@
先行
戒
ome
无异议
如欲
逝
全球定位系统
AS
竣工
巾
伐木
内部事务
多份
实施者
天地
策@@
取而代之
部级
地基
太久
妹
猎
握@@
家庭事务
上周五
电磁@@
这样一来
主页
本分
老实
掩护
放射源
方言
甚么
聊
后方
懒惰
联会
调查组
过长
进球
整修
唐
SPLOS
曼联
专题报告
实实在在
De@@
用户@@
盈
2.5%
亲吻
专有
浴
决议案
354
辉
外资企业
数据分析
晋@@
结转
顺着
屏障
扁@@
兆@@
益
各方对
愈合
交替
款式
多功能
一瓶
冰川
婆@@
二个
406
宋@@
从小
日间
观光
丛林
婴幼儿
精致
多位
退学
环球
矿石
疫@@
怀有
8.2
装满
施暴
受损害
AB
南奥塞梯
关键技术
最坏
带回
乐园
马克思
治罪
贷项
辩方
全面@@
稻@@
违犯
地层
太小
纤维@@
43%
独裁
奶油
分子@@
受托人
溺@@
栅栏
装卸
蓬勃发展
物理@@
人生@@
上报
愈@@
春节
接收@@
果汁
Im@@
路障
互动式
珍珠
还好
教学大纲
人种
呈交
仪@@
336
举出
产地
348
性别差异
ib
缘@@
袍
行政处罚
巴克
尝
第三十六条
331
六项
严格@@
隔绝
洪灾
三届
补充性
Andre@@
邪@@
二零零六年
吊销
加仑
iya
不介意
留言
可悲
分级
歌声
登载
佩戴
袋子
生存@@
表达@@
现成
采样
Min@@
品尝
地使
anda
贩
审计长
炼
570
电厂
康乐
已达
禽@@
不休
苗@@
绝育
运输工具
44%
普通人
陆路
固
垮
重启
和准
胶囊
柬
屠@@
纤@@
管理费用
科长
大叫
买下
扼杀
与日俱增
时钟
渡
实际意义
怀特
本级
玩笑
无尽
粮食价格
提供方便
予以考虑
亏
爱上
隐含
服务提供商
地去
芦@@
岛民
因果
摩洛哥王国
rim@@
未有
复查
司法独立
六次
读取
见于
不太@@
光荣
业经
580
客车
讲坛
双胞胎
汀
维亚
风俗
PBC.@@
受体
想过
慰@@
ca
渠
群落
WTO
赠
紊乱
联机
下个
年时
第十二次
批发
纳德
哈佛大学
349
寂
无能为力
本性
考古
信用@@
加尔@@
斯蒂@@
屡@@
接待@@
课税
大洲
金子
殿下
联合国安理会
参与权
蚂蚁
敏锐
肥沃
半天
上衣
地下@@
评为
晃@@
③
最惠国
校舍
批发@@
坏事
拍照
星系
根基
论者
五大
几届
之声
全权代表
客气
一切都是
继而
波及
横
战斗@@
一号
围困
Ha@@
Po@@
Serv@@
关头
berg
压抑
改编
司法@@
挪威政府
免得
炎热
拿破仑
长处
伙
ola
抽出
土耳其政府
控制中心
缺损
雨季
逝世
过大
会议纪要
体育场
管理体系
服务部
欧佩克
34.@@
档@@
颈
培养@@
毛坯
氨酸
该地
辨别
奇特
密切注意
天花板
CS@@
旅行者
通话
女士们
不难
全日制
峰值
大区
尼泊尔政府
构思
马拉喀什
退款
闲
向来
呃
Tar@@
筹办
中风
司在
426
电阻
中世纪
外币
弧
阵营
第十三
提供数据
行动@@
合力
椎
受制于
口中
阻塞
能源价格
租户
核心内容
相差
判罪
精明
Cam@@
af
地下室
Corp
同其
emb@@
630
心思
稳妥
糊
第三十二条
Ev@@
匙
赌@@
螺旋@@
就行了
招生
违禁
国名
施压
郁@@
社会关系
国际商会
怪物
得来
防火
law
修订版
南非洲
追赶
两张
梳@@
获奖
博览会
慰
书目
仔细@@
前列
推选
谣言
王室
刷@@
eb
电站
数百名
自制
ack@@
•
走到
千百万
der
销售量
布达佩斯
载人
730
霍尔
暨
藻
全时
量刑
哥伦比亚特区
滔@@
核军备
来函
SAT
缴@@
谚语
侦测
351
当下
医务@@
这门
毕业@@
OzL
Jos
始
梯度
菲利普
控股
全力以赴
臣@@
劝@@
头顶
Ny@@
有否
钟头
贺@@
添
国境
女议员
募集
渥
司将
EP
卡纳克
新人
蜂蜜
婚姻关系
落到
疾
二十四
29%
阵列
斯克
发交
召@@
连通
孟买
人于
氟化
ase
表二
伊比利亚
屈
莎拉
主语
哈德
数学@@
百分之
不怕
卫星通信
水体
禁区
实施方案
便捷
广东省
滑坡
总括
过滤器
366
有限责任
母乳
神情
降低成本
美国公司
收款
良
发扬
被称作
定论
一线
AN
03@@
Sw@@
走近
托运
各款
涡@@
请拨
失业问题
克拉克
习惯于
朴@@
432
乾@@
灾民
数码@@
叠@@
贬低
性工作者
挤压
通力合作
订货
1612
国际奥委会
XML
热器
ide
代理商
参选
促进@@
甲型
犯罪率
AIG
区域环境
十八@@
路易@@
格雷@@
审计师
办学
契机
绿化
十字架
发送给
形容词
阀@@
并视
贯
手语
org@@
愤@@
蓬@@
347
感恩节
虫@@
海滨
盟
池@@
保险业
L.24
水坝
连锁
园区
原住民
染料
传奇
联苯
宏
识@@
一百
圣诞老人
隐
六十
走势
扼要
为时过早
预制
解脱
庞@@
罗斯福
以向
学徒
溢
第五个
334
笨@@
饮@@
悦@@
载荷
期权
变压器
猪肉
享
用意
证据不足
幽灵
钦@@
盟军
大桥
平凡
抉择
这所
忧郁
侍@@
ret@@
少将
所有制
转换成
意见分歧
590
偏高
迭代
校准
悉
服务供应商
切换
暑假
进食
亨@@
教学方法
特朗普
匪
堕落
越发
苍白
行政法
反对者
IL@@
和表
Bal@@
自定义
第十一
技经
雕@@
迫在眉睫
独
勋章
誓言
数以百万计
三明治
强加于
仿
Stat@@
卡塔尔国
巴尔@@
叠
高新技术
进攻性
粮@@
店里
手头
托儿所
征兵
布斯
换成
偷走
正文
顺利进行
管理程序
收入水平
养活
水井
高贵
劝告
北韩
植入
AC.51
非军事区
用药
瑞典政府
刊@@
损毁
哩
第三类
仓储
城市居民
甲板
野外
巴基斯坦政府
两国人民
厨@@
规矩
出入境
更深
rez
携@@
年幼
基因组
表达意见
1353
预算赤字
CL@@
引力
奏@@
肩上
交叉@@
伊尔
返
浴@@
水池
聊@@
马尔
夺走
扑
Int@@
法定@@
第三十条
秘诀
相爱
繁琐
妨害
所要
奢侈
何塞
以西
专责
激怒
动产
第四十一条
难点
小额贷款
消逝
资质
那件事
装甲
打着
切尔
撇@@
环境因素
互不
晚间
680
仗
ado
不感兴趣
电子产品
好友
暴跌
正值
阿拉法特
重重@@
应用软件
其余部分
编织
可达
相互依赖
交易成本
3.8
嫁
面向@@
皱
弹头
遏止
Sol@@
店铺
罗夫
滋@@
共和党人
ris
教义
里亚尔
复发
第三十五条
言辞
下旬
劳资关系
丰
举例说明
位数
出访
营业执照
萨达姆
发型
霉素
探矿
幢
辖下
烘@@
结实
曼德拉
＋
手动
文摘
高尔夫球
监察@@
路程
武断
减除
ua
不全
片段
棚@@
宇
亲近
污水处理
旺
粉末
孙子
三点
煮@@
妄@@
661
第十四次
胰岛素
沙田
人文@@
熟知
片刻
银行贷款
船队
车厢
遗漏
强烈建议
两套
通信卫星
拟将
所作所为
疯@@
本会
Ta@@
正向
先是
入籍
依法@@
宫殿
传播@@
经济体制
art
自在
情节严重
庄稼
体操
养老
埃塞俄比亚政府
战线
所附
统计调查
生命@@
浮
ick
敌@@
详细分析
数据交换
497
热水
外展
374
喔
巴博
病房
水泵
马诺河
Ob@@
9.1
腐败问题
驾@@
协调局
为数不多
专利权
Mohammad
信息网络
高等院校
一大批
记录员
眉@@
特里@@
匀
631
索要
化武
355
捐赠者
岗@@
L.21
溶
琼
水位
灾祸
Pal@@
留学
ISBA
届@@
脑子里
不能@@
撑@@
耐
奥马尔
散播
AF@@
参
轮椅
别墅
知识库
全心全意
Del@@
兜@@
调解员
敬畏
岂
鲍勃
供应量
博士学位
下定决心
常委会
先令
婚内
男女@@
rah
政见
用人单位
相近
几句
发件人
踏上
sky
成败
公共关系
维和部队
用电
碧@@
肚@@
复习
供选择
组织协调
方形
严谨
循序渐进
英勇
克鲁@@
钦佩
May@@
初等
投机@@
My@@
饰@@
旨
尽全力
百年
临时政府
繁多
数最多
政府军
搅@@
中间@@
地段
疲惫
惯@@
MIS@@
唇
骤@@
日托
结晶
栖@@
人命
招致
乡下
ite
顾虑
浦@@
溶解
咨委
节省@@
闷
粗鲁
尊
生命力
扣减
盗版
如实
捧
畏惧
总预算
CER
如表
CI@@
低价
重演
胰@@
黎明
驱散
缓刑
周年纪念
吃掉
332
批量
居住区
报案
零星
诅咒
显著@@
以利于
金银
沙漠化
改善生活
无人驾驶
凑@@
边上
体育部
副总裁
窃@@
南非政府
陷入困境
拉克
这届
公务人员
最能
ach
忍
杜夫
塔拉
描@@
莲@@
藤
承租人
圣灵
劳动合同
许许多多
看望
知觉
金融中心
虚伪
如前所述
历时
公共开支
后于
第九十@@
缀
旅游者
389
高山
南海
一夫多妻制
赔@@
流落
Mak@@
首府
德意志联邦共和国
葡萄@@
每份
游泳池
证券交易
放射@@
东北亚
凝
合成@@
功夫
联席
CN@@
大坝
建构
中途
优惠待遇
冲洗
企
狱中
Rev.2
阿什
思索
派出所
核生化
二世
这人
强盗
文号
吵@@
每星期
恒
竹
ect@@
犯罪现场
神父
买主
首要任务
服装@@
用心
34%
52%
que
竞选活动
中载列
无损
向往
片剂
考试@@
顺利完成
1.5%
灌
兼任
太晚
货币联盟
改写
九名
分立
同级
无助
imana
机床
不下
威力
革
341
394
大有@@
Pa@@
伊拉克共和国
遵@@
核弹头
卸任
az
留用
籽
上尉
波士顿
国际公法
集邮
应同
前几次
讲究
西区
程序法
Ibrahim
353
4.8
安全法
海拔
如对
国民军
Add.7
敌视
被遗弃
埃拉
PS@@
估量
Lin@@
和谐社会
苦恼
拼写
hat
模拟@@
父母亲
轻而易举
师资
誉
马吕斯
心目
分队
模糊@@
活动分子
色素
一宗
增加一倍
丑@@
拢
极易
可得
本金
栽@@
雕塑
窗帘
钦
纵容
而出
牛津
题材
立陶宛共和国
直属
uri
第二卷
L.23
露面
US@@
509
年收入
摊派
悄悄
47%
难于
铅笔
Dj@@
肽
一大堆
清点
不可否认
贸易条件
若干项
引领
Abdul@@
不相称
缺水
骗子
比利
徵@@
史蒂夫
有所改进
哈佛
未用
说起
侵袭
专利@@
安全形势
机械化
希腊@@
无用
海牙公约
含糊
衰落
坏消息
失灵
ish
人民军
服务项目
孕
该名
XXX@@
再有
一身
厌烦
MS
电动@@
陪@@
厌@@
学习者
极化
343
绕过
8.3
6000
分层
为的是
如需
五种
很漂亮
生长@@
有害物质
宪@@
好玩
奸@@
血糖
笛
黄油
水污染
马格里布
情报部门
坦白
手持
不快
ock
纳克
标界
略微
开放@@
后退
瀑布
谁@@
364
可变
他国
恰好
贝卡
步兵
帮派
经济繁荣
碍
隐蔽
社会化
惠
金融工具
张力
趁@@
五国
77@@
塑性
TP
各人
Nor@@
舰队
说完
漫步
厂房
雅克
遣送
努美阿
得意
一九九@@
溢出
立案
110.@@
期为
闻@@
全套
有意识
侧面
笼罩
采掘业
威尔逊
侦探
痛惜
茄@@
日内
祈求
仍会
告终
吉米
重要@@
比前
受不了
驱动器
秃@@
412
雄性
特罗斯
皱@@
整齐
呈@@
求得
技合
评论家
联手
小队
Hal@@
有空
杀人@@
巴拉克
特征@@
组分
356
醋
414
天文学
多式
财政危机
稀缺
图标
丰田
无关紧要
Abdel@@
猴
胜地
炒@@
功课
婚前
荷兰@@
解剖
酸性
小子
年青
七天
啥
甚微
爵夫人
总的说来
贫血
11@@
XXI
贫困率
莫斯
尽情
写给
603
三家
暗淡
寄送
屈服
恐龙
性命
名列
还同
看一看
不断加强
1200
零售@@
迈阿密
科科长
基桑加尼
一年一度
安全感
大得多
0.0@@
地盘
基本原理
趣@@
非常复杂
喊@@
还须
相吻合
好几@@
610
模样
van
挨饿
根本@@
量子
史无前例
很多年
合用
票价
415
卡尔@@
谢谢您
从纳
中度
诱发
崩@@
充电
保持@@
改成
历史学家
华盛顿@@
蜜@@
幼
看不出
344
轮船
虔诚
夸
尖叫
室外
劝说
处理厂
商量
Bern@@
Dar@@
南京
气旋
一岁
腾出
兽@@
只用
del
糟@@
阿马
所负
弗里@@
信息管理系统
反之
计算机系统
收紧
可言
热切
考虑一下
改装
56%
稿件
仇敌
无家可归者
骑马
格斯
MI
爸
下才
当做
放开
光灯
L.29
跌幅
双边条约
移除
恰恰相反
平衡@@
普罗@@
352
更佳
Comm@@
方对
Hu@@
于本
Ol@@
售出
南省
空气质量
无线电台
下落不明
开发利用
先锋
385
召集人
沿用
怨@@
严酷
Mac
干脆
予@@
延缓
年增长率
illa
这应
塔吉克
475
平民百姓
国际舞台
蒙特
潜水
复印
敞@@
愁
751
血腥
吉隆坡
利亚@@
邮戳
身着
比亚
腐败现象
ati
℃
地方法院
组和
组别
覆盖@@
事由
应负
相片
做梦
伸展
str@@
解开
国为
保持警惕
现实生活
Ash@@
胆固醇
无人@@
沙拉
才华
贡
民族解放
陀@@
境遇
Bak@@
互联网安全
有点儿
联系国
蕾
弹簧
天后
滞@@
Nations
酬金
zi
嘴巴
争斗
嵌入
对峙
外衣
鼓动
讨@@
精细
皆@@
分析员
860
摄影师
遇害
现役
引致
沙巴
会以
用餐
爱因斯坦
砍
爆破
稽@@
Google
You@@
肾脏
珍
不可抗力
栽培
专题会议
代表处
Hel@@
给付
优先@@
越界
分期
第七十届
权责
ales
助学金
十字路口
模范
系列@@
台式
漆@@
国度
哈龙
疗
时为
伸手
第四十@@
唤起
大通
悔
手提@@
工业生产
喊道
凌@@
奖赏
参差不齐
致词
迦
1624
381
传动
结婚@@
外形
蜘蛛
主审
Nd@@
No
礁
互换
数千名
轻重缓急
重现
敷@@
刑事警察
桨
逮捕证
顶端
凌辱
开发人员
第六节
联络人
送入
土地@@
1929
交涉
他用
图画
衰竭
we
挣@@
打工
三十日
服务公司
就是指
大赛
那人
La
特纳
剑@@
抱负
考量
津
伤员
传到
钓@@
这幅
断层
AA
工党
四氯化碳
咸@@
液化
节约@@
代人
可喜
不小
供应品
肥皂
哈尔@@
大众@@
跳跃
本世纪
牵连
伊斯
IBM
371
相互间
欢迎@@
国际私法
轮机
执行长
热衷于
mdash
伊斯兰堡
690
歇@@
迁离
760
奶粉
年薪
忧伤
雕
签订合同
权主义
锚@@
33.@@
普及率
破灭
妖@@
茜
安德@@
the@@
敦
生活费用
University
旷野
炫耀
默许
在技术上
活动@@
普里
天性
各种类型
NGO
Mich@@
专用@@
名片
力所能及
国与国
经济区
Sant@@
见过
牛仔裤
在册
遗骸
同情心
487
世间
前南
五位
add@@
买进
冈
基建
天津
亲身
若干年
匹@@
司法权
烧伤
灼@@
打个
铺平
讨
圣诞@@
驯@@
ild@@
Na@@
共谋
422
开着
趟
提前@@
拉巴@@
不道德
圣战
山坡
差点
ics
科托努
简言之
生物量
人日
357
重大成就
五百
绒@@
National
危险@@
长期@@
区议会
下方
笨
研所
老年@@
逆向
出处
战争@@
积金
一家人
不怎么
研究组
合作@@
纯属
发烧
ok
乳房
给与
伪装
488
调制
急诊
闪光
蹂躏
行政处分
据信
48%
保障@@
利益集团
处理程序
带入
诈
RP@@
心想
并不知道
粪便
补偿@@
畅销
机体
扶
人意
苛刻
任务@@
问答
两部
公国
XXIX
纱@@
瑞克
法中
问卷调查
Windows
GGE
款待
前去
椰@@
餐饮
没用
客运
重重
团在
加之
417
公诉
报废
举足轻重
手势
殖民统治
逊尼派
能干
人次
昂山
定点
相互支持
op
安德鲁
笼
急切
顺从
芒@@
缓存
野兽
不好意思
交纳
从那时起
特尔
阴
彩虹
中华
ook
第三十四条
直观
姿
地区性
公元
423
巴哈
赞
佛罗里达
利害攸关
不计
820
单亲家庭
货款
标定
美金
373
免疫系统
纪录片
57%
不得已
弓
爱丽丝
美女
503
学问
监测员
水利
扰动
明日
贝拉
忘掉
范式
驱逐令
军事化
决策@@
攻势
局域网
大战
朵
Paul
402
十日
差错
很感兴趣
区法院
家居
339
择
记忆力
高低
幅@@
变数
386
辽@@
近距离
诸位
装甲车
堪@@
ash
美国国务院
赢@@
计数
侯@@
保留地
Gold@@
句型
te
赛特
星座
一团
航空运输
送来
塔吉克斯坦共和国
日及
适应能力
经济秩序
多伦多
西南部
荒漠
早上好
人用
那辆
仓@@
L.26
属实
EX
Jos@@
短片
布拉格
宁可
幸存
开发区
勾结
迎合
第一手
372
频谱
金融公司
46%
酬
所行
意想不到
413
管理法
华沙
不多
低级
严格控制
高级顾问
胖@@
寻
外人
队列
PLC
四十
再三
过往
罗德里格斯
复合@@
镇上
乘数
时装
空洞
单项
骆驼
狱警
肆意
游击队
突出@@
tre@@
45@@
伊朗政府
锚
无可
创设
卷宗
与此相反
Sha
359
加利福尼亚州
承保
剖@@
忍耐
416
探望
鱼种
之苦
苍@@
正规化
维系
亚马逊
SB@@
体制性
悼念
平均年龄
保险金
路透社
站立
囊@@
邮品
小费
召
溜
篇@@
全程
尽责
436
计算结果
着想
动物@@
徘徊
从业
执
Ra@@
蓄
介意
涩
CRP.3
如本
后卫
多变
阿尔
uel
一大@@
反正
抽取
顶峰
小区
极少数
存取
脑子
ean
L.27
Maj@@
航天@@
财政困难
指针
小心翼翼
守卫
神经元
光临
录用
五分
注资
赵@@
折算
斜坡
穆萨
Hen@@
无国界
议院
洛斯
科威特政府
染色
该文
梅尔
第十五次
警队
妇幼保健
ne@@
456
驾
徒劳
滑稽
西南亚
才智
这要
Mut@@
更少
国与
说些
适
GN@@
以色列国
教程
之子
魁北克
停止使用
展开讨论
纪念品
黄金@@
贩子
富含
德里克
美利坚合众国政府
维察
特拉
其他费用
杖
99%
超重
合作者
阴道
强制措施
ú
宫颈癌
受到@@
Kal@@
提高@@
权人
播种
最高级
8.5
所学
牵涉
炭@@
乡镇
反感
CONF.2010
382
巴士拉
ank
句话
刚刚开始
6.7
那本书
尖端
细微
BP
包装@@
408
厂家
供养
岌岌可危
订有
怀念
平均工资
锅@@
荒唐
Ge@@
中医
阿勒
ins
中共
二维
那家
外加
音乐家
挣钱
锰
伤者
戏剧性
Mag@@
熏@@
最合适
民意调查
而行
Sab@@
短期内
普拉@@
渣@@
调往
性病
章次
天气预报
风能
残障
ack
连接@@
签定
水务
转过
KB
冷淡
工商行政
inc@@
蒙特@@
消
358
款人
AD@@
━
附于
这比
车臣
真菌
参赞
ker
海龟
意见@@
439
专科
掷
仙
ons
遥控
耗资
普遍@@
肠道
截获
空间信息
人口统计
品味
车轮
一小@@
li@@
列有
难以获得
区间
大洋洲
363
产业@@
说实话
尝@@
扎根
在历史上
普通教育
科斯
数十@@
农用
得当
拇指
公屋
衣着
气流
手榴弹
身亡
决算
循环基金
河边
门票
一栋
再现
遗迹
追随者
真心
吵
德利
古希腊
古柯
靶@@
深厚
茶叶
428
采矿业
喘
L.25
ps
渡过
维度
四十年
9.2
计算机化
肖
甄别
一趟
犬@@
公投
能耗
社会制度
禁忌
仪表
要不是
笔记本电脑
不得@@
东区
.6
薇
世界卫生
iro
听讯
FS
保障人权
PCNICC
连接起来
存储@@
认真对待
通胀率
XXVI
政界
405
总公司
hk
信任@@
晴@@
短文
冷却@@
5.7
停泊
SU@@
班机
时空
地道
蛇@@
标本
辞去
空中@@
劳资
至上
368
中称
搭建
思念
也好
物质@@
困难重重
无礼
ise
分行
有悖于
东斯
碰巧
人员培训
des
畜@@
日程安排
病症
不来
酸化
带宽
空间@@
第一百@@
橱
受限
无形资产
书院
华人
好评
犯罪团伙
各式各样
特委会
民解
审判权
能源需求
急速
正试图
谈起
魂@@
弦@@
毁掉
性交
实地考察
人事管理
342
无声
客观@@
费力
670
ings
铬
1.9
驳@@
棋@@
过夜
国有@@
开具
原产
市场竞争
Sect.@@
写成
回落
传票
分布式
RS
伸
索尼
377
权重
冰冷
草莓
哈利@@
越大
破伤风
偏爱
项目@@
外交事务
OP@@
邻近地区
宵禁
特此
986
41%
光彩
财政赤字
常务
吊
走来
敢于
增派
种植园
皮肤@@
正当@@
不同寻常
花旗集团
重塑
耐用
或经
凝胶
大肆
接受@@
价款
雷场
现值
交织
大不相同
辅之以
ene
第三十九条
able
Jam@@
沉降
突击
分析法
Hassan
合同法
1572
唾@@
强势
平板
具体任务
下于
找寻
完全相同
金币
责任者
肆虐
衷心感谢
电信@@
虽说
班上
口音
虚构
浑身
残疾者
水上
东道主
他妈的
放电
411
第十四
会员卡
eng
人满为患
戒毒
369
感官
太空@@
低声
犹太主义
收件人
称号
件@@
爆炸@@
退伍军人
臂@@
失明
关键字
不通
宅
鸽子
采伐
分明
励@@
生产工艺
南半球
达卡
鸿@@
不良@@
隔壁
墨西哥@@
涅
行政诉讼
落下
商业界
庄@@
换算
还于
ecosoc
巨型
巨大@@
早点
喉咙
又称
Tor@@
微量
回信
逼供
相位
诈@@
奔跑
娱乐活动
跌倒
电子设备
公安
392
拉丹
沉
CEO
53%
驻外
512
决策权
弊端
光电
悦
平壤
摘录
紧密联系
柴
362
POPR@@
商议
石化
事业@@
何况
好些
万分
忠
害羞
横跨
信息学
发生@@
万维网
高端
ros@@
缔@@
P.2
抢救
可耻
飞去
巴库
awa
夺得
纠缠
国务
中华@@
渔获
答卷
卡路里
Docs
443
收割
合同@@
惩@@
金斯敦
从业者
Ur@@
Os@@
万公顷
应征
能源部
看好
预见到
埃米尔
请假
低水平
对话框
枪杀
可乐
堪称
歌剧
邀请@@
下台
生态旅游
中国香港
大法官
MSP
得上
势必
释
事前
蚊子
等值
辖
不需
付钱
Mun@@
清洁@@
波斯
低碳
格里@@
分校
中亚国家
申请@@
看书
利特
谈一谈
恐怖@@
遍@@
了结
383
尘埃
窃
最差
接轨
最穷
市级
刑事@@
中低收入
政和
刊载
下一阶段
out
工会组织
多层
精子
镇静
一环
笔记本
ens
唉
市场需求
死后
一俟
死亡威胁
精华
莫过于
第十六次
呈件
哑@@
39%
股票@@
浆@@
两国关系
污
第四十六
渍
外国@@
电子版
愉悦
oss@@
不开
Morgan
承担@@
洗澡
2025
金融时报
理财
斯蒂芬
吉他
七次
net
原子@@
幻
2500
高档
于本周
这些年来
IR@@
9.3
帐款
圈子
震荡
托儿
师范@@
长远@@
五周年
公交车
国际联盟
杭州
新郎
立体
改派
喷
偏袒
糊涂
著称
重构
赎金
克罗@@
五年计划
泰国政府
巴巴
投票@@
aff@@
记账
罪案
第十三次
阿联酋
Des@@
伯利恒
数十亿美元
份文件
公元前
客房
窑
欢喜
发表@@
孟加拉
四人
单是
uss@@
索马里人
gr@@
离家
中曾
鹅@@
单亲
采掘
机动车
琼@@
生物体
犹太教
适量
伽利略
下星期
稀释
港岛
卫生部长
亲王
卫生局
受托
观赏
取自
非农业
US
充裕
懒
颂
379
填补空缺
加德满都
靠着
国人
寂静
微风
eth
吸烟者
小路
ardo
eth@@
第十七次
DC2
发货
集中营
畅
红新月
虫害
周刊
性别角色
ji
提单
以备
巷
开发者
CN
征集
包机
选择地
XVII
人行道
刮
支持性
营养状况
突发事件
代理@@
世纪末
南朝鲜
戈尔
入住
两国间
su@@
走动
X光
疮
弄清楚
获得者
麦当劳
修道院
st
十分复杂
法定人数
愁@@
壮观
数千@@
浑@@
中美
版权@@
返国
珂
到访
SD@@
阿拉伯联盟
ald
个人卫生
女神
1559
令人吃惊
停火协议
联合国教科文组织
波浪
迷信
必然@@
联阵
背部
风味
重金属
脑部
361
俘虏
废气
良机
提振
袜子
Vi@@
L.38
ec
随机@@
稻米
颜@@
居于
测量@@
美术
长期有效
野餐
滤波器
信道
增量
庆典
万至
莱德
常备
老太太
集中力量
推销员
咨询组
保费
435
美化
队友
油脂
发疯
淡化
ç
西蒙
圆满完成
充
地理信息
bi
含汞
不景气
时能
简而言之
最深
墨水
公诉人
辙
努尔
小小
恐@@
机密性
ef
几小时
瞩目
突
辐照
有形资产
Gen@@
特别感谢
文斯
国立大学
97.@@
Law
×
司令
那年
丘
arm@@
LL
1907
三岁
阿齐兹
各有不同
国际会计
合理@@
awi
391
床位
è
兑换率
车票
孤单
关门
绝缘
该是
资金短缺
听觉
耗时
映
归根结底
写明
收成
中国人民@@
....
瘘管
农村居民
内尔
呼唤
样板
帆船
韧性
炸毁
尼罗
教师@@
可知
管理机制
L.32
洗手
正以
ents
404
政治危机
碘
高标准
他家
化疗
巨大贡献
慈爱
Paul@@
90@@
六日
录制
入门
大理石
再者
第五十@@
屏@@
格里
澳@@
钢筋
实情
供货
条所载
58%
匹
共同行动
畜牧
表层
奖牌
消耗量
游艇
早饭
陆续
滨@@
徽
解救
ER
＝
四级
参谋长
赡养费
八名
偿@@
pol@@
演进
仍应
工时
遇难
自然科学
高位
栗
一队
中仅
协约
塌@@
出错
反向
吞并
总费用
生化
监狱@@
新车
举证
展望未来
商贸
毛巾
扔掉
恩贾梅纳
四日
牛排
薄弱环节
忠于
监测@@
使用量
镁
美国银行
德国@@
37.@@
455
代际
民主党人
49%
打字
音像
美洲国家
男友
MBA
第一段
增援
贞@@
减让
项链
气质
捷克斯洛伐克
敌国
十分必要
悉@@
卧
动身
住房@@
请愿书
提炼
私
XVI
渗透@@
Ty@@
les
电车
食堂
明知
yan
耀@@
福德
社区@@
油井
灌木
涌现
接收国
坚硬
聋
财产@@
独家
伊朗核
CST
污泥
抬
航道
障
孜@@
我该
迷失
池塘
上门
熟练@@
ern
君主
学前
485
昨天晚上
中华民族
握住
通则
总长
渗入
息息相关
OE@@
竞争能力
竞技
过半数
Part@@
指甲
赡养
Ver@@
弗里敦
值得称赞
谋杀罪
437
交换@@
一个个
空闲
必备
勃
页数
巴斯
拖车
衬
藏族
洛美
尽可能减少
借钱
卸
河里
农产
工作站
豪
心跳
丽莎
密不可分
如期
沉思
九十年代
心意
拾@@
冉阿让
扫射
Um@@
严重不足
惊恐
做个
438
水里
保住
粮食供应
接触@@
赏
还款
越是
购物中心
二零零四年
加油站
受援
亨特
中约
地貌
月光
51%
掌权
生命危险
坑@@
警署
35.@@
扁
睹
正为
以下几点
筑
希德
诊治
伐
腔@@
违宪
宠@@
私法
并发
废水处理
知识经济
电力供应
eed
传承
节食
很广
378
法尔
相匹配
AT
悬崖
颅@@
淋巴@@
无穷@@
班子
好战
分之一
装船
或愿
中要
规模较
oy
社会阶层
两座
处死
创新能力
Christ@@
距@@
卡比拉
一两年
54%
单调
铁路运输
竖@@
加盟
出行
403
重大事件
幽默感
Av@@
ily
457
黑洞
数周
追捕
基本概念
Hab@@
周到
IV@@
爱国者
辨识
逐案
雌@@
完全一致
办公楼
sen
病媒
占多数
一来
再也不能
虚
精神病院
哥伦比亚大学
478
详
娘@@
欠发达
克拉@@
金边
夹克
硬盘
被困
WG.1
苔丝
德勒
喜好
世行
卫生领域
开放性
营养素
尔曼
边远
ort
花瓶
教益
储蓄@@
忌
克罗
高尔夫
残害
Maria
见证人
份@@
农村@@
急忙
拜托
China
订明
解决@@
传闻
滤波
缠
中间商
L.34
伊利@@
绝非
廉署
蒸气
商家
尘土
Facebook
召回
521
架子
无动于衷
附则
新西兰政府
车库
所含
sa
怨恨
登机
衡平
Alma
应付款
复活节
L.28
总有一天
加里
全美
依循
达赖喇嘛
Cr@@
肯尼亚政府
BO@@
布尼亚
锦标赛
原子弹
扎伊
行车
忽@@
婚姻@@
督导
444
风气
国民收入
弗拉@@
沙子
Ku@@
第五十一条
办事员
自该
取用
非成员国
越来越少
袭击者
Ap@@
een
失常
199@@
HSP
揭开
Rad@@
不尽相同
营救
产值
市场营销
买入
超声波
赠送
答覆
逻辑@@
525
从属
教育者
书本
瑜伽
谋杀案
编译
垒
夺去
我以
慈@@
心智
胺@@
丢掉
Lar@@
戴着
斯科特
即刻
珥
特兰
477
受苦
病因
Khan
沼泽
谊
达累斯萨拉姆
洛伊
毛利
地平线
深思熟虑
动人
财政管理
enko
原则立场
额为
地里
isc@@
驱动力
台北
光泽
长久以来
俊@@
B型
平安@@
四位
抑或
澳门@@
哈拉
安全带
评估所
平坦
郭@@
预后
谐@@
一圈
七项
绵羊
摄取
道义上
多为
军舰
艳@@
isa
羽@@
呼吸@@
407
法律条文
非官方
第一夫人
oun
Cal@@
器械
毁@@
赞助者
达巴
充分行使
另一边
转化成
待审
竭@@
害虫
看重
Kafr
布满
眉
疏
蓬
购物@@
逃亡
而设
调查局
党内
天然@@
丝绸
约翰@@
eva
一切@@
长期性
晕
佛罗里达州
讲演
自来水
潘
辐射@@
瘾
陵
左翼
吃晚饭
前身
诉讼@@
叙
生活状况
表征
oz@@
一手
本杰明
424
纺@@
巴勒莫
条下
渔业资源
激
经理人
怂恿
半个世纪
高层次
尼日利亚政府
AC@@
肩负
怨
终审
文化交流
普林@@
IO@@
Don@@
屡次
黎
拮据
农场主
保密性
mann
IPO
自由市场
409
截
35@@
雌性
篇章
今年年底
十分之一
基辅
逃往
称道
落成
曾于
419
毯子
一两个
高点
藉此
再用
哲@@
记忆@@
极小
烟囱
拦@@
蜡@@
核心@@
箭@@
北南
波长
者@@
个区
满足@@
名下
时代@@
市场机制
廉@@
418
不解
会令
角落里
几条
辅助性
追随
发抖
泊
II@@
376
Don
孤儿院
多岁
暴动
少校
如图
藤@@
445
囚
成交
第一卷
响起
人去
再接再厉
之家
当心
联萨
学系
很久以前
齐心协力
新机制
巢@@
貌
赛车
Si@@
主题@@
一千
书面材料
赌场
示威游行
检察署
临床@@
人员配备
宿
邮箱
情侣
逼近
戈兰高地
流泪
视网膜
次访问
so
室内@@
猛
每晚
固执
生机
很久
乙型
美容
第二段
录像带
静静地
中转
接头
甲状腺
知情权
村里
瑞典@@
创业精神
讽
越狱
这天
毅力
里夫
定购
掀起
421
aki
讨价还价
ert
Sil@@
防水
案卷
古典@@
63%
富于
用不着
涛
那件
下水道
1503
环发
全面实现
基督教徒
快餐
教育局
安放
感恩
赢利
着迷
军事演习
第比利斯
慎@@
be
监督员
前行
虑
429
把门
刹车
这就是说
群众@@
紧接着
上台
1521
UNCTAD
拉夫
林丹
SH@@
首席法官
猎物
摔
高速@@
只应
无能
始终@@
伞@@
我必
前锋
Naqurah
ct@@
万多
伊德
辣@@
伺@@
富翁
乌萨马
总体@@
天文
吉利
上瘾
出版商
PaperSmart
句意
电力系统
分配原则
塔什干
友情
史上
增高
特大
行文
帕拉
德曼
访问@@
冻结资产
勇士
SB
第五十五
婚姻法
演讲@@
保姆
看管
雇@@
丙烯@@
轨@@
时而
速器
微薄
摘
可口可乐
香水
咖啡馆
执勤
715
整治
上载
注册处
散射
取证
监管者
何人
抓获
务局
Richard
挑剔
一朵
小姑娘
第二十三
433
自相矛盾
嫁@@
档案@@
社会秩序
氨
保持良好
磺
捡
遗属
详情请
债务国
盔
蜡
憎恶
第三者
美国联邦
AM
不加
揽
绊@@
订婚
顽强
点心
Patric@@
电话会议
哑
尼罗河
店员
布莱克
回籍
行不通
深夜
风筝
之力
纽约州
精神疾病
纳尔
暂
威士忌
姚明
App@@
溪@@
一年级
省略
Jabal
工伤
受到破坏
手腕
设计方案
⑶
火炮
病原体
警察局长
建设@@
远方
火力
7000
虫病
慢性病
六周
自行@@
自主性
逐个
舌@@
Sk@@
功能性
自律
线条
向外
来访者
唱名
阿姆斯特丹
城乡@@
锤
OEWG
警力
沙特阿拉伯王国
独特性
外科手术
开工
CN.17
定理
英语口语
威尼斯
对系统
拉丁@@
宏大
ist
净增
职业妇女
溃疡
Say@@
顽@@
防火墙
校内
交火
浸
赶出
384
婴@@
布兰@@
洒@@
电能
下巴
恶人
成语
暗中
经贸
IR
专栏
840
向量
澳元
Mer@@
理想@@
勇
田地
七十
向着
开放源码
740
port
CRIC
核电
良好@@
另一人
气管
多德
处处
达西
独立自主
须要
有近
埋设
飞翔
峡@@
晚宴
有违
远比
Luis
捆绑
CR
继任者
驰
热闹
好极了
娇@@
拐
法塔赫
不言而喻
卑鄙
导出
网路
八十
审判程序
L.39
炎症
巴厘岛
对外开放
糊@@
怎能
不敢相信
倡@@
贫民区
都灵
改用
戴尔
件事
干练
第九章
内衣
大军
堤@@
核可@@
附加条件
乒乓球
犯罪案件
矿井
增建
得主
弓@@
地表水
认明
可追溯
绑定
Raj@@
62%
僵硬
霸权
提款权
站不住脚
刀具
密钥
医护人员
首届
咳
女演员
DO@@
推动者
67%
守法
→
经商
需在
二苯
393
证券市场
鲜艳
南方共同市场
另一半
科尔多凡
审理案件
手机@@
L.30
ej@@
推论
履历
供应@@
高素质
任意性
公司法
药剂
483
973
智商
邮
第四款
GU@@
巧合
松散
地方@@
登记簿
四国
损@@
Mik@@
学龄儿童
污名
CF@@
荷载
职业者
加拿大人
雅温得
求婚
诡@@
上床
失散
卡利
同伙
传导
HS
钉子
耶稣基督
芝@@
过重
395
咽@@
以致于
陪审员
兼容性
核战争
税务机关
不信
绝对@@
宰
Jal@@
那一刻
度假@@
ora
混沌
香港特别行政区政府
惨
身体@@
袖@@
1930
液相
Hay@@
想方设法
分析家
ect
条纹
演唱
阿森纳
语言学
ki
PL
灭亡
丹麦政府
海床
胡安
灯塔
屯门
氯烃
想一想
相似之处
香料
染上
裁量权
前述
有利可图
中场
确诊
486
458
我敢
人民党
剖析
优缺点
Tal@@
A.1
可受
戴上
朋@@
尼特
鲸鱼
国际惯例
社会变革
联尼
十九世纪
阿萨德
借助于
第一组
合同条款
基督山
临界@@
鸡肉
联邦@@
混蛋
孕期
分离主义
之心
姊妹
397
同该
驾驶执照
大写字母
充分说明
上传
453
祖父母
颈部
方案设计
流动@@
一匹
即将来临
565
某种意义
拉巴特
趋@@
六十@@
回收率
采取相应
Cast@@
710
生物资源
爪
萝@@
血症
bl@@
ith@@
通报会
饭菜
开拓@@
颤
防疫
生育@@
开幕@@
殖@@
保持平衡
充满希望
通讯社
堡垒
冈@@
专门从事
Str@@
书面报告
ve
忍不住
美林
插件
盛大
攻读
De
后继
点火
交易商
得益
海浪
色谱
434
388
实践证明
惟@@
侯
批出
突袭
无从
王上
安大略省
布卡武
事业单位
公平性
实质问题
居民@@
iri
ery
高性能
呈报
lez
香气
货币@@
越南@@
三者
印刷品
Tel@@
斯卡
络
每件
凶
苍蝇
都柏林
OP
ella
坦率地
昔日
ond@@
冥想
\
aka
贵重
具体来说
历经
愈来愈
坚实基础
L.36
英才
赛跑
那段
夜班
邮报
毫@@
工件
失学
培
旋律
ep
诱人
装入
SM@@
398
积聚
新举措
抚养费
浓厚
赌
球赛
末期
Sou@@
Met@@
act@@
哮喘
截面
喷洒
着装
职人员
Has@@
君
不知不觉
改观
448
急剧下降
情绪@@
亚洲地区
英亩
何地
剑桥
Mans@@
制动
逐步@@
矢量
预想
ement
民间@@
军事设施
第四项
剪切
465
检察@@
连通性
客机
864
管理费
嗡@@
大大降低
获得性
皱纹
小提琴
有的是
劲@@
天文学家
表面@@
任地
oc
出面
博士@@
明显改善
母国
热情@@
506
转子
施暴者
大大的
等离子体
默示
他来
3.5%
切入点
重审
ä
Nik@@
第十二章
两难
akh@@
应能
枕头
黑客
引出
栖
涉足
芳香
两场
COM@@
伊夫
Kim
波哥大
俄罗斯联邦政府
背诵
505
国家银行
计画
栽
底线
重庆
财务科
880
透明性
毫不犹豫
防止出现
复仇
492
作弊
悬浮
文具
Gal@@
葵@@
战事
焚@@
重要途径
惊
候审
31.@@
Tim@@
ony
承包@@
探险
那份
不由@@
Bri@@
武器化
联营
方位
一旁
不容许
大腿
全体@@
Mark@@
摇晃
静电
CHW.@@
不尽
第十一部分
辉@@
敦@@
冷水
节中
太快
察看
XIX
同化
嫌
番@@
莫里斯
识别@@
店主
阿拉斯加
固化
英文@@
搭乘
不及格
阿布@@
活性@@
铁矿
承载
大力@@
马铃薯
超额
机动车辆
ment@@
说成
曲面
elle
坐落
442
532
醋@@
协调性
基层组织
仍为
勒斯
管治
京
国库
收录
戈登
迅猛
展现出
不规则
Wil@@
栈
左手
隐患
L.37
462
亿英镑
控制区
国际争端
扩大@@
人类学
513
经济基础
执法@@
深水
掠@@
仔
火山@@
廉
自评
萃取
背面
č
拉伸
9.5
炼油厂
超级大国
天真
AK
镇定
之大
伊拉
打赌
趁
unc@@
片面
431
哈特
年制
新书
腐烂
温馨
易卜拉欣
美观
倒霉
发来
马丁内斯
囊括
anga
中文@@
叙级
议论
科威特国
每股
供求
排挤
布鲁斯
家务劳动
翻了一番
希特勒
关系密切
沉淀
云南
没见
姐
Zh@@
第三十八条
6.8
并处
颂@@
黄昏
屁
地面站
该类
770
要紧
L.31
油墨
拳击
RI
外交代表
柏
欺凌
好比
打仗
在生活中
叹@@
荃湾
讯@@
法兰@@
增益
妥善处理
6.5%
Mos@@
北京市
第十八次
comm@@
已同
意外事故
那双
西斯
萨格勒布
说不出
利弊
美景
母公司
宾语
好奇心
润滑
451
两院
基金项目
理工学院
摄氏度
证券@@
羞愧
利润率
48.@@
接生
悬殊
决定权
掠
序号
姜@@
不平
留有
理学
小节
佩尔
饵
吸收@@
伍德
诺贝尔和平奖
视而不见
罪孽
中华民国
语境
920
廉政
娜@@
两所
照护
防护@@
两党
文化教育
湿润
辩论会
落实工作
内乱
火鸡
501
过渡阶段
一中
赫尔@@
财务处
圣母
候任
工具箱
出场
自下而上
单车
旅行@@
古巴共和国
社交@@
孕育
利雅得
留学生
艰辛
控方
查谟
L.35
西方人
餐桌
基调
岸边
征兆
明文
L.40
逊@@
基点
垢
半夜
致开幕词
彼得@@
自已
凭单
彻
唇@@
问到
自然保护区
二号
钉@@
iii
毛衣
恐
贤@@
炎@@
疆@@
总价值
姬
Nic@@
综@@
穆巴拉克
细心
亚伦
脑海
529
匀@@
采行
危地马拉政府
多数@@
成绩@@
胜者
狠狠
卡斯
不断更新
iro@@
周转@@
放学
高职
迟钝
男女比例
头疼
罕
out@@
榴弹
避免出现
罪责
不稳定性
曲折
把头
欧美
不朽
拥
该书
撒上
常设机构
通讯员
空气@@
Rom@@
.5
军民
伽@@
普森
填妥
牛仔
摩尔
祸患
olog@@
龄@@
四倍
棕@@
消亡
两件
酯@@
更难
丑陋
涵@@
呵
祥@@
深入@@
冶金
公证
几句话
夷@@
巴赫
浦
车里
BA
冕
熊猫
印度人
专业技能
自治@@
可预见性
出对
沉没
就业人数
466
酝酿
预处理
纽
一笑
神经系统
㈧
Ky@@
秘密@@
规范化
交换所
轻视
第十九次
中学@@
446
路由
导入
ami
技师
几类
顶点
咪
国际航空
会外
Char@@
疑惑
刑事管辖
乐团
427
4.9
掺@@
憎恨
克劳@@
罗姆族
冯@@
之物
安全套
下挫
雷尔
隐性
凳
EN
震撼
欠佳
贡献@@
金星
烷@@
惨重
贵宾
入口处
申领
自行决定
十分困难
扩张@@
打动
无耻
不仅如此
相干
倾弃
景点
秘鲁政府
关乎
扶助
平权
马达
达尔文
罗先生
Id@@
朵@@
454
日出
偷偷
埃及政府
主要职责
帧
其一
导管
脆
驱赶
漫
多月
一幢
二读
马普托
抑@@
联合公报
数以百计
定出
苑
该所
转售
贡@@
Carlos
收听
违法者
头巾
消遣
茅@@
尤指
拉尼
多氯
真是太
Sec@@
先天性
Fre@@
亚特兰大
印第安
家庭作业
特殊@@
ities
接受者
径@@
碘@@
数组
汇兑
眼球
Ser@@
钢板
蒂娜
夏日
大众传媒
山姆
枯
停产
缺乏@@
或作
呈文
生产成本
围着
日到
烈士
踏
责任人员
.....
go
西雅图
代顿
去向
法对
MISC.5
凤@@
平日
高价
这颗
字眼
弱小
Saf@@
该校
钢笔
跳动
被保险人
筛@@
户口
现出
502
辩护人
发器
abi
大埔
衡量标准
傲
证言
有线电视
会计制度
温度@@
贸@@
根本无法
二零零五年
弘扬
渗漏
切除术
从速
干得
共和
Wh@@
物色
不同之处
转诊
外交大臣
所罗门
西红柿
划一
动态@@
未婚@@
钛
一书
447
霍姆斯
正由
一顶
虹@@
545
完好
照相
Marc@@
近期内
FO@@
职守
默克尔
彰显
已为
兄
L.33
雄心
奎
另据
初始化
646
Kan@@
投向
一般说来
看清
有种
你家
捆
隐喻
迪亚
表态
轻罪
花儿
老百姓
以新
去年同期
同谋
垄断@@
废旧
396
排行榜
对以
公牛
着急
盘问
捣@@
欧文
改名
只见
米拉
图纸
逃税
那会
安全事件
实用新型
百货@@
膛
专题@@
批评者
光亮
蕾@@
期所
ta@@
不驱
编队
爵
社署
词组
火花
工作室
深层次
作一
瓦拉
陷入僵局
和平时期
扔@@
会否
一段@@
肺部
收敛
张开
恨@@
西装
1160
采购@@
第二位
正交
Kat@@
小行星
盘点
装甲运兵车
穆沙拉夫
犯错
反常
飞快
军事法院
分裂主义
469
受难者
全然
有增无减
old
活化
防范措施
方便@@
协同效应
达赖
再次出现
地站
me
海关总署
小儿
第十五
enti@@
粉红色
民营
隔开
8.4
吉斯
蒙古@@
缩水
玛利亚
较弱
und
技术革新
投行
概念@@
Stev@@
普斯
後@@
廷@@
邮政@@
挥霍
纹理
预备役
橘@@
核国家
颊
衬衣
抖@@
66%
半球
巴比伦
伴有
此信
套房
狮
副手
格言
激进@@
国家队
分类@@
气象卫星
伤痕
校友
积极分子
承担义务
打碎
省政府
罹患
NE@@
合法利益
459
疏远
第十九
摄入量
1953
哈姆雷特
扎实
颁@@
氯丁二烯
酒类
徽@@
高分辨率
觉醒
Jul@@
碳氢化合物
贬@@
外科医生
分给
L.43
Raf@@
557
粉丝
阿鲁巴
卫士
协联
短期投资
低落
多层次
97%
裹
Tur@@
死于
intern@@
Kor@@
巴萨
福克
刑事法
王朝
福尔
748
纲
转过身
制宪会议
西蒙@@
商船
pp
要约
定时
稀有
意见书
大炮
建筑群
创业者
多元性
双亲
虐
高处
维克@@
主导@@
灯泡
me@@
歌词
帕克
通缉
off@@
风景@@
办公时间
昭@@
底薪
商业部门
沈@@
服务局
六点
少年儿童
X射线
一站式
带头作用
TA
轻度
va
狭义
AI@@
惑@@
荷尔蒙
纳尔逊
霍华德
怕@@
发送@@
貌@@
荫@@
赫尔
畜
干吗
该州
管制系统
勘测
那不勒斯
508
公义
诺贝尔奖
简单@@
喋@@
老妇人
深渊
广度
小朋友
蹦@@
联塞建
服务水平
橄榄@@
och@@
泄
折叠
484
潭
农民工
8000
对外@@
剃@@
出新
流动资金
鹿@@
外来@@
已到
各条
军团
Hy@@
与此相关
单单
38.@@
一桩
到场
核威胁
国务部长
职场
五千
表示@@
民生
NBA
远程教育
席卷
肃@@
匈牙@@
忧
舰@@
备抵
XXVII
喉
各家
这首
洽谈
碗@@
耀
呕吐
50.@@
五人
放贷
梗@@
625
约合
另一家
050
滑动
联危
救济金
遗传算法
散居
伤害@@
五点
管局
阿美
吉尔@@
付出代价
四岁
反复@@
L.42
信使
乔治@@
魔力
轮子
领导职务
何等
尔森
中等@@
哪种
勘察
芽@@
AC.96
毫无保留
胞@@
曼哈顿
政府@@
剔除
误会
卫生间
把戏
正确方向
第三份
具体办法
闸
汉字
阿姆
CAC
入息
寡
优秀@@
脱落
布干维尔
ors
穷困
日落
存续
普惠制
通用汽车
里程
四肢
反应@@
工程学
LO@@
结壳
表达方式
472
一心
筹
恢复原状
纺织@@
交响@@
平面@@
空虚
交易员
栏目
氯化@@
790
发运
逼迫
头盔
切合
伙伴国
522
育龄妇女
符@@
行情
停职
毛泽东
远东
笼子
编造
弗洛@@
托雷斯
操作员
照着
边界线
学习网
中亚地区
计价
受聘
89.@@
婚约
年数
边界@@
木板
花旗
财团
份量
荧@@
吵架
公债
ast
洗涤
赢家
干旱地区
ando
踪
争取和平
质询
搏
高品质
堆积
1A
磁性
疯子
招聘@@
0.1
究
恼
ial@@
511
联邦调查局
乱伦
债券市场
油轮
718
熄灭
骨髓
螺
乞丐
第一副
统计分析
ili
尊贵
符合规定
决策人员
苏人解
苦苦
阴暗
动性
运公司
迟延
攀登
孩儿
上天
第二代
AD
Nas@@
荷属
二日
寺庙
堵@@
森林@@
残留物
叙事
课文
金刚石
账务
伐@@
Ari@@
危
柔性
几起
鸭子
六十周年
常数
公路网
攻击者
瓷@@
优越性
嘉
悄悄地
总算
具体做法
热能
懦@@
盼
电脑化
八项
拟出
当着
002
列述
宽阔
衡
无休止
支派
踢@@
福克兰
异构体
共事
迭@@
诱拐
内置
跟前
裁缝
打听
获得@@
罗德
399
这艘
瓦德
495
取暖
戴维斯
锻@@
亚美尼亚人
恳请
接手
棋
饮食习惯
Econom@@
移至
纽约@@
管理体制
脱贫
篷
疆界
区域化
弗雷德
Bus@@
剧场
嵌@@
毋@@
纽约时报
Art@@
燃烧@@
犹豫不决
万能
分局
停火线
公有
炒
钻探
分将
减慢
醒@@
售货员
破损
常有
市议会
进取
一无@@
纷争
526
最强
哨@@
保卫@@
明晰
专业性
用词
亚洲@@
乌兹别克
净值
以待
新闻简报
贝格
效忠
贮@@
还愿
副司长
图谋
配量
魂
霸
约束性
深受@@
相当@@
L.49
国家所有
名前
弗朗西斯
受访
克森
不太好
核反应堆
报告书
模糊不清
储
沸@@
地用
umb@@
涤@@
重整
内分泌
Kab@@
哼
颇具
68%
格兰@@
印度@@
发怒
采购计划
旺盛
子系统
库尔德人
颜料
住宅区
Ｏ
挡住
银行帐户
硬度
短短
巴菲特
具体内容
GO@@
Aw@@
孤身
掌声
调阅
诺维奇
ima
大不@@
用手
打量
客气话
评议
埃德@@
Bor@@
CHW
dh@@
降水
会因
美好@@
第四十三条
三是
略高于
温哥华
循环@@
庄园
L.48
屏蔽
扇门
We@@
积蓄
479
应请
首饰
豹
相符合
马里@@
461
出口商品
秘@@
总付
环保署
求学
椎@@
科夫
遇上
555
开花
客户关系
医药@@
遗传学
通讯设备
第四十二条
Net@@
二元
取得联系
歉意
不能容忍
战略重点
阿德
禽
臀部
喝一杯
压低
调节@@
1591
滋味
俱@@
剂@@
灵敏度
挤出
中环
真想
选择权
家庭主妇
三角形
耍
ams
溅
之夜
体系结构
拉马拉
智囊团
449
退税
514
阿斯
含糊不清
无益
阿方索
奥地利政府
Robert
中所起
911
楼下
软禁
动力@@
河道
960
二手@@
偿还债务
靴
结构化
乖@@
银行存款
增加收入
L.41
葛
警示
胃口
睦邻关系
重开
明显增加
挽@@
tion@@
斯托
人民代表
盏
穿梭
Op@@
DCP
交还
电气@@
思想家
葡萄糖
人时
设计者
逸
信号@@
平和
数项
湄公河
癖
宣布独立
Gab@@
投影
塑料袋
他俩
纪律处分
饶
科比
配给
除此以外
受邀
法制@@
大方
工匠
7.6
对照组
帕特里克
贤
汉斯
复印机
缕
冥@@
固态
四点
梭@@
塞米
管理模式
保守派
状语
海军@@
声响
一滴
滨
威斯@@
oa
岳
奶牛
高手
葡语
惟有
配制
捏造
毫不含糊
锤@@
杂质
XXV
940
面纱
崔@@
世界纪录
多出
拓扑
玷污
481
4.5%
安抚
有效@@
病患
烹调
钙@@
不成@@
对前
平方@@
坏人
丰富多彩
从现在起
督促
供水系统
专为
端口
独裁者
吉普赛人
The@@
布料
电视会议
入选
当值
油画
第一部
城市贫民
媒
难免
上扬
洋葱
儿科
830
家畜
妻@@
上诉人
时起
SL@@
498
辱骂
学术研究
喷射
满怀
上车
CE
进军
documents
甚高频
柠檬@@
密切配合
殿@@
中非国家
IA
君@@
Mel@@
伤痛
出生@@
电视广播
应邀参加
5.8
假冒
每一件
TS
泊车
上海@@
接通
永生
转介
468
净收入
化物
准备就绪
大部份
属地
精力充沛
叹息
其向
言不@@
哈里里
后勤@@
现为
热带@@
当家作主
手术@@
世界秩序
乞讨
辣椒
欣喜
比赛@@
目击
压倒@@
刃
科伦坡
应否
保安人员
喻
心爱
第一件
环礁
并肩
ional
氨基酸
相互影响
XVIII
一幕
周密
同感
一角
撰@@
金正日
草药
名是
476
制卡
泛非
成都
想得到
504
沉浸
摆放
605
艰@@
归来
袜
贷记
偏僻
平滑
分界线
做点
473
ith
腊
梅斯
不断改进
61%
须知
Dom@@
偷渡
新版
ａ
达标
全能
说不@@
正轨
736
灵敏
析@@
心肌@@
细小
程序员
负起
大幅提高
因其
压力@@
艺术作品
铁路网
布设
拉动
收受
牺牲品
尽其所能
eta
洗衣
电荷
怀里
ap
Jab@@
ame
伤亡人数
图示
39.@@
叮@@
idi
越高
敲门
贸易部
斧@@
But@@
独裁@@
难堪
由衷
照样
自治州
苷
发热
德文
未受
务虚会
失眠
Jon@@
忆
非军事
能源技术
体温
og
491
正本
49.@@
欧洲法院
ys@@
修剪
廉洁
杂交
Sus@@
抗旱
瑕疵
对账
452
泉水
赋
药剂师
招呼
境@@
厌
银子
真主
甩@@
往前走
公共事业
不迟于
盐类
马拉松
不分
吸取教训
太远
合署
真话
畔
633
双臂
烯@@
技艺
说不定
城墙
铃@@
搜救
模块化
平均收入
私营化
长江
开阔
信条
蛛@@
拉里
牟利
事务股
467
515
游牧
随身@@
让人
穿透
莉亚
缓减
PD@@
军事顾问
血浆
德兰
酱@@
光子
82%
中央人民政府
纬度
调查队
激光@@
共鸣
乌龟
讳
July
液态
柱子
拷打
营办
记下
常年
鳍
献身
石油换
最高层
537
开幕词
64%
梢
这三项
工业区
证交所
内所载
第一名
7.5%
自上
733
经济指标
总统大选
领馆
租借
分卡
粤@@
林中
可选
充资
现年
Ben
审阅
零售业
儿童教育
L.50
露西
直流
贴现率
炮火
脱水
政治学
大使级
黑板
692
补充@@
太棒了
索尔
aga
Ang@@
XXX
10.1
痰
Add.8
深知
菊@@
矿物质
可再生
ole
畏
那块
瘟疫
清扫
矩形
失业人数
兴旺
无法忍受
双赢
合营
大主教
水力
胜诉
愈加
法律委员会
找回
半数以上
肆无忌惮
____@@
不惜
米德
逛
紧凑
干线
出租人
胀
武装@@
已成
谦虚
该分
学习成绩
463
up@@
辅以
两期
min@@
最佳@@
太阳系
卒
贫困@@
评选
下决心
Gi@@
十字
重担
拷贝
百分之百
任职期间
恼火
诀窍
实验性
倾销
取胜
往事
L.45
ory
轧
火柴
公平@@
尼察
开普敦
482
到此@@
不以
涉
瘘
迟于
之意
万桶
亚太经合组织
税额
顶尖
form@@
喝水
青岛
战略意义
阳光@@
深远影响
外派
荒凉
妇科
围巾
拉登
跃
后台
抽查
预知
表一
航天飞机
2.0
接见
冷藏
iPhone
调派
寸
品格
ndez
AG@@
工业部
抢劫@@
严重@@
Martin
未爆
现实主义
工艺@@
量级
制定方案
提供商
发脾气
可视化
编辑@@
ational
整数
抗争
怪异
Maz@@
弗兰@@
心头
执行主席
路口
溴@@
教区
霉@@
自由行动
加以改进
71%
CN.5
蒂尔
441
阿勒颇
果然
歪@@
L.44
福利制度
实事求是
再造
世界遗产
关在
泉@@
第四十五
腺癌
树干
重负
故乡
率高
代管
拉法
网友
后处理
已达成
钢管
wh@@
深造
骑车
债权国
10.2
雨量
尺@@
波段
运抵
面条
意大利@@
破旧
交错
大奖
基质
Rah@@
新兵
微微
493
多一点
创新型
阁
仍须
绳索
全球@@
晃
房东
静下来
等效
酸奶
前次
印章
往前
464
坠毁
oth@@
营企业
绌
出人意料
贱
位子
幸福@@
疑似
har
过敏@@
二中
72%
计算机辅助
裁判@@
结石
474
手铐
巨大变化
拖拉机
良性
厘@@
两辆
混杂
复杂程度
执行公务
末端
奇怪的是
智者
rica
同等@@
尼古拉
571
二百
总体规划
要死
＇
鼎@@
交流会
ury
茂@@
不耐烦
第四十四条
yn
870
工艺品
耽误
半径
宾夕法@@
转会
过份
存储器
乌姆
公民自由
非常规
米格尔
平方英尺
洛夫
数据资料
双边协议
ico
助产
扮演着
WP
彩票
贝尔斯
学龄前
母鸡
减债
乍@@
∕
高度评价
先到
妳
已作
ig
Sand@@
界别
防御@@
动因
排污
镉
两段
Abdul
担保人
碱性
咨询中心
一大部分
值班
AG
一氧化@@
ista
计算公式
广岛
自此
相识
见识
原油价格
9.4
恶性肿瘤
缺勤
出口额
XXVIII
金斯克
743
担负起
83%
咖啡因
纳赛尔
抗性
萨克
一排
场馆
吉尔吉斯斯坦共和国
osh@@
96%
画像
效率高
硫酸
Sy@@
克利@@
Coun@@
艺人
交付给
肇@@
翅
518
bu@@
地主
非但
九龙@@
Sul@@
ison
驰@@
俾@@
坚
始终如一
老爸
臣
牵引
筒@@
就医
周边国家
匹马
达斯
优待
1390
非常低
枢密院
外籍人
刻意
经验@@
及格
杰里@@
香港特区政府
UF@@
卡罗
植根于
556
查清
裸体
懊@@
时装@@
贝蒂
总则
缆@@
住址
股份@@
定期检查
削
扳@@
联合政府
喝咖啡
guez
当前@@
寄生虫
书上
日致
贸易商
并进
火山爆发
阿尔贝
复国主义
式样
买受人
鲍尔森
犯错误
突尼斯@@
自其
重任
下半@@
民主改革
威德
辜负
棺材
寿
关税@@
一票
希腊政府
gh@@
二零零三年
退缩
栖息地
嫁妆
番茄
谜@@
圆满结束
查莫罗
灭火
普拉
降价
或多或少
机组人员
平稳过渡
反响
5.5%
聋@@
前后一致
收货人
转录
打字机
事是
犯法
若干个
TV
喇叭
复方
斯托@@
橙@@
Laur@@
aj
聘@@
代尔
性状
既定目标
印度教
公理
按本
篡改
打乱
反省
信贷@@
以较
外貌
辅导员
庙
扑灭
伦理学
雇工
2A
拉斯@@
弗朗@@
放款
腿@@
各节
该软件
不堪@@
打架
Thomas
匿@@
海区
败坏
留心
薯
逾越
建和办
昌
南瓜
L.53
公关
撕裂
行贿
两分钟
手脚
书面资料
司空见惯
69%
师生
Comp@@
蚕@@
羊群
支离破碎
联塔
茫
老式
倍增
养分
按期
横滨
携带者
盒@@
整体@@
膨@@
护卫
实地调查
凉爽
小贩
COP.1
韵@@
BBC
持平
报盘
32.@@
皇室
昧
统一性
郊野
罢免
对外部
据悉
伦敦@@
共同商定
软件开发
卤@@
裁武
第五十二
世界级
粗略
指示@@
大学毕业
相互竞争
浮现
神学
韩国政府
War@@
重点@@
英俊
直截了当
宝贵@@
战火
果树
成文法
查封
掏出
巴西@@
警察署
有事
可贵
辽阔
先进@@
泵@@
读完
莱尔
第二十
葬@@
牛津大学
Gonz
应变@@
记号
总统府
化妆
纸质
待决
详细审查
倒下
威尔@@
贫民
国际货物
死伤
牛顿
471
元朗
伤势
操控
ter@@
人口总数
体型
商标@@
548
睁
蜜
夕
报答
摆动
兆瓦
翔
团结@@
丰收
同业
第三种
富兰克林
立宪
应可
聚在一起
献身精神
计量@@
一概
梨
业者
不一
风度
合法@@
海关@@
未向
sec@@
军阀
劝阻
开放市场
袖
无证
健身房
袋@@
无处不在
职工@@
究@@
鬼魂
血管@@
愤
购单
Il@@
脑筋
Bon@@
斯特拉斯堡
十一大
499
语文@@
阳台
奸
L.47
散文
受人
轻蔑
罗安达
闻到
剪辑
531
何不
打猎
捞
履行合同
观察家
安东尼
字节
腰带
果子
仓促
Tri@@
职称
邮袋
Inspira
今年夏天
污辱
衰减
技术手段
狂欢
恩斯
盾牌
保护者
P.4
几分
赔款
铭@@
pa
预备会议
应许
San
癌@@
拾
喂@@
496
叙利亚人
睦邻友好
Nab@@
吞噬
摇摆
滕
领导权
四份
填埋
沃尔玛
可恶
射程
田间
林区
可循
亲眼@@
Lou@@
令人发指
封建
安全检查
ock@@
发自
阿里@@
友好合作
冲击@@
障碍@@
抽样调查
高精度
早起
成功@@
发展潜力
ze
养老保险
CMP.@@
890
亮点
第二组
雄厚
赞许
代办
停用
BWC
三边
阿尔马
粪@@
Convention
魔术
难看
断绝
还称
成员名单
坠
516
渺茫
所在@@
体质
五日
雪花
失败者
休息时间
市价
省市
迫
被选为
煎@@
译本
欢
77%
分散@@
极低
出生地
阿族
暂缓
新法
词义
海鲜
构筑
指导意义
照登
来宾
不足为奇
气愤
1820
续设
此时此刻
同步@@
抓紧
地震@@
昏迷
沐浴
奢华
PV@@
高估
料到
西奥
贸易顺差
反倾销税
纪事
脱节
远期
bert
令人兴奋
中华人民共和国@@
第一任
海洋污染
现将
卜拉希米
角膜
br@@
凯蒂
圣诞树
多尔
十五年
笨拙
出产
第七十六条
团体之间
澳大利亚人
问世
热忱
武术
联络员
尼科@@
高中@@
砷
潜意识
迪奥
售卖
玛丽@@
up
日益加剧
不相容
狡猾
COSP
碳酸@@
肾上@@
推土机
omen
淫
弗雷@@
爱尔@@
忌@@
承载@@
木炭
第二百
私人机构
标语
填料
放在@@
汇报工作
工具@@
股息
切勿
可视
哪些方面
篱笆
搬进
风机
晴朗
494
因在
ays@@
监测中心
纳戈尔
86%
塔什
人权@@
第二批
蔓延到
allah
时间段
醒过来
初步@@
血流
内务
发展观
JP
色调
期初
多处
绝佳
生命线
资源配置
Ban@@
联合国@@
一扇
巴希尔
优质服务
扎克
stat@@
里根
接过
倦
储层
伊特
决策程序
层楼
顾问@@
ien
崇高目标
ations
抄
喧@@
蒙古国
环形
调查过程
74%
军政府
幻觉
盯@@
斯拉夫
一棵树
挪威@@
并称
罐头
蜂
新兴国家
这款
Europ@@
制衡
全过程
莉莉
节俭
勋爵
风俗习惯
551
PH@@
根本利益
扶轮社
相传
酵母
手无寸铁
经济犯罪
迈尔
乘以
财政收入
22@@
匆@@
好几年
强奸罪
几百万
伊万
低利率
探险@@
斯利
泼@@
蒋@@
品位
丰盛
逗@@
就诊
脸部
一栏
侠
腻
亿多
园林
棱@@
si
教唆
无所谓
担保@@
外部环境
恐惧@@
一任
Americ@@
访华
一条@@
畏@@
980
第三十七条
中东欧
Wat@@
情境
提出诉讼
仰
海豹
大都市
电离辐射
终极
器皿
密歇@@
驾驭
第七节
保单
Pe@@
披
破坏@@
受到重视
誓@@
生态学
电视剧
扇@@
100@@
错失
Dav@@
丰度
ake
像素
飞过
刚度
唔
八日
各章
折断
ox
Mir@@
严禁
依托
专项@@
变质
悄@@
武士
殷@@
同比
芳
靴子
富足
末日
0.2%
重创
巡回@@
提要
机车
密封@@
尚存
听懂
弃置
爱是
June
凯文
梦见
应付账款
孕@@
理发@@
而生
翼@@
专家@@
锥体
斯图@@
足球赛
缉毒
身影
绳@@
计时
XIV
民粹主义
新加坡@@
489
普雷
仅靠
欲了解
贫富
流行@@
致富
Antonio
埃尔比勒
Nt@@
克莱尔
3.9
建立健全
于众
私人@@
合剂
少见
552
北方@@
别说
诊@@
三至
火炉
受挫
尼奥
衍生物
蕴@@
iv
鹅
捡@@
谦卑
534
中年
Mot@@
old@@
总线
玉米@@
比方说
百万@@
标志性
病床
法学@@
大吃一惊
独资
沾染
浙江
olo
百分@@
自大
要务
关节炎
贝特
法律界
Ter@@
检视
劳工处
Dec@@
纳米@@
Organ@@
宇航
脂肪酸
催化作用
愤慨
洗衣机
八十年代
赴@@
格伦
尔塔
闸@@
花生
新奇
芬兰政府
公共资源
枪手
言行
ois
购买者
暂时性
白痴
时日
yah
dis@@
不容@@
十国集团
残骸
施加影响
78%
斯洛文尼亚共和国
米纳
点子
一切顺利
噩梦
圣洁
特区政府
拒绝给予
甜美
微乎其微
010
翠@@
贝尔@@
前向
沙姆沙伊赫
不经
迷路
甩
敢@@
遗留下来
最低@@
坚果
用户界面
滤
甚远
谎@@
职能部门
难以实现
中日
涉案
时所作
工作日内
沉闷
生死
失落
沃斯
吸血鬼
正义@@
别名
不定期
公设辩护
94.@@
比特
搭档
迁至
测算
浮标
嚼
联预
拉开
小猫
重度
猩猩
ika
铭
不明智
Riv@@
激进分子
oud
原判
ford
法是
完成学业
空地
下限
有如
无故
趋同
第十六
受难
克莱斯勒
定下
金融监管
阿兰
昆士@@
第三年
大增
生命科学
萨科齐
禁止@@
校园@@
塞拉
凝固
rel@@
行政命令
郁
州立大学
缺血
郎@@
代之以
衡@@
跪
面值
随身携带
造影
专员公署
Tom@@
逛@@
Bank@@
擅@@
营业额
陆港
下图
永
热处理
相联
L.46
Mit@@
扭
痊愈
无机
名言
难怪
ader
漆黑
反射@@
第四十九条
人格尊严
分处
响声
铵
诚恳
经常出现
材质
ous
维护@@
讨好
单靠
岸上
日以
植树造林
冗余
fre@@
就业人口
增殖
终将
多夫
且@@
UNA@@
绘@@
从那以后
合乎逻辑
技术设备
洗手间
献出
往后
asp@@
高龄
546
开明
BDE
oto
流畅
不知所措
AH@@
此以后
休会期间
途经
阿尔巴尼亚族
面料
预发
11.2
十四条
燃气
地问
较之
现行政策
美国市场
所生
锥
一切权利
分类账
cil
马伊
定语
生物学家
纤维素
巴伦西亚
牌子
出走
跨过
广西
斥@@
坚守
93%
石墨
挤满
出手
首当其冲
CRP.4
进城
淋
路段
限值
胡萝卜
撒下
斋@@
苏呼米
种植@@
一月份
明确要求
市内
赖以
岂@@
共同财产
收集@@
基拉
旋转翼
热潮
回想
Lee
疫
免责
两面
上场
转帐
公平合理
赐予
怒气
拨打
霞
勺
荫
查获
惠给
柯
567
新陈代谢
镶@@
军事训练
汉普森
585
GPS
仲裁条款
活儿
拨电话
All@@
追寻
降雨量
class@@
夫妻@@
香港大学
多党
数据系统
TE@@
201@@
关照
基准@@
简要地
乙烷
立即行动
不起作用
同酬
尔格
砾
罗拉
575
示意
汽
妓院
全部@@
Depts
房客
后天
过热
球菌
一席之地
人才@@
缴获
宝座
科罗拉@@
嘲弄
理论依据
国际形势
Pan@@
管子
事实@@
539
CRPD
鳞@@
灌注
Lib@@
区块
炸伤
分期付款
臭名昭著
血性
痛心
物价指数
推展
救治
纯度
衰弱
螺栓
起重机
橄榄球
西伯利亚
Serg@@
暑
西安
贫穷@@
南盟
安大略
更名
涵
口感
交接
SR.2
众议员
海丝特
fer@@
做时
北大西洋
帐务
发泄
无奈
陕@@
重写
釜山
清算@@
结构图
Reg@@
闲置
请教
难关
卑
9000
技术水平
Sin@@
摧残
罗伯@@
第二十四
财政部门
比上
分流
愚昧
这能
休战
加拉
han
Prot@@
古斯@@
地球@@
最迟在
海上运输
增减
劳拉
简陋
净资产
贫乏
太低
co@@
亿吨
ix
CMP
蝶@@
量度
现金@@
辨
侍者
Van
举报人
World
身份证明
不为过
东亚@@
90.@@
供应方
银色
转弯
府@@
奋力
air@@
Hum@@
得体
心理咨询
探照灯
广播电视
光碟
幸免
被关
标出
参观者
援助国
费尔
玄@@
新手
住在一起
人口密度
受贿
纳西@@
早孕
On@@
佐夫
Energ@@
充分体现
七十@@
渗
Sl@@
漂浮
掘@@
代号
红树林
亲友
手提
幕后
选举@@
林业部门
73%
素季
觉悟
社发
2019
管线
一大步
妇女运动
蒂姆
储备基金
Ｔ
污染源
rid@@
交代
衡算
诱因
探寻
财经
诞
正统
弱者
CON@@
慈善事业
渔业@@
但据
读过
利纳
振荡
爱国阵线
无人机
居留权
Secur@@
不分青红皂白
调味@@
投保人
北区
贝利
导航系统
心上
酰胺
作响
刑事法律
飞来
76%
523
国务委员会
视频@@
省钱
电动机
初衷
数据源
非常简单
乘车
Cap@@
点名
表现@@
历史悠久
内核
奶制品
坎大哈
电影节
第七十@@
产业政策
充满信心
生物圈
架上
相冲突
电子化
亟@@
一动
长途
全民公决
特拉@@
海尔
欧洲各国
贪污@@
XXIII
恋人
揭发
New@@
何在
法测定
唑
Company
Mill@@
里德
白血病
930
抛售
触动
个人信息
新世界
粮价
枢@@
源性
交界
似地
电力公司
三聚氰胺
是非曲直
外向
执行程序
天鹅
新式
棕榈@@
遥
复数
iel@@
胚@@
可口
ks@@
蚁
那间
教资会
蛮@@
甜点
脊髓
迫切@@
恐怖行动
世界观
琪
92%
荒
攻击性
消极@@
咨@@
防洪
苹果公司
玫瑰花
瓦罗
除掉
仅以
出口量
Nat@@
举个
它于
明信片
自然而然
本体
DE
ICC@@
杠
网民
公安部
内塔尼亚胡
人民代表大会常务委员会
反应器
各族
宣告@@
劳动密集型
利奥
96@@
年轻一代
公法
36.@@
郑重
蝇
扯@@
租房
519
呵@@
News
舱位
危险品
Soci@@
528
澳新
法证
责任心
527
呈上升
庭院
杂货店
ny
1940
大陆@@
bin
溪
fl@@
尾声
接吻
小汽车
有机物
膀胱
高层@@
取水
5.9
适得其反
生产方式
一步@@
合物
Stanley
阿里斯蒂德
君子
贷款人
僵化
犀@@
七岁
暑期
咯
马西
民事案件
澳门特区
僧侣
omp@@
额外负担
日语
紧迫感
难以确定
紫
行使主权
奠@@
充分准备
猛增
肝炎
应答
皮带
746
砍伐森林
地壳
认清
人性化
一辆车
中尉
遂
剧作家
烫@@
审判庭
帕尔@@
需要@@
佩德罗
报送
78@@
anish
摄影@@
就绪
馆长
武器装备
人大
演变成
增加@@
维克
正等待
演讲者
let
CTOC
妓
乔纳森
费时
妥善解决
平等@@
检举
易懂
Ot@@
填报
任何@@
罕@@
软骨
融洽
赌注
碳水化合物
纸币
叫作
甸
ass
我本
纵火
半衰期
外贸@@
民权
下层
身体状况
眼看
eda
头寸
铲@@
阿斯马拉
英国广播公司
书面声明
殉@@
修理@@
得票
能源危机
自杀式
纳州
富豪
纽埃
磁共振
原地
气动
ona
不象
诺贝尔
饲@@
左侧
数名
CM
气泡
咕@@
恶毒
王储
观察哨
韵
九日
股在
Mahmoud
消耗品
depts
拳头
Tan@@
检察厅
国营企业
自负
事会
接连
搞定
旗舰
惜
edu
优先发展
天黑
卢布
压倒性
Development
躺@@
房门
erson
赔偿损失
爱国主义
多克
捉
菠@@
炉子
至此
事要
蚊
SG
相悖
系统分析
柠檬
同心协力
克里米亚
本该
环境标准
高强度
that
自家
瑞德
风光
炽@@
大力发展
87%
砸@@
第十八
熬@@
Com@@
生物医学
很难说
循@@
易燃
降温
772
劫
展品
向前走
婚后
涨价
计及
庆幸
献上
本意
一端
受命
地同
极地
Bay@@
型肝炎
压缩机
INF.1
功用
都市@@
我想
533
登入
Š
批评家
oug@@
运输成本
猜疑
危难
逆境
旁观者
evi
巴西利亚
enz@@
些年
中枢
汪@@
贩@@
布加勒斯特
工夫
专家建议
瑞士联邦
March
庙@@
刚果人
项目经理
受力
机队
L.52
赎回
发射场
风险投资
LU@@
餐具
传言
光源
F.@@
德国马克
衰
淀@@
过低
不知@@
饭馆
着眼
着火
机电
毛细@@
调整@@
诺斯
语调
倚
一有
美联社
嫩@@
Sah@@
资产阶级
动脉@@
应向
前不久
萌@@
美貌
展期
游离
忙忙
ABC
监理
上应
环保局
杰出@@
New
另类
每逢
联柬
努力学习
捞@@
从总体上
用过
格勒
巫师
书信
76.@@
北约组织
单体
毒气
Ts@@
死神
Luc@@
会前
Naj@@
比什凯克
放大器
摆着
雏@@
慕尼黑
迷恋
起誓
徽章
应激
商机
本篇
政务
粘土
穿戴
劳务市场
副教授
抗原
十五条
乘飞机
共市
aw
538
座椅
哈马
第一号
面目
育种
深陷
Li@@
殊@@
eri
预选
在校@@
漠不关心
摸索
权威@@
兰州
救护
无意识
演练
缅@@
好得多
人未
喝醉
行业协会
线圈
足球比赛
停战协定
排球
童话
上要
哈利法
顺序排列
研拟
本领
穆尔
有理
学好
水泥@@
救生@@
鹰@@
狱
大阪
燥@@
雪莉
印有
驱
锋@@
Add.9
767
住家
李先生
拉赫
缆
雷诺
房利美
731
岳@@
No@@
偷盗
私人生活
Invest@@
爱护
确证
标注
贸易额
多用途
必有
一回
盐酸
强暴
应用领域
捷径
阶@@
学生会
夜总会
ical
反坦克
预售
修改@@
体贴
一般@@
审结
灵顿
与其说是
阔
孩童
搬家
损益
医保
诬@@
伊始
乔丹
洛克@@
帆@@
虐@@
躯体
渔夫
ire@@
幻灯片
曾任
壁炉
庸@@
橙色
名新
中外
行使权力
保护局
特异性
osa
L.51
阻断
师傅
激动人心
疲弱
交通规则
ille
549
重中之重
基亚
羞耻
阶梯
然无@@
简编
实施细则
丹尼斯
人口数量
欺负
联系@@
现实@@
迥@@
1925
利共和国
仰望
蛋白@@
颠@@
源地
林先生
背包
便士
愈演愈烈
撑
人体@@
536
562
筋@@
592
年复一年
治国
证据@@
收于
王星
再作
立方@@
玛伊
闹钟
尼克松
译者
810
接任
大风
配对
印记
不容忽视
制造厂
编印
弗吉尼亚
ublic
鉴
赛场
喊叫
CL
591
April
FD@@
两枚
持股
净减
想不到
彼此间
高企
联莫
股将
涂抹
601
而不@@
流行性
马库
573
哄
030@@
僵@@
哲
MD@@
535
犯罪学
物价@@
足球队
半干旱
旅游局
绿茶
经营范围
ti
集束炸弹
全天
四川省
无穷
Joseph
使劲
传输@@
灶
雷拉
胸前
{
绿色@@
地面@@
渔具
希腊人
eo
583
可使
81%
政治经济
多得多
奖章
红色高棉
Ni@@
德州
佬
巴特
摇摇@@
吸取经验
卡斯特罗
巫术
妇联
里奇
好意
oft
路易
性保健
窄@@
生存能力
通奸
达到目标
急救@@
AK@@
国际妇女节
碟@@
知识@@
uh@@
Bag@@
背心
观测站
鲁莽
Bro@@
早早
mm
重要环节
扮
吉布@@
反面
来时
生来
Jac@@
格利
职业技能
517
天主教徒
挨
协办
模态
哈克
本部
物理学家
服务设施
出院
贞
当期
百万富翁
博弈
船运
846
祸@@
二等
心理治疗
达州
走私@@
以示
乔布斯
业内
成熟@@
梳理
凡事
毒药
战区
2C
脸颊
右侧
当晚
瞧@@
收看
睦邻
无核区
ink@@
59%
哈哈
道琼斯
不诚实
压倒
鄙视
旷@@
正当性
表示决心
Lab@@
预设
怀抱
斑点
中国日报
维纳
各组
为人知
支持率
刘
耐力
贫富差距
ari@@
陈列
失踪案
十几岁
实绩
第十章
医护
录得
XI
联结
打击@@
可不可以
封装
羊羔
西藏自治区
鞍@@
塞尔@@
不如说是
信箱
毫无例外
815
该词
试剂
战祸
德罗
脑海中
酸钠
村落
代数
二恶英
TO@@
嘲@@
援救
萃
有条理
大湖
赞助商
相提并论
机智
贷方
推开
幼稚
纯净
克鲁斯
肿@@
no
母体
最高人民法院
素材
表单
内以
全日
访问者
活塞
激励机制
2100
互联
在此之后
827
学生@@
公路运输
自如
聚一堂
附着
凝视着
保险单
与此有关
坏习惯
伏击
礼拜@@
特例
符合要求
为难
防线
参赛者
立法权
敏感度
毋庸置疑
这么@@
代为
茱@@
国际竞争
北极@@
畅通
暴发
钩@@
大堂
ime
党的@@
地质学
咄@@
cc
催生
零散
页@@
圣者
丹尼
温度计
万象
由本
吓坏
执行者
示范@@
学派
可得性
克萨斯
施工@@
宣誓就职
EB@@
氯乙烯
颠倒
腐蚀性
Financ@@
中校
情书
zh
具体实施
腐化
奄@@
582
四十八条
564
生殖@@
}
优惠@@
沾
上海市
608
海关人员
Smith
技术顾问
RD
方都
蚊@@
SW@@
553
销路
和谈
泰米尔
解职
L1
安息
Rights
检获
res
缉@@
不良后果
企鹅
螺纹
矿藏
暮@@
灵活@@
尼日@@
Mart@@
责怪
年报
准确度
居家
教育体制
0.1%
惶@@
该镇
绰@@
美洲狮
不作
耳机
侵略@@
中国银行
高官
光束
EB
开个
不知道
喜马拉@@
保守@@
生子
联军
正对
动荡不安
568
画廊
火烧
打入
音量
馅饼
John@@
氯氟烃
得救
970
筹委会
分词
燃煤
用车
相对@@
置评
它同
中层
串通
PP@@
oph@@
随信
私生活
河岸
拐卖@@
向东
鸦@@
国民党
相互配合
幌子
47.@@
免费@@
乖
该表
Pro.@@
啦@@
橡皮
门上
民事行为
推高
气象学
钓
HR
SP@@
犹
1800
地球物理
安心
梯子
农历
武库
宗教仪式
铝合金
堡@@
折中
二楼
自始至终
摇篮
序列@@
琳娜
双层
极端重要
Pri@@
纬@@
特意
帽@@
卫兵
值此
划线
另一只
套装
募捐
蒙得维的亚
市场化
击退
班车
工作坊
缴交
比拟
沃尔特
一模一样
中继器
麻醉@@
ry@@
死亡@@
修课
利伯维尔
日光
君王
LA
蠢
职级
远大
毒物
ress
累累
性爱
少年@@
奉献精神
锯
佩雷斯
Sachs
房主
泊@@
叫醒
梅德韦
和尚
溃@@
关系法
仔@@
谓
化学成分
谈判@@
634
蔽
照耀
布尔@@
花瓣
趣味
透视
撤走
相似性
大山
ci@@
核电厂
辩驳
公司债券
参半
哄@@
督@@
宽敞
食谱
新鲜空气
艾德
国际标准化组织
che
erd@@
尚需
喝点
集团公司
高峰期
克雷@@
保证@@
水解
海图
心肌
自治权
理工大学
无一例外
高雅
任由
劳作
禁核试条约
566
筷子
电场
哎
顶上
孵@@
维他命
福克斯
一百万
件数
基多
一列
土木工程
蝙蝠
测量师
房里
萨阿布
路过
128.@@
消息@@
狭小
满怀@@
注射液
草率
电容
请原谅
掩
午
招待费
焕发
切斯特
补足
警长
ight
些许
陵@@
孩
Rumaysh
572
通路
裁决书
江苏
医疗队
入世
商业模式
女郎
捐给
经济核算
芝
ISO@@
凄@@
美国财政部
拘束
姿@@
公用@@
澡
匀支
椭圆
第五十三条
专题研究
职系
垮台
少有
罗杰
司法公正
货柜
活动中心
罗列
几百年
运输业
厚厚的
星际
控制程序
领先地位
带子
手工业
历史背景
幸
调到
幸运@@
由此可见
内特
oub
做会
九十
腺炎
承受能力
发证
解决目前
无阻
置之不理
整体性
严重危害
淹死
8530
637
取得胜利
两处
若要
柑@@
批次
举行会谈
适应@@
乐曲
541
现金流
气压
产生@@
冲浪
鸭@@
每天晚上
顿饭
46.@@
脊柱
木制
金戈
ush
皈依
智能@@
524
报称
以巴
vi
肠癌
一时间
小波
福利@@
低头
蔡@@
类人
乙烯
瞪@@
域@@
溢价
一万@@
精确度
砰
之人
阿瑟
咀嚼
哪些@@
强奸案
大树
外交界
Techn@@
浊
核事故
放行
注册资本
南非共和国
gar@@
人员@@
慕
电解@@
手工艺
非加太
林木
适切
折合
迅@@
多糖
紧急会议
544
减到
IS3.@@
Mont@@
587
只想
acc@@
母牛
Tall
新途径
拖累
cont@@
中英文
格林@@
坠@@
魄
召开大会
邓小平
甘蔗
囤积
紧缺
怜@@
小幅
美援
ron
英雄@@
542
爽@@
打来
诱使
布托
mi
橱窗
保险法
相伴
皮书
圣何塞
惯性
交通部
藏匿
算术
感性
有太多
繁荣@@
一瞬间
大熊猫
水性
宵
杂草
雪上加霜
化学反应
578
价值@@
假想
泻
决策层
成百上千
邮递
农地
匪浅
领到
机密信息
561
松弛
佣人
两岁
Mb@@
有效载荷
海绵
戚@@
Dr@@
普通话
明智地
如该
公益@@
深沉
靡
教学质量
交互@@
aev
ool
替代物
部内
秉@@
卸货
伟人
公务@@
霉
戳
四季
1.4%
579
参与度
维修费
淋浴
龙卷风
November
分之
第三段
边坡
产业化
焦急
不良反应
乌鸦
建议@@
心事
供职
他称
徵
仑
万圣节
近一半
Fern@@
ett
荣获
水印
七点
军区
香草
妄
附带条件
理睬
入境签证
则@@
骨干
先天
瞎@@
核威慑
修好
060
管家
某国
捆@@
唐太斯
558
纾
无忧
各行各业
聆讯
办公桌
名牌
塔尼
不设
入境@@
汇率@@
罪人
远高于
98@@
投射
渔管
基尔库克
&#
西贡
亟须
频频
疽
特人
开往
梦境
革命性
司法警察
心愿
保守党
坯
贯@@
CH
试样
作曲家
印本
额头
碍@@
标书
推崇
内斯
蘑菇
环保@@
两支
EL
处女
上路
露丝
粘度
未见
敌对@@
控制技术
轻率
SAICM
谐
烧结
Wor@@
罐子
塌
流水
阿特拉斯
脚踏@@
裸@@
适中
会于
亚瑟
考评
po
玩忽职守
88%
info
制冷剂
比值
米亚
社论
回购
穗
季刊
萨斯
荷兰王国
非全时
十氯酮
绍@@
光是
凋亡
沦@@
Le
990
刚性
桔@@
徒步
自学
善待
年轻@@
哈里斯
分节
润滑剂
业务费
外商
内疚
怎@@
三十一日
传教士
望去
常态
提取物
无名
静脉@@
紧急@@
类产品
品德
损失@@
转口
收支平衡
六岁
噪
网上@@
候补委员
一味
少许
鞘
真实@@
紧密@@
氰@@
谨以
弥漫
总结@@
严肃@@
训练营
拽
利害
现货
莫尔
钞
窃取
无罪@@
盎司
质地
1.7%
申诉@@
忧愁
恐怖集团
希奇
介词
溯
登山
传入
万事@@
橡树
第十七
令人瞩目
安然
食者
治疗师
就职@@
701
Abb@@
情理
恶作剧
常住
办案
旧约
在案
人力资源部
德森
墨尔本
雪橇
老兄
新高
女法官
菊
武汉
RE
接收器
Kha@@
记者会
不断完善
果园
亮度
御@@
印巴
灭失
we@@
监管部门
药店
Du@@
玲
电话线
10000
克隆@@
露营
刷新
合体
吼@@
鳄鱼
内含
效劳
史蒂@@
觅
毒打
结构设计
盖子
应受
得力
幼年
观察者
建房
斩@@
GIS
准确@@
考查
工作团
纬
降级
音调
本论坛
日才
最远
594
低点
帐号
产业结构
米斯
聚氨酯
放过
上部
小型张
另一端
高度@@
眷@@
捐
翩@@
填满
曲子
冤@@
12.5
大致相同
检查一下
只须
萎@@
携
呋喃
三层
说得对
第一周
允诺
断然
开发部
class3
电费
筹供
产儿
巴解组织
大幅度提高
上表
有位
花卉
派发
拉丁
体育锻炼
一束
西班牙人
二零零一年
中介机构
手工艺品
性情
不说
杜尚别
调查科
下会
抗药性
产品开发
伟大@@
踢球
口供
芬芳
布拉柴维尔
Jenn@@
致癌@@
蒸馏
交流中心
童子军
洗衣@@
管制法
NA
向南
不相@@
最重
2200
Pas@@
加在一起
开垦
注册商标
871
巷@@
插图
防雷
预料到
展览@@
559
女巫
耕
概
fr@@
越来越@@
卡里
替补
Sm@@
持续@@
国土@@
萧@@
来电
管理权
脱钩
车型
高超
复制@@
615
阿尔法
优惠政策
汹涌
查证
安息日
刹@@
打球
ier@@
放出
旅店
营区
会议@@
五倍
坪
意大利人
绚@@
老公
波尔
古董
外边
零票
稀
辛勤工作
俄亥俄州
随处可见
WFP
供需
起居室
慈悲
解放后
色谱法
人及
力行
安全可靠
德鲁
XII
该城
积极响应
稳态
一楼
Fred@@
Office
水龙头
激光器
闯@@
创造@@
卡拉@@
拼
膝@@
渐
做起
饿死
块钱
马尼@@
解密
两款
消费国
里拉
顿时
106.@@
文所载
桑托斯
属下
Sur@@
抬高
Pat@@
Pow@@
此等
原始@@
木工
况且
堵住
注意事项
地球科学
袖手旁观
几内亚共和国
斯托克
二所列
新西@@
瘾@@
驻军
ven@@
妇幼
对人
铀@@
ral
西省
进口产品
梦中
矛@@
笨蛋
休息室
个人财产
93.@@
Jav@@
尘器
剧增
达致
io@@
抚摸
Muk@@
相互@@
一班
79.@@
DC1
少数@@
编辑器
凑
双腿
忘却
濒临
驱虫
ization
547
体能
个人利益
100.@@
哺乳期
连续不断
闲暇
至高无上
互
通量
留守
打出
调任
底特律
音响
共犯
浸泡
办公设备
盲文
电子媒体
翔@@
官方网站
截肢
纳米技术
圣彼得堡
Kon@@
嗜@@
地望
道夫
反之亦然
使徒
峰@@
脊椎动物
法罗群岛
梗死
非洲法郎
摔倒
Abdullah
联络组
交流@@
报应
还本付息
稍稍
两旁
Add.10
或用
执着
补给@@
CS
交回
浓郁
din
著作@@
区划
一第
下行
难者
生存权
563
重男轻女
丧
肛@@
报关
602
际@@
Vol@@
谓语
萨尔@@
632
关塔那@@
切削
法医学
特别@@
扫描@@
在建
高产
卫生防护
每张
华尔街日报
漠视
84%
也@@
现职
广大@@
SAP
细化
杉
阻抗
瓷器
酌@@
辞退
那名
计票
塔纳
金发
脚趾
转速
苔@@
组织科
流放
加工业
审计@@
碑@@
拉斯维加斯
料理
We
class2
Der@@
ega
倒数
上岸
电量
新闻社
净水
贴近
11.1
L.55
一性
闪耀
与会国
You
its
命题
制造者
后院
打下基础
粥
仇@@
吸食
仅供参考
数百人
有条不紊
1455
税收制度
晴
TRAC
醇@@
L.54
水利@@
能比
蝎@@
二零零八年
渲染
铸铁
大大@@
髓@@
藉以
AC.50
冰雪
预谋
消防安全
刀子
何方
鹦鹉
688
藉由
埃里克
清关
币值
失事
备注
Oliv@@
掩埋
ering
受其
默默地
iss
才行
598
藏身
低调
领受
PB@@
利士
时时
维多利亚@@
809
ren
ag
禁闭
一击
Sum@@
Micros@@
惊慌
平等互利
殷勤
先发制人
宫颈
宽大
消退
担
民主党派
记述
1900
商号
置身于
回顾性
民族区域
普遍化
实际操作
自闭症
台词
同龄人
5000@@
解释一下
授权书
开朗
膏@@
家门
碾@@
投资额
蓬勃
115.@@
645
慷慨@@
serv@@
核发
显微
MP
所报
经销
Web@@
小溪
一年@@
埃德
嵌入式
温泉
有点像
火箭@@
忏悔
光照
蒙巴萨
感到@@
RT@@
沉睡
步兵营
谅
教士
一国@@
92.@@
近亲
哈吉
乾
看病
蹄
斯蒂
劳动保护
栖息
启
减产
相容
里海
打包
视窗
鼓舞人心
本行政区域
了个
Tay@@
上床睡觉
牢牢
传出
俚语
绸@@
学界
Rash@@
赞誉
赎罪
素养
孔子
1.6%
纸板
谦@@
专科@@
业务管理
下沉
业务范围
花粉
颁奖典礼
蜗牛
毒剂
首日封
人际
原教旨主义
最高点
书面发言
几千年
内需
樱桃
即便如此
兰特
3G
569
最新消息
诉讼时效
研究生@@
7.7
柬埔寨@@
ger
瞪
网关
Mary
小丑
互动关系
基期
class5
应分
628
James
台站
隐形
727
ODP
继续前进
输电
联通
电灯
Dan@@
重置
崩
住院治疗
非洲@@
1533
拟合
Jan@@
冷酷
射频
深感不安
茫@@
介绍所
马哈茂德
欧统局
阿布扎比
服贸
言词
ito
本局
打折
申请加入
应视
看不@@
娥
Kas@@
蹲
Indust@@
解冻
甚少
麻木
E2
Kur@@
那本
肢@@
外伤
IE@@
瓦特
584
Had@@
维持@@
翰
念及
esc@@
大相径庭
遮住
再也不会
间或
同一时间
543
危害性
懂@@
太迟
女性化
多普勒
643
lat@@
流氓
AA@@
飞跃
609
违例
看得见
玛雅
联合国人权委员会
成功率
94%
有酬
好感
土地法
XIII
跌至
做爱
电图
书法
挫@@
曹@@
就够
借着
706
心肠
特种部队
新南@@
山丘
拉罗
鸦
谐波
一成不变
有把握
ema
法定代表
再来
576
简略
海法
特别法
商法
ions
黑山共和国
封建@@
布赖恩
class4
乌克兰政府
CI
科学依据
专利申请
par@@
还债
两块
reg@@
辅
所需
装在
状态@@
树丛
Kw@@
坟@@
嗓音
宝藏
能源消耗
排外
作业@@
掉下来
冰冻
人员名单
摇头
43.@@
将予
所见
酰@@
88.@@
骨架
凯西
飞地
回忆起
寄出
小组@@
嘶@@
耀眼
出租@@
稳定局势
毛发
边防@@
乡间
自满
最低点
美元汇率
酵@@
611
总金额
请来
ets
钢材
科特
杰作
积存
.8
母亲节
新品种
Sel@@
几内亚湾
服务行业
宽广
执委会
不绝
应聘者
条为
云层
极佳
心声
孝@@
电击
英格兰@@
精品
除以
定单
多加
政治体制
慧@@
打招呼
588
声器
如此@@
扼@@
捏
同僚
Ａ
清白
贪污腐败
故障诊断
饮品
集成电路
共度
薯条
人类文明
其有
琐事
故事@@
COM.2
前门
幸福感
积雪
干杯
谕
离子@@
不提
尼泊尔@@
公文
586
共产@@
非同寻常
菜肴
压缩@@
最小化
随附
啮@@
失职
迟疑
含铅
之以@@
ih
648
选任
间歇
轴向
致谢
三百
人类@@
改变@@
缓冲@@
闪亮
智利政府
早前
蹄@@
596
排减
惊吓
逗
红海
杰宁
软件包
附加费
到时候
供餐
同声
抚养人
嫖@@
休克
绵
L.56
利于
BR
山东
1747
无端
554
鲑鱼
事务署
用金
出乎意料
该机
古罗马
实惠
数十万
孩@@
数据管理
长足
交朋友
美方
凯利
落空
零食
多种不同
组应
化身
Silva
代词
助者
成衣
多万美元
半月
绑@@
相撞
成本计算
蓄水
那好
活下去
试探
养院
舵
仍能
骗局
相聚
失去@@
Yus@@
福岛
想像@@
Hold@@
空中交通
深为
剥离
即期
族长
测器
显露
财产权利
讲课
中立性
来港
谈判者
自治县
NA@@
特制
VA
托盘
限量
神气
抵挡
战地
滑冰
030
筛
在世
权是
摩苏尔
第四十七条
omm@@
寨
aba
供暖
保险人
Cla@@
脓@@
谋取
OU@@
热点问题
大连
精良
超时
护理人员
董@@
五角大楼
趋
883
其他@@
观测@@
抵押@@
政界人士
基斯马尤
塞进
淌
Haj@@
妃
良好基础
晚安
幼儿期
0.3
塞尔维亚人
616
编第
合在一起
来得及
木质
之于
L.57
或分
辟
难以想象
有待于
Law@@
迪亚@@
COP.9
781
防腐剂
记录下来
联邦区
姆巴
现场@@
棍子
iew
1.25
604
香肠
姆贝基
Mou@@
asa
毫无道理
玩弄
救赎
写字@@
而战
富集
对经
地是
无酬
ian@@
分送
编码@@
发亮
卫生机构
黑白
A.2
间隔@@
明确提出
水土流失
判断力
势在必行
参考价值
橡皮@@
舅@@
传译
点数
米奇
SS@@
绪
683
瞧瞧
亮相
谎
Hor@@
顺畅
太少
形形色色
炼油
象牙
网点
养人
PBC
避税
机率
矿场
更多@@
甘地
探雷
心底
禁飞区
DLDD
钳
消减
模棱两可
清查
45.@@
缠绕
期终
IA@@
遮盖
骇人听闻
盐水
深重
基本面
0.3%
空军基地
摇滚
出生证
早年
催促
第二十次
畸@@
渴求
草图
不管怎么
个体@@
挥舞
衍生品
休养
踢足球
行政责任
食用@@
网络空间
黄河
910
登记注册
Programme
盗
朗读
无数次
查韦斯
机上
货币贬值
民调
哈斯
贿@@
公积金
阿斯塔纳
克里斯托弗
法兰克福
人到
Dep@@
一块儿
代表@@
May
风雨
女职工
涅斯
昨天@@
直接对话
巡逻艇
大气@@
首份
橄榄
IE
626
扎尔
教官
不育
总司令
不胜感激
讥@@
敌对行为
监测站
企业主
谈过
胜出
巨星
1541
689
反垄断
扫描仪
月经
笛@@
艳
澜
狭@@
诸如此类
中外合作
权势
行政官
技工
经济性
催泪@@
颁布法律
铁丝网
西藏@@
弗莱
甚为
奥尔
铁路@@
单方
营商
当面
大蒜
641
复制品
药房
iw@@
class1
可逆
考察团
校外
December
钟声
Ka@@
无止境
节约能源
为重
江河
统称
咆哮
专门@@
不振
凭着
感化
输血
茵
推荐@@
飞行@@
公立医院
长着
水电站
致癌
罢@@
栓
ym@@
1400
缓缓
值得@@
为名
布伦@@
远远不够
零钱
欢笑
层次@@
肆
第三代
急迫
别克斯
交换机
深表遗憾
宿费
划出
oma
星级
趴@@
电容器
笼@@
ula
574
589
嵌
扫罗
转折
东西方
钢琴@@
改革@@
Bah@@
降幅
共达
数控
虫子
表皮
高高的
自愿@@
美国家
不着
石灰@@
布罗@@
药材
神色
亵
伤疤
号案
古巴人
鲜血
不胜@@
属人
文本@@
我花
way@@
伊斯@@
经审查
感觉@@
孔隙
635
街市
粪
坠落
链条
一家@@
装货
报告会
Ju@@
雇佣兵
支出额
一点@@
无事
单身@@
置疑
快递
水箱
Institute
认识@@
原发性
脚踝
下雪
劳伦斯
有钱人
欧国家
搏斗
斯雷
赚@@
ENGLISH
深思
抗菌
时不时
多多
昼夜
耶利@@
跋涉
ato
王先生
收发
套管
万人次
较晚
大地测量
帅@@
停靠
yl@@
播放器
主编
嗅觉
仲@@
oon
踪@@
中列明
博爱
几代人
莫雷尔
史蒂文
睡衣
质问
就近
惊醒
oni
道格拉斯
引向
BI
灌木丛
Est@@
救命
资产@@
剩余时间
非盈利
回路
惋惜
无所作为
翠
催
切片
冈萨雷斯
年版
拉尔夫
镖
龙虾
产品设计
精心@@
喷雾
⑷
Han@@
键@@
幼虫
凯恩斯
特曼
757
女方
残废
esh
裤@@
制药@@
窍@@
581
账面
更有意义
官邸
计算机网络
α
迫不及待
裁处
080
年续
arb@@
名女
8.6
惯
核大国
公开性
出庭作证
磷酸
挥发性
安德森
官僚主义
挚@@
戒备
婉@@
燃料@@
葡萄园
主修
供述
低压
双边贸易
踊跃
慢跑
疾病@@
事件@@
有多@@
je
档案馆
部副
不容置疑
善后
事实真相
探亲
惊异
0.00@@
灯笼
邮件@@
加西亚
生子女
放纵
实践@@
千米
帕斯
收复
欣然
羞
中子
绝缘@@
瑞士@@
手提包
NP@@
健壮
值得一提
无与伦比
Tu@@
毅
我同
面子
未用尽
法团
停电
项所
您@@
供款
仍感
马德@@
606
词句
没有@@
就业部
总需求
合议庭
汉城
风扇
有朝一日
被选举权
沥@@
手掌
1.3%
旱
有鉴于
电离层
锋利
实践经验
船主
论处
ares
寄来
应急行动
结识
价位
光顾
爵士乐
窃贼
珠儿
社会规范
发行@@
副词
应缴
尽量避免
一九九九年
高声
三百@@
减退
并行@@
兵营
罗姆@@
弟@@
痉挛
集市
估计值
扔进
哟
指头
保佑
启程
精选
丛书
交配
COP.8
木柴
复杂@@
宗派
主人翁
Tak@@
颜
凡有
tiv@@
飞速发展
石油气
1284
嗓子
离心机
透镜
2.2%
瑞银
费城
墨西哥湾
日夜
595
买来
89%
中华人民共和国政府
雷德
雄辩
艾米
趋向于
弗朗索瓦
ette
稳步增长
一些则
领会
揍
第五款
敷
边界问题
专门化
Can@@
渗透到
仆@@
恋@@
泛亚
一贯主张
特勒
多谢
设计阶段
潜水@@
越南政府
诵
劈@@
贫瘠
比作
十二日
Arm@@
一堂
录音机
脂肪@@
未指定
Kl@@
词汇@@
南区
奥运@@
殖民化
很早
共生
Tam@@
相对而言
佩斯
吉尔吉斯
附庸
科多里
公路@@
两端
图书@@
买到
金砖
雷特
授标
湖南
社会效益
宾客
一派
身于
传统观念
女婴
收盘
都行
二审
胞
厅应
动画@@
哎呀
印证
1.8%
幼儿教育
多媒体@@
摩托@@
逃出
重大损失
食宿
и
昏
妹@@
观众@@
沸腾
窖
中央委员会
准将
到期日
一世
十岁
勾
陈先生
新药
白雪公主
电传
戴安娜
Gor@@
法律手段
编成
Ped@@
593
为时尚早
亚马@@
强烈呼吁
相形@@
东方省
黯淡
人寿保险
Hg
电池@@
饷
螨
一个男孩
弗拉基米尔
躬
血液@@
特斯
1.2%
February
尼古拉斯
德里@@
调出
液晶
wa@@
将视
不合时宜
随心所欲
大屿山
自治机关
相配
胶片
番话
凌虐
1B
两样
亚特
10.4
出入证
单人
重要文件
以该
ORIGINAL
共向
为性
住房条件
长于
圭@@
公共设施
涡轮
巡视
欢快
个人所得税
农民@@
无缝
写字
Eur@@
联几建
工程设计
兄弟会
总务科
一大笔
IB@@
格鲁吉@@
摄氏
拖网
自信心
各该
ê
明媚
签字国
iza
阿斯@@
77.@@
哈拉雷
ins@@
萨拉姆
观望
海外@@
十八个
倾
全家人
时刻@@
满脸
相貌
简明扼要
生产资料
非常容易
起动
矢@@
硅谷
弊
主席@@
回馈
间断
雨林
荒野
第十一章
私家车
支气管
粮食@@
下均
相威胁
蓝天
推力
汶
丁基
碰上
总区
骑兵
钻孔
自杀@@
可于
箴
Bh@@
楼层
会堂
贮藏
高度赞扬
蚤
征召
油污
柳
瞥
发起人
算出
这栋
没完没了
ign@@
供认
de@@
其新
德纳
近些年来
统计人员
amp
可憎
地理分布
大学教授
Ah@@
LAu
达共和国
Bat@@
基础性
赛义德
有失
主人公
快到
伊朗人
夺回
走走
IPBES
迎
Gra@@
非关税
英国首相
毒理学
国际水域
Tom
ye
临床试验
射杀
AWGLCA
河内
十九@@
支持系统
手写
海鸥
电脑系统
分形
伺服@@
议事日程
一伙
地球表面
伤病
宠
倒入
义工
勿
东京@@
新鲜@@
抗震
我试
两方
本市
终端用户
玩得
不前
红外线
退职
政策方针
抛开
然大@@
阻燃剂
增产
我于
品牌@@
祷
有误
争议性
蒸
对来文
人案
如为
喷发
税制
控股公司
令人担心
维利
插座
厉
兄@@
ity@@
报上
打消
一夜之间
世博会
文化差异
民事@@
陶
外援
女同性恋
无核化
神职人员
无所事事
建筑设计
女主人
梵蒂冈
社会性
试卷
需求@@
iga
单片机
公道
只为
涉外
控罪
资金投入
你别
请勿
背着
举世@@
声波
对阵
檀@@
峡
决意
当有
时报
三重
据统计
眩
飘
教给
577
上时
缴税
数位
无论怎样
食物链
货船
波音
姨@@
走了
恩赐
Hol@@
自尊心
曝@@
爲
购入
广为人知
多亿美元
一出
六位
稀土
636
Hus@@
斯塔尔
LAU
拙@@
ovic
642
记帐
前端
物质条件
财政预算
波斯湾
91%
丽斯
GEN@@
强健
亚语
失窃
环经
晚年
佛罗伦萨
呼喊
各样
聘任
心存
二字
618
红酒
无不
角逐
貌似
列祖
多美元
印第安@@
惊叹
YouTube
览@@
肤
从未见过
热诚
视乎
米饭
双轨
滋润
处理过程
宠物@@
被申请人
风速
安迪
流浪@@
与世隔绝
取得成效
737
达到@@
曙光
span
供货商
非全日制
GC.10
665
菌株
Zah@@
725
622
憩
自助@@
传记
喝杯
喝茶
AWG
叫喊
递减
每吨
上帝保佑
高中生
继电器
供资@@
712
视像
军事冲突
驻守
1.0@@
各份
presidency
chinese
翘@@
776
订出
之争
明尼苏@@
熟人
September
卢卡
脱掉
开诚布公
599
清澈
男女生
Research
老兵
ouse
哲学@@
科室
罪过
军事援助
1.0
不为
安的列斯群岛
俄罗斯政府
几处
984
国有化
2.7%
絮@@
置换
地想
抚
中秋节
马桶
CRP.5
殆尽
法理
个儿
阵容
拆解
清晰度
市政厅
745
Cos@@
Ma
推进剂
aro
如意
推进@@
民主运动
电路@@
致病
混为一谈
上半@@
布雷@@
粮食作物
大力加强
一阵子
谦逊
笑了@@
滋
加快@@
嘎@@
迁出
布利
Rod@@
每分钟
tions
休闲@@
读写
行李@@
经费@@
生意@@
碎石
业务部门
多亏
头等
响亮
流程图
严惩
项目组
抒@@
小说家
抽象@@
非法交易
一百年
代言人
ran
叠加
明确@@
TH@@
钻进
押金
减价
20000
减为
出动
国际交流
郊外
几张
阿片
刻不容缓
告诉您
万军
录音带
跨度
手来
Jacqu@@
布图
TE
BT
丙烯
aut
绿线
人造@@
777
加强监督
有生@@
媒@@
sha@@
一刻@@
民意
跪@@
迟早
核能力
倾诉
以有
October
全书
同义词
苏莱曼
文体
2.10
小心谨慎
克里斯蒂娜
法系
设备@@
产前@@
陨@@
留待
发电站
Mul@@
抵押品
超人
布莱恩
之举
als
P.1
卡西
Air@@
维尔@@
热烈祝贺
姑
Yah@@
之作
再婚
薪给
贝克汉姆
马约@@
馈赠
Amb@@
聪明人
恩典
表演@@
幸好
更趋
调解@@
增加值
收留
单向
胡图
伦斯
illo
经济部
刺杀
一大群
海地人
建于
誓
乌云
终点@@
赫拉
持枪
职业指导
振奋
探索@@
税收@@
受精
实际收入
合作性
合一
胡须
裸
枯燥
指标体系
宿主
降息
溴化
该信
国务@@
十名
内应
卡罗尔
Mig@@
用户名
上周末
二进制
盛会
第三轮
善用
方应
儿童性
镶嵌
悟@@
代下
带回家
时任
ix@@
诺基亚
强迫@@
卸载
电镀
管理所
负债@@
腱
Steph@@
洋洋
撤
不渝
比萨
协会主席
造价
湾@@
问责@@
ni
居住权
要用
纶
正常@@
十亿
纳米材料
12.2
CB
nes
栏杆
举手
豆腐
新闻公报
气相
十年间
oi
第二十一次
系主任
伯尔尼
医用
仅凭
88@@
地要
池中
素质教育
Notes
1600
雷先生
707
居住者
国都
东海
力学性能
烧烤
选举人
ric
拥有权
Add.11
利用效率
不顾@@
创造财富
合作部
切成
和平区
癫痫
近十年
651
军火@@
爱好和平
选址
漫游
财务会计
射出
619
凝结
绣
不能允许
悲剧性
多党@@
色泽
独自一人
小红@@
犯规
香港中文大学
文字@@
教学法
加丹加
浪漫@@
上个星期
蠕@@
总要
惩
问询
字面
这间
矿产品
娴熟
第五十四条
多孔
划船
现金管理
758
粘贴
0.4%
aq
植树
敲诈
严厉@@
腊@@
麦克风
叔@@
ium
笋
1944
颗@@
检修
公款
离婚@@
标识@@
绽@@
心地
2.6%
宇宙@@
浮游@@
第四阶段
烟气
窃听
引言
接电话
几支
地势
1100
遇难者
不息
九项
供应者
印花
August
Salman
麻痹
几近
裕
抑制剂
Ke@@
楼花
晨
之水
俄罗斯@@
陶醉
内心深处
uf
赫迪
50000
友好@@
624
箭头
录像@@
夭@@
澳大利亚@@
未偿
紧要
犯罪预防
哥伦比亚省
仰光
中美关系
这道
陀
亮光
一粒
with
摇摇头
DP@@
百度
配送
723
迭
教育网
Sa
高密度
优素福
LED
脆@@
工商管理
垃圾邮件
马克@@
伯恩
759
辩护权
国将
美术@@
ices
瓷
迪士尼
NO
一波
悠
诉说
条所列
怒火
乏@@
发火
不难@@
衷心@@
评核
屋内
主义@@
公共场合
聚糖
天主
路由器
柴油机
掠过
屈服于
贝壳
橡@@
填埋场
做工
组群
一九九七年
管理中心
燃料电池
谢尔盖
般地
蕴藏
全神贯注
为数众多
击打
连锁店
uri@@
应先
现行制度
合格@@
ED@@
aci
陡峭
资金@@
宪兵队
污秽
冶@@
洞察力
机会@@
病菌
607
栅@@
工兵
床单
推到
暴露出
1933
介
78.@@
径向
pres@@
办为
呼吸系统
十二年
uma
膳宿
屑@@
市建局
一夫多妻
符合标准
用例
电子表格
WP.1
熔化
非得
妇产科
靶
圣多明各
悔@@
浙江省
榨@@
出口品
Charles
煎
HFC
意象
本手册
要害
理顺
运动场
启迪
阴茎
天花
不分性别
残杀
鲸@@
用钱
迪斯
财政负担
击落
脊髓灰质炎
给人以
荐
公鸡
辅助@@
颤@@
密克罗尼西亚
COP.5
东北@@
默默
安倍
减压
开罗@@
粉尘
凝视
资格证书
象征意义
109.@@
马恩岛
费尔南德斯
免职
有价证券
美好未来
竞相
您好
嘈@@
迅速@@
大王
深刻@@
脱硫
聚居
恢复过来
中国外交部
本国货币
1803
Busin@@
两轮
乳腺
绿洲
卡塔
定量分析
家长@@
前台
紫外
总产量
收藏@@
树下
潮汐
谢里夫
哥伦布
波形
股东大会
7.8
发起@@
无薪
瞎
肤@@
浆果
其事
商业利益
剩余@@
夜空
喷雾@@
高分子
承接
乔伊
好客
MISC.@@
渊@@
后天免疫
被劫持
山峰
悖
商标注册
结交
沃尔
副局长
主观@@
聚类
黑猩猩
书房
梅洛
避
明显提高
CP.16
从头@@
莱昂
筹建
排放@@
愧
DGACM
SI@@
插手
优惠条件
意料@@
明证
优选
PL@@
自由度
IPSAS
说明性
非常适合
四类
各科
造访
入场
战车
Wol@@
猥@@
共振
溶胶
官司
廉政公署
双重国籍
12.1
推介
10.3
休息@@
不端
如其
关进
潜入
外逃
具有@@
水陆
紧急事件
枕@@
主教练
Nass@@
颁
亚州
真实情况
NAS@@
HR@@
化验室
字数
预警飞机
朝鲜民主主义人民共和国政府
Dem@@
洛特
类比
不乏
法人资格
期将
那片
Minist@@
卫生状况
读物
十点
Juan
908
伯南克
aza
卸下
慎重@@
因该
下定义
644
iev
728
科学部
2.4%
萤@@
申办
住院@@
指导性
亚历@@
PM@@
精髓
通过审查
保尔森
保值
财务司
泰尔
地人
面额
手稿
戈斯
ound@@
操练
图中
图斯
厥
744
食欲
战备
摘自
骚动
妆@@
ub
划入
大额
击球
苯乙烯
Bir@@
栅
之势
日圆
涝
货运@@
括@@
和约
挂图
672
科技进步
2.8%
几件
电讯@@
erman
Om@@
湖人
盖销
宪
斥责
植株
整年
突击@@
edo
Inter@@
罗伊
述性
＂
勤劳
痘
887
优劣
公正@@
回声
一个半
兴高采烈
客户机
守护
抵抗运动
室友
招牌
分包商
保险制度
off
ias
亲眼目睹
资本化
修筑
持牌
二至
状况不佳
猛地
有氧
秉持
局在
观察所
金库
沃伦
冠状动脉
长子
国内安全
该团
SE
切口
登记手续
颗粒@@
高跟鞋
对水
无辜者
汇丰
Shah@@
凯尔
003
塞雷卡
随同
CN.10
AU@@
时事
好不好
芙
方法论
奥林匹克运动
怡
Hot@@
探矿者
导性
不问
雨伞
其核
加工厂
有余
888
布瓦凯
杰尔
松树
肿胀
白内障
三分钟
无异于
MX
停放
设于
条是
价格下降
696
容貌
Li
塔克
一事无成
马赛
Sub@@
忿@@
剪刀
公事
茂
私人企业
百分率
96.@@
不妥
无非
摄像头
或次
近身
萨斯@@
翅@@
621
1483
图像处理
L.58
绝地
腓@@
沉着
软化
调低
kov
侦破
公署
北纬
irst
游荡
增生
光栅
壁画
黛
蒲@@
和平统一
帘
安乐@@
约书亚
日常@@
统法
1300
闻名@@
头儿
滕@@
Edw@@
预应力
迁入
Corpor@@
币@@
詹姆@@
评论员
力拓
ork
课时
可见度
补选
Omar
影视
诞@@
Te@@
螺钉
迷你
ust
遥感技术
短短的
闪闪发光
礼节
已然
卡帕
象棋
北美@@
本处
村长
Chr@@
怯
血栓
凌驾于
地爱
79%
USG
711
本周一
军装
不对@@
并经
马哈
拥护者
bur@@
Tah@@
海军陆战队
出其
片子
痴呆症
罗宾@@
沿途
作出评价
极强
于世
英语教学
pap@@
文莱
樱@@
侏@@
被害
今年年初
下未
树种
黑莓
那样的话
各界人士
喜乐
1199
爱德华@@
起诉@@
听不见
宋
主要@@
Sylv@@
哨兵
粒度
红细胞
FA
697
计算器
要命
萨达
ele
Tre@@
杜洛埃
其于
变动表
成群
的士
私利
747
假使
创建@@
通货紧缩
如经
保证书
环境质量
纸条
时节
下议院
uz@@
44.@@
交易者
Ant@@
水文@@
大声@@
SQ@@
Youn@@
藻类
很近
一具
条向
两条@@
黄麻
很深
旨意
搏@@
不光
Abdel
机构@@
长相
重于
顽固@@
干掉
duc@@
莱州
好心
56.@@
卡莱
841
出让
ington
近视
图二
实话
缝纫
喂食
内容提要
二极管
重用
其子
学过
某处
停住
H5N1
认购
至关紧要
褶@@
熙@@
2758
大类
迪斯尼
瓦尼
手帕
lav
酬@@
特拉维夫
D.@@
DTIE
ood@@
泌@@
ello
木星
竖起
生日礼物
欧洲航天局
卫生工作者
测井
囚室
卵巢
渔
ija
坚韧
小鸡
好笑
级联
生活品质
kin
缅怀
㈨
发放贷款
新政
地铁站
class6
反洗钱法
但会
教育部长
ications
921
du
收买
矮小
黄瓜
抵抗力
蔗@@
面容
财年
ath
厦@@
pe@@
613
古兰经
思绪
惠普
接力
利性
666
但本
ux
bo
凋@@
保安@@
Ann@@
水文学
Fi
禅@@
加强@@
765
崇尚
ative
贫铀
社工
782
Od@@
囊肿
载运
per
马萨诸塞州
狂风
深色
僧@@
盖尔
脑膜炎
月刊
巴尔干地区
演绎
论断
Ja@@
太难
新教
姨妈
储存@@
Kir@@
节假日
意指
亲手
迷宫
联邦制
加工区
人死于
MP@@
生日快乐
成问题
亿万@@
高度集中
略低于
806
古拉
经贸合作
风吹
财务数据
妄想
超级市场
两层
朴素
法西斯
铃声
LG@@
神秘@@
ks
语种
栓塞
面试官
开学
何为
鹤
导体
交易会
戏院
爱情@@
704
库尔德斯坦
617
布鲁克
城镇居民
涵义
陡@@
iq
拒不@@
抢走
跌落
蜿蜒
西九龙
异化
械
人工智能
塑胶
53.@@
法律承认
845
喷嘴
发出@@
预估
测定方法
中介@@
吾
前额
所应
ë
统计员
ores
SG@@
现状及
原样
公证人
闭嘴
腹腔镜
痴@@
优先级
等式
老头
服务体系
技术部
殖民者
视觉@@
波动性
聪明@@
数枚
姆斯
唆使
前哨
结账
特岛
阁楼
喃@@
正规@@
山东省
大都会
亚齐
皮细胞
武装侵略
多条
那张
浴缸
消磨
暴徒
条件@@
簇
画出
779
流转
探员
一无所有
美国作家
医管局
恕
研究课题
Pro
架设
直立
互访
申索
警卫人员
威廉斯
恼怒
重获
呼应
峻@@
得逞
灵性
Cab@@
家务@@
太长
删
GL@@
Hussein
658
合营企业
牠
Khane
吉塞
葵
全权@@
节水
玩意儿
等离子
凶杀
排他性
双脚
球形
eman
本赛季
加尔
有礼
政务@@
小家伙
炼厂
椭圆形
日本首相
be@@
自卫权
陶器
曳
即以
oria
uj@@
创造者
电视频道
患儿
缩略语
亨
集思广益
扩增
高高@@
满是
乎@@
020
埋藏
要少
机械设备
咸海
醉酒
几步
轻声
窜
洗衣服
互连
看做
打倒
终身@@
黑市
french
整晚
制导
剖面
署理
事迹
先于
数天
614
彼
颁奖
EM
团队精神
教学材料
埃利亚
毗连
开曼
内蒙古
个别情况
香港政府
退席
恩里克
快活
以本
狮子@@
放任
坚持下去
翻一番
抗氧化
名副其实
可供使用
厉@@
填海
677
掳
弄错
占地
千万别
2B
罪魁祸首
906
不得而知
油管
其同
在押@@
变性人
下院
腿部
以非
二零零二年
药草
痴呆
九次
轴心
发送到
沉船
咖@@
我见
万亿
颓@@
绝食
庚
亚德
耿@@
EG@@
石膏
间距
冰块
没想
做人
Jar@@
战前
覆核
自我介绍
莓
检查官
图一
误用
ive
最美
RSS
数日
发育@@
船东
咯@@
民用@@
CF
论调
躲藏
1920
Global
夏令营
吹嘘
653
不止一次
阿扎
四舍五入
酒杯
SER
不失为
受灾地区
砌
两极
气候@@
中受
幔
摔跤
著名@@
结冰
凸
大会党
不利因素
障碍物
刻苦
换个
门诊@@
汗水
广告宣传
昏暗
新军
宙斯
诺曼
康妮
由来已久
冰山
生死@@
58.@@
中央军事委员会
艾伯@@
玩意
每件事
那家伙
吗啡
马先生
储金
Lot@@
连线
CLCS
785
阿以
床边
直接费用
空委
何必
军法
蒙德
结束语
ff
尼奥斯
社区活动
萌芽
第三位
碌
括
从未有过
考古学家
精打@@
乳制品
那头
会籍
两颗
工作力度
中东国家
消散
检验@@
675
获选
Willi@@
穆德
麻黄素
充分证明
眨眼
琳达
或应
安逸
第八节
95.@@
弗雷
724
挥手
费解
万份
刻板
圣人
常说
太累
3D
人气
癌细胞
骇@@
Moh@@
百草
芥@@
第七十
吐温
欢迎您
搁
相互协作
7.9
斯大林
保护权
623
眷
Singh
Fel@@
五份
含意
858
和睦相处
停工
每况愈下
汉堡包
756
629
chr
同值
之母
毫无关系
里尼
国际劳工局
详列
厄运
足联
老家
刘易斯
管制中心
远非
肖像
774
自首
听不懂
摩擦@@
肩负着
福利院
波兰共和国
接地
银河系
曼努埃尔
场外
2.3%
收入者
Intern@@
邻里
家庭教育
牙买加政府
耳边
厄瓜多尔政府
代表制
597
勇于
救生
敲响
had
耻@@
催眠
逝去
合会
锈
本月底
灰烬
一九九八年
停车@@
合情合理
﹝
进口量
图形@@
OR@@
芙@@
040
雷克
Mar
Trans@@
Committee
鲜有
文娱
大举
合算
饿@@
本批
辈子
装饰@@
喧闹
污染者
可兑换
从头到@@
itz@@
男女双方
705
相互交织
imir
投票率
上班@@
成本低
Carl@@
屈从
翁@@
输入@@
不配
入院
酚@@
资金分配
法属@@
不由
审计处
当代@@
很久@@
马特
燔
Esp@@
国策
138.@@
听过
北半球
令人振奋
爱丁堡
委托书
工种
主耶稣
Dam@@
遵守规则
刃@@
二零零零年
暴躁
678
募@@
顺差
阿盟
白兰@@
争战
三菱
二手
民主权利
冠心病
伙@@
几秒钟
拉希德
12.7
服务社
歹徒
保障法
爷@@
谭@@
适配器
美术馆
绑架者
无畏
太贵
而于
蝗虫
北极熊
俗语
柏拉图
配电
斯坦福@@
北海
有步骤
排泄
哗@@
直接@@
信托@@
自上而下
现行@@
掏@@
买不起
GO
吼
彗星
警察所
捕食
下以
祝您
伸出手
科委
妈@@
罗兰
季奇
专人
摆布
工伤事故
解说
岁者
尽快恢复
服务器@@
车身
突破性
docs
邀约
马里政府
汇合
Bos@@
毛利@@
制片人
表示同情
LH
现金余额
爱迪生
高明
共性
68.@@
养殖业
联谊会
剩@@
冲销
计算机技术
拖动
不予@@
一阵@@
得悉
商业秘密
门人
多维
83.@@
Bad@@
加以@@
0.6%
厨
意向书
预备@@
调频
本科生
径直
领头
午餐@@
启蒙
哈拉@@
加速度
阿波罗
腺素
税费
互不@@
不属
文学作品
间接@@
救世@@
699
强烈要求
摄影机
从容
发薪
土耳其人
醛
阳性@@
Bay
yt@@
河口
治外法权
闭幕词
尿液
Merc@@
衷@@
糕@@
营房
想来
橄榄油
恍@@
家事
CP.10
千万@@
酰
井下
画画
厕
荒地
流星
重复性
第一场
国际局势
一分@@
停机坪
醒目
val@@
799
信息时代
ashi
Fin@@
多所
有所作为
涕
特赦
胡乱
Pac@@
hag@@
苏黎世
击毙
切开
放着
Capital
深刻印象
月薪
访查
这桩
家用@@
时至今日
监察局
AH
美人
悯
普世
约旦@@
文稿
课堂教学
咒
伙食
沈阳
首要@@
日时
Dou@@
推算
狗狗
概念性
墩
眉头
January
牙膏
#.
化学工业
Kum@@
Net
特快专递
chi
兢@@
成就感
理解@@
爪子
预咨
珠宝@@
恰
尖沙咀
年龄结构
肝癌
吓人
蟾蜍
Mr@@
与生俱来
yi
LC
克里姆林宫
ees
通过@@
正经
多种语言
单程
这组
开创性
禁烟
客体
背井离乡
坏死
代用品
沉重负担
统一指挥
销售商
1.9%
明朗
流动资产
化剂
立体@@
甲基@@
分光
伤感
机器@@
罗恩
听器
连在一起
仅能
Pop@@
邓
冠军@@
自问
恭
无序
付诸@@
奥秘
火药
高举
水土保持
大气污染
CP.4
信息处理
瓦朗
奖品
WG.2
□
Quick@@
久远
生物质
一连
COP.6
教条
航程
高加索地区
ori
自给
Internet
得罪
胆怯
下应
驼@@
电子签名
豆类
精神创伤
导线
管理器
罗伯茨
一八
转告
产品价格
轻柔
日趋严重
沉沉
小学@@
始终保持
这回
头目
叁
其以
电镜
752
猎犬
犯罪@@
12.3
民党
A1
蛮
一站
链路
提纲
山西
足球@@
实实
提出抗议
松开
唐纳
社会保障部
梦幻
纸面
巴勒斯坦民族权力机构
外星人
血小板
JP@@
颌@@
闭上@@
奇科
精湛
脚石
George
空调@@
这群
名列@@
大湖地区
务求
搅
668
CP.17
wan
短期@@
萨卡
前列@@
法拉
自毁
停业
乌斯
车门
夥@@
患病率
城内
所得@@
公司章程
乱七八糟
第三天
渎职
宫廷
打篮球
十条
676
闭路电视
楷模
人事司
二者之间
ney
外围地区
弟兄们
牧人
媲美
沉默@@
Environ@@
研磨
咒骂
657
衍射
苗条
迹@@
为什
部应
洲际
地中海地区
Lind@@
广泛开展
操作者
此类情况
舰船
822
质子
剑桥大学
就餐
anov
问题@@
次年
颌
枚举
维德
配料
合法政府
塞浦路斯人
L.61
提拔
克罗地@@
讲稿
伎俩
特惠
1700
千元
依附
改善服务
爪@@
之计
D1
OK
制造@@
法律系
后遗症
暴涨
林业@@
浇水
鉴定@@
第二十二次
肥胖症
生前
Land@@
人民共和国
新星
Aj@@
阿卜杜
ines
女仆
简况
Univers@@
必定会
SM
Las@@
侄@@
二十二
温带
综合利用
宏观调控
732
格兰特
剧团
摩斯
刻画
炮轰
长满
之高
园子
办公房
较量
顺利@@
Mari@@
sub@@
漏油
海藻
颠簸
遗留问题
里士@@
轻便
年华
何以
聋人
不亚于
赫特
卡梅伦
知识型
低效
679
八次
can
显眼
重病
lib@@
算作
利基
708
638
法师
清水
慕@@
基本特征
踪迹
本区
听话
转拨
木屋
Vlad@@
主动性
不如说
专营
军力
成名
名气
砌@@
上能
硬拷贝
地球化学
β
生理@@
两艘
热水器
短裤
泰晤士@@
怀疑@@
Pers@@
Java
赛马
918
萨利赫
友爱
课外活动
侵略性
66.@@
那日
键入
愧@@
两间
非营利性
熨@@
死囚
斯山
端的
口试
及时处理
布丁
Limited
装设
1863
随著
浓密
F3
病态
无法解释
流露出
睛
望而@@
第一家
受益@@
工人党
第十三章
Fal@@
纺
955
诊断@@
终局
送货
讼
标价
旁遮@@
uz
社保
委婉
isi
高技能
继承法
ual
ilo
节省时间
北角
温床
寺院
外邦
吸收能力
声学
nd@@
芯@@
崇
互操作性
工作进度
民事或
L.62
网络服务
坚持@@
离岛
独处
协会@@
Cons@@
DT@@
谢谢你们
宴@@
涸
脾@@
下流
库克
基本知识
工资水平
甘油
终究
基尼
敌机
一劳永逸
海事处
乎寻常
闩
沃尔夫
Garc
我俩
诲
国际货币基金
安理会常任理事国
十八岁
不相干
经过培训
巡查
相隔
号令
thcommittee
起舞
病毒@@
骄傲@@
核酸
ui
电价
可耕地
共和军
卖空
蜜月
着落
居民点
初级产品
洛德
Dor@@
盛开
佩里
rec@@
恭喜
良多
亿至
海南
字幕
淑@@
建设工程
孢子
不加@@
准备@@
朦胧
寄托
丈
专家团
萨利姆
874
贴身
完结
暴风雪
宣讲
拓
苏菲
行政官员
uli
Ker@@
基底
保险费用
不允许
爱意
Brown
挥
珈
照明弹
类集
打捞
焊缝
目的@@
裙@@
空隙
城镇@@
星光
流行音乐
其害
导电
疤痕
迫切性
侵扰
汉密尔顿
所欲@@
严寒
雪茄
扮@@
锻炼身体
反恐怖
孔径
投身
直到现在
保加利@@
681
脚步声
oor
弊病
奔驰
昔
沿岸国
通缩
656
814
唐纳德
lan
暴君
吉娜
647
死刑犯
中位数
修读
腮@@
心怀
电脑游戏
境内外
笼罩着
万件
生词
阿尔卑@@
鞭打
press
氟化铀
患难
非常明显
土星
华语
马斯@@
梨@@
一团糟
不安全感
疆
662
带我去
籍@@
恩惠
合众国
开裂
匹林
尽速
归还给
Fer@@
锂
身躯
统治@@
od
1860
一和二
损及
抑制作用
熏
教育家
逃到
经文
线性@@
洗礼
吸引@@
抛光
保温
水电费
一地
CNN
白领
冲突法
来不及
isco
塞特
GC.11
伤性
喻@@
致信
世系
附在
平均寿命
舞蹈@@
零碎
肋骨
GE
加利@@
地会
梅拉
塘@@
融为一体
傅@@
窗前
微分方程
供作
飞到
搬走
he
东南非
溶性
裹@@
拉索
腐
审校
工业革命
实体法
Sch
运动鞋
救济@@
记念
庄重
Rich@@
无足轻重
电子信息
精炼
小便
小口径
汤米
标有
una
682
盟@@
sk
可用资金
变化规律
岩体
公尺
署名
喷嚏
行业标准
卡通
hd@@
略为
Twitter
性地
课后
选修
治安@@
环境友好
肤浅
2.11
伤亡@@
锈@@
粮食产量
挑衅性
危急情况
威廉姆斯
L.60
拐杖
蕴含
9.6
活生生
保管人
伊萨
破坏力
Ste@@
错乱
一路上
他同
com@@
L.59
热线电话
构造@@
致命性
IDB.36
詹
Sn@@
伪造@@
证监会
阅读器
畅通无阻
投资总额
发芽
627
开户
﹞
奴隶@@
Sid@@
斐
西北地区
电气化
时态
仇
竭尽所能
喷气
nez
策略性
业余时间
溪流
窘@@
道德规范
毒害
壮丽
封存
拉巴
棍@@
想见
出众
马蒂@@
互联网络
电位
刺耳
无济于事
残奥会
中所含
Mob@@
观设计
重大成果
多长
约旦河
郊@@
救出
缄默
舰艇
说真的
让你在
旬
联邦储备@@
罔@@
暇
期末@@
对流
试一试
甸@@
775
不实
Alv@@
St
各党派
最难
团圆
连选连任
完好@@
迎战
详细描述
某物
ogo
初级阶段
Isl@@
传真机
孤独@@
诫
施舍
专横
赎
床垫
感人
斯州
疼@@
憧憬
ASG
652
毛毯
谣
爱着
ult
入帐
不惜一切
阿拉伯地区
地块
膝上型
第一百五十
源源不断
4.10
美洲@@
南联盟
冯
乘船
假肢
南面
10.5
性价比
烛光
秆
连续@@
每一@@
平地
事发
待人
亚裔
评析
早些
深入探讨
传教
绘
conf
交流活动
Dis@@
蒙上
ries
无缺
乌卢
工况
第七十九
国际金融公司
甲醇
Alf@@
Lev@@
层层
遮蔽
ally
出没
德科
明明
费尔南多
赤
方向@@
Management
内贾德
612
Fat@@
列国
警车
小吃
尼亚州
自由基
磨难
装饰品
罐体
喀
尾注
单元格
复盖
水厂
舟@@
修斯
纳布卢斯
浇
心不在焉
污染环境
时器
平等性
抢夺
皮层
搬到
一百三十
Victor
热带雨林
政治派别
十字@@

竹子
口香糖
集聚
曲解
民工
入学考试
Ray@@
EP@@
普罗
____
高薪
加拉加斯
介乎
预兆
ayo
洗劫
祖传
面团
软弱@@
升迁
事故@@
奉命
企业法人
渔场
阻尼
胡同
茅
阳极
蔽@@
持械
磺@@
盎@@
671
集权
性能@@
种族@@
纯化
票房
院内
本院
枪械
Leg@@
记作
亩
Nav@@
朱利安
网络化
运出
派生
假说
成真
SN
Luk@@
广域网
berto
KN@@
归宿
比不上
无可否认
绿灯
饰品
麻省@@
Muh@@
维吾尔@@
875
二氧化硫
费利@@
Cat@@
Nah@@
参考点
Human
水电@@
一大笔钱
孙女
充沛
0.2
拱
771
推车
GC.7
熟练工人
热液
散发出
随从
睾丸
皮质
魔术师
玻利维@@
SR
充气
不明朗
与时俱进
该来文
社会学家
应自
羽毛球
平整
哈迪
质性
诡计
按键
琪@@
GP@@
却说
猿
令状
Es@@
达拉斯
新加坡政府
福尔@@
委内瑞拉政府
oro
狱政
适龄
之分
高能
袋鼠
对养
威望
二十个
民俗
C1
行使职权
长足进展
平庸
数十亿
登革热
意外事件
913
锦
ational@@
供应科
接线@@
每家
并非易事
时用
二十七
2.9%
万国邮联
诉讼案
迪尔
油箱
售票@@
作废
吝啬
马歇尔
实用价值
弥漫@@
瓦尔@@
较慢
复制件
阿什@@
抗病毒
例会
lin
可见@@
络@@
希布伦
可查
歌颂
援助者
发生器
编译器
感染性
塞莱
讨论一下
阻拦
补充剂
免予
为人所知
机型
Commission
ota
加息
721
放假
CP.8
布道
Rub@@
预防@@
单张
加斯
数据类型
跻身
希望@@
传热
UNO@@
变相
不论@@
跟不上
钾@@
删掉
778
伸进
cia
第一次世界大战
废话
该病
比较法
低劣
一去@@
祈@@
雅各布
寝@@
WA
记在
坍塌
法定年龄
笞
售后服务
库尔
Rodr
点半
该节
可接受性
特雷@@
揉@@
现政府
行政权
亚行
安纳波利斯
试验场
监测数据
空格
695
活率
摊位
病理学
三起
ott
梭
民兵组织
联系方式
801
余生
力劳动
跳水
664
颤动
蜷@@
IL
洛朗
茅斯
防腐
理赔
热力学
台湾省
省议会
853
SV@@
来之不易
848
一九八@@
伸张
算了
一分钱
必使
申报表
电信服务
斗士
按着
物权
异地
熵
凹陷
数以万计
开会讨论
喷泉
配置文件
我怕
头号
人权宣言
马利亚
证券化
波利尼西亚
派任
不经意
enda
皮瓣
三角@@
删@@
批判性
吟@@
沙丘
贝里
性格@@
初学者
MISC.1
上映
之事
莫名其妙
抗御
达拉
明确性
comp@@
宇航@@
舒缓
812
敬佩
Wa@@
归为
2.1%
揉
莱克
互为补充
十四日
针刺
已满
787
奥斯
新旧
核化
微波炉
特殊作用
接续
利沙
桑给巴尔
卡拉奇
茂密
IG@@
圣火
间谍@@
因涉嫌
濒临@@
史诗
接种率
外侧
单列
绩效@@
稳定下来
更易
RNA
长崎
蔬@@
莫测
塞拉@@
息贷款
Zak@@
德国联邦
乌兰巴托
真空@@
君主@@
德意志银行
观塘
煤气@@
从本
自言自语
常规@@
泥浆
赫尔姆斯
研究会
mb@@
关贸总协定
热病
oui
折射
Bab@@
落叶
使之@@
红灯
西班牙@@
闭幕式
管齐下
咖啡厅
黑龙@@
下岗
686
十分高兴
饶有@@
权利@@
贴切
练习@@
Georg@@
缘由
ML
ci
毁损
那套
游玩
既成事实
电子数据交换
日复一日
出兵
多来
tive
储蓄率
贪
形式@@
巴尼亚
二十六
Mart
最优化
穴@@
766
新泽西
毫不迟延
作案
水区
输掉
手艺
微机
巴拉迪
捕鲸
劲儿
施展
连衣裙
纳粹主义
报社
建材
667
西半球
归结为
Brothers
ox@@
Port@@
REDD
解放出来
粮安委
敬请
重回
TF
习惯性
十倍
淡淡的
已过
安理厅
法定程序
污点
丧气
技术改造
102.@@
工艺流程
战乱
有的放矢
测量方法
国有资产
任何迹象
阿尔巴尼亚人
倾角
帷@@
ET
信服
有线
原创
ossg
比绍
深入调查
假若
凶猛
俘
以法
编目
弹道
萝
保留@@
性伴侣
仪表@@
哈萨@@
三十天
税收政策
夕阳
龙头
发回
运货
回转
写法
神圣@@
第一代
美好生活
漩涡
APLC
飞速
1921
惇
大学校长
735
适用於
档案管理
房顶
集资
ctc
商务英语
法院系统
洗净
冲刷
遗孀
两台
世界大战
书状
中点
面性
电工
科隆
相对论
首页
实测
迅
结存
聚集一堂
部下
犹太@@
abil@@
变态
捣毁
尾部
熬
狠
孚
COM.3
米特
千瓦
会用
习惯用语
惬意
枫@@
死人
els
691
付诸实践
过关
Rel@@
颅
未收
拆开
可真
ob
对地
每秒
0.8%
行将
轰炸机
生物降解
影院
685
增加数
供热
长发
太忙
华纳
王位
太平
压电
第四批
硒
陋习
MV
利害相关
自费
长距离
格拉@@
639
4.6%
加以分析
蔚@@
EX@@
间歇@@
拉比
人才培养
ifa
纽伦堡
因人
不理
轭
勾勒
田径@@
小径
1502
周全
之源
塞克
年资
泥沙
ement@@
也门共和国
无功
赖以生存
戴夫
T恤
德尔@@
埃里@@
Rab@@
793
道德行为
老大
瞻@@
举目无亲
包装材料
十分明确
努力@@
临时工
触摸@@
鲁滨逊
燃起
煎熬
施瓦@@
得克萨斯州
数百万美元
本细则
亲善大使
太阳光
服务奖
重症
中核
833
调查@@
数据库系统
693
Gonz@@
共创
脱颖而出
粘膜
拂@@
逾@@
赐福
权者
单边@@
要花费
不尽@@
具体方法
奥克兰
oe
第三名
平流层
排气
恋童
耶鲁大学
法兰
暴政
1.1%
MP3
何者
山洞
酸酯
沼泽地
NET
低频
英超
草场
登出
羔羊
透支
上船
而过
二十多年
麻风病
赫拉特
流过
普鲁@@
诸项
Pre@@
迅猛发展
人口稠密
第二步
错觉
死灰复燃
局部@@
itz
遍地
输出国
结了婚
自治法
获发
权法
办公用品
试用期
风貌
那颗
anne
否@@
规划者
人世
拉马
分心
来过
生平
某位
一丝@@
今年初
人住
今年以来
国家杜马
通航
水力发电
投产
线上
真心@@
扎齐
平静下来
第二名
知之@@
她家
西卡
货架
上个世纪
寄予
动器
种植者
通加
要不然
整夜
It@@
油藏
之神
开张
761
行凶
男子汉
amp@@
有机体
内幕
一动不动
只管
埋怨
发布@@
ICC
公共财产
Dah@@
电子系统
唤
沙湾
对表
DT
122.@@
第五十七条
伊恩
海关法
水权
Ra
时以
瓜拉尼
电筒
B2
造纸
感谢上帝
饺子
悍@@
Add.13
称谓
阁@@
基体
封闭式
产品销售
韦尼
二氧化@@
舞厅
ique
国际合作部
上同
703
对罗姆人
篱
活鸡
再犯
转换器
ese
聚物
淋巴结
走运
抓捕
游戏机
昆
四面
援手
奉承
几段
告发
维生
某次
取笑
魁北克省
866
Ga@@
CMW
演唱会
贴现
Ko@@
案头
农业投入
天亮
恋情
维持现状
穿刺
登记表
其二
松鼠
第二级
后门
眉毛
产卵
der@@
放射性核素
华文
赶来
军机
webcast
干酪
秉承
提款
淤@@
算不上
页岩
斯特拉
德克萨斯州
战舰
满足感
大专@@
牢骚
传讯
榜首
未说明
厉夫
引证
碳化物
农耕
陈旧@@
参考文献
约旦河西岸
公交
好久
概数
数据挖掘
奥利弗
654
主阿
sh
753
男方
总结经验
PF@@
那类
圆柱
SD
加盖
变体
报仇
喜剧@@
824
水深
独角兽
不稳
欺诈@@
人比
彻斯特
会合
作王
Gha@@
屎
意念
创业@@
凯拉
缪尔
大麦
Rodrig@@
撤职
COP.2
算例
软件产品
瘫
长成
涉嫌@@
卡罗来@@
联络网
拉迪奇
初选
相间
阶段性
亚太区
传动@@
免征
豪华@@
逆差
张望
栏中
班加西
演讲人
ament
Corr@@
重犯
Pi@@
枯萎
隐秘
滋养
好地解决
先遣队
泰米尔@@
丘吉尔
喷出
教书
ond
流浪汉
形态学
金黄色
全区
酒馆
笔录
计划经济
巴沙尔
Drag@@
不在此限
皆知
再生资源
对接
辛基
放手
涛@@
松懈
综上所述
出局
呻吟
牲口
开庭审理
弱化
喧嚣
粗心
674
受试者
过头
花岗岩
论题
一季度
两极分化
雹
区长
贸易量
啼@@
芬兰@@
北面
PRO@@
纪念封
斯通
越长
aties
杠@@
奈特
渐进@@
推广应用
倍感
基斯
这幢
估
流场
利未人
重来
3A
小山
病毒感染
被告@@
女佣
窟
本题
William
++
移植@@
羊肉
EU
办事机构
雪地
811
睫@@
组将
劳资@@
贺
车速
植物检疫
施虐
歌星
两国@@
宣战
绪@@
文献资料
宅@@
非常感激
搞清楚
iti
原则性
丑恶
非常少
118.@@
干扰@@
中投
斧
教团
Rober@@
阴性
晋级
Peop@@
825
农林
等级@@
唠叨
休斯顿
郁闷
分散化
重返家园
娜塔莎
比分
垒@@
999
炊@@
乐观主义
气候系统
沼气
重生
生出
劳工局
Rev.@@
撮
减员
260@@
药片
慧
鞠@@
动静
港湾
冤情
MB
4.3%
inger
领土@@
二千
攫取
高斯
跳进
举重
797
663
白喉
拣
斯敦
地国
未登记
撤除
径流
花招
同系物
并联
阿塔
所在区域
婚姻登记
专利法
COM
空心
斯拉
综援
亲密关系
不可及
社会党
附加@@
素食
心境
技术指标
中西
神甫
55.@@
侨
出勤
运业
四面@@
升降机
阿尔弗雷
杀掉
商行
克兰
Ov@@
曰
eka
糖浆
妒忌
辑
或性
人身攻击
end
过日子
活在
四次会议
服务生
突如其来
Mark
焚化
承建商
萨尼
第二十一
祝你@@
发行量
卵子
韧@@
Acc@@
测试方法
卫生标准
Prog.@@
许可@@
音译
阿姆@@
丝绸之路
腋@@
财宝
__
衣裳
Abd
英特尔
FC
传递信息
竞技@@
教职员
这般
失利
对案
四所
大步
严重困难
电台节目
异步
国家安全部
羽
洼
ono
奖杯
二名
格格不入
805
JS@@
投寄
你去
投票表决
羚羊
哥伦比亚人
小得多
毯
新一届
不同@@
吨位
思潮
名古屋
具体化
下场
卖主
参谋@@
斯瓦@@
民阵
差遣
背书
ection
月饼
新房
烟火
盼望@@
下手
流器
谎话
小城镇
珊
网络系统
掺杂
孵化
帮手
热狗
修养
Sad@@
聚乙烯
月工资
联名
调速
乳液
交易量
西瓜
Ou@@
伊黎
Rog@@
开战
进口关税
713
系统实施
Hom@@
离校
同等待遇
晚于
少数派
表列出
dpa
三千
清晰@@
羁@@
货物@@
Daniel
后世
居屋
无谓
英文字母
锣@@
疱@@
描绘成
0.8
836
另作
低工资
仙女
edia
风中
702
不见得
卡卡
全身心
过快
祖格迪@@
侮@@
贝德
理科
精神分裂症
治好
南桑威
罗格
销售收入
两大类
迦勒
恒定
杰弗里
Mi@@
光谱@@
损失赔偿
出海
冲破
离弃
玻璃杯
烟花
马德
超级@@
曾一度
袖子
Association
班长
警局
te@@
智能手机
乌托邦
SNA
款所列
很重
轰动
投资收益
石油输出国组织
音节
数十
人格@@
串联
Merr@@
可请
金融风险
意大利语
重武器
Jef@@
宜人
尝尝
PP
拨供
甲醚
繁衍
察觉到
之词
Add.12
......
儒
正同
福建
之列
有薪
124.@@
uba
滩@@
经营权
释放出来
惰性
独家代理
合作开发
ｂ
Mu
萨拉@@
个个
分类法
蹒跚
阿姨
月末
星体
por@@
法兰西共和国
服药
柯林斯
单数
资金流
微调
比利时政府
检查人员
全员
行政主管
多付
桂
真挚
警报系统
专家级
八点
梅毒
而无须
嘱咐
Cs
第三批
安第@@
确凿证据
萨德
强权
作此
Proj@@
冶炼
邮资
进屋
故此
Var@@
avi
不负
总得
黎巴嫩人
aye
物业管理
房地@@
毕业典礼
主动@@
毒瘾
总参谋长
觉察到
渔获量
库里
治安管理
防污
盗用
积极态度
沫
圆柱@@
劳动生产率
毫升
通勤
鲜明对比
株@@
疲力竭
数据保护
款者
上用
倚@@
化工@@
多瑙河
消费水平
人口老化
提高质量
Meh@@
刺绣
004
闪烁@@
刷牙
汶川
ht
东北地区
彻底改变
我读
拣选
寄生
回流
iman
宝库
定做
法轮功
保险业务
痕@@
条及
胜利者
拉拉
香槟
法术
拆迁
循
霜@@
水溶性
铐
Jer@@
天主教会
5305
Barb@@
ubl@@
律政司
No.@@
alia
油气@@
匪徒
监视器
妆
专门性
属关系
射手
必然结果
完美@@
媒体文件
作假
可操作性
美容@@
攻打
蛙
赫伯特
钳@@
学得
胡克
椒@@
穷苦
痴迷
愈发
嗜好
宣
崩盘
向北
吁@@
效法
嗅@@
崎@@
讲故事
还清
眶
ine@@
性欲
孟加拉@@
密西西比@@
逃生
七国集团
中所@@
直销
生机@@
付款@@
游击@@
Wadi
wan@@
印花税
教育资源
新英格兰
股票价格
互助会
病痛
该章
出力
江苏省
轨道交通
立足@@
CSS
盖章
爱慕
落地
期望值
762
Instit@@
3500
CORE
违法@@
第六个
顾问公司
之为
吉卜赛人
勤勉
ska
稻草
开始@@
科纳克里
贸易逆差
旳
罗德@@
专款
措@@
统统
酒后
破解
eck
互联网@@
国力
722
云彩
断面
年度@@
法在
位列
形体
无法无天
除草剂
梅森
咒@@
两三个
民政@@
655
开场白
会议主题
服务商
硕
搞好
褐@@
吵闹
fa@@
外务省
尼卡
应征@@
刘翔
密切接触
付诸行动
相互促进
OECD
吴
Feder@@
囚徒
短路
进步@@
客户@@
关键步骤
B.1
份数
内脏
便利@@
Ok@@
头晕
回顾@@
牧
丰满
别无@@
659
联邦共和国
Lor@@
宗族
Lo@@
储存库
卡斯尔
Lynch
每人每天
入侵者
旦@@
Pin@@
leg@@
城邑
726
0.6
走来走去
书架
起火
堆放
文艺@@
逸@@
演奏@@
ru
心理医生
erc@@
CFC
电子服务
获奖者
不定式
宣示
惧
通俗
六氯@@
一对一
火腿
前进方向
爹
undocs
向型
大专
单价
漂白
吉普赛
历史记录
鞭
引起争议
插头
四届
大亨
ush@@
同龄
攻击行为
传真号码
oli
美元兑
数为
就此而言
形貌
卖家
即该
失真
署为
甲基苯丙胺
Johnson
半决赛
邪
较广
圣徒
双管齐下
West@@
中去
百老汇
豌豆
后盾
空间规划
闲逛
下山
泼
精神病学
之主
人犯
醒来时
CN.18
耐克
胡椒
槟@@
岔@@
活性剂
吞吐@@
实业@@
马匹
816
ICTR
群集
仔细检查
艾尔@@
pH
奥拉
听任
拦住
地图@@
电解
复函
Lim@@
身份验证
光度法
二十三
amba
主食
髋@@
病害
格莱@@
Ras@@
觅@@
多种@@
两岸@@
教学模式
秤
合唱@@
法西斯主义
麦迪@@
俯瞰
不知情
Suppl
发生地
岭@@
称性
高浓度
连接器
Cont@@
羟基
容性
圃
Shin
智能化
开邦
制度性
提案人
奥斯曼
跨越国界
意外@@
拉夫@@
可向
开脱
ates
令其
运行@@
文表
买得起
费尔@@
果酱
提供支援
Saleh
理发
985
所付
污蔑
物证
分泌@@
Cas@@
占有率
湍流
寥寥无几
arah
水槽
蓄电池
生产厂家
协同工作
地政处
表上
联普
收购@@
火热
带来不利
我主
iko
马蒂
喜见
上楼
口述
绝对多数
不谈
延后
灭火器
一刀切
阿贝@@
简讯
该船
频发
调换
怯@@
零配件
橱柜
马克斯
敲打
短程
吱@@
一齐
脚跟
看得出
酷无情
回响
喷涂
谈判桌
低位
挥发
世纪@@
皮毛
新市镇
农业工人
宛@@
乔治亚
port@@
鸡尾酒
分离出来
五百@@
714
剧中
东斯拉沃尼亚
放逐
戴维@@
000@@
计算机信息
提了
马来@@
施肥
联合阵线
风向
暂行@@
肴
引以为@@
苏里@@
酬劳
叛国罪
灵巧
克兰@@
辐射源
随地
王下
65.@@
力场
漂流
劳役
交到
决斗
集中管理
天国
共同愿望
纳特
省会
哈希@@
匿
乞求
一举@@
散装
8.7
民族乡
集体经济
自由党
Bre@@
模式@@
常见问题
笔直
北京大学
尼龙
不胜
层出不穷
美圆
持发
795
嗦
百分之十
懈@@
lo
辱性
安装@@
莫大
一季
格兰
规制
老旧
初创
古尔@@
主体@@
军事政变
蚀@@
计算机科学
消防队
tis
逮@@
简表
责任保险
需经
高发
磐石
ects
绊
三世
钥
荷兰语
忽略@@
环境保护局
输送@@
缺氧
4A
吵醒
想必
核能源
没人能
甲醛
重大责任
Ins@@
耍@@
东海岸
某类
坠入
China@@
椎间盘
庆贺
INF.2
劳累
新奥尔良
贵金属
型态
追索
贝尔纳
渔农
yo
凿
CP.3
游乐场
合器
之年
随行
0.00
活跃@@
电视广告
龟
镇痛
点算
Citigroup
边界争端
坏蛋
斯拉@@
甚或
阿雷@@
贝都
中士
ms
各个@@
安检
工程部
班纳特
杀人犯
低沉
橘
躁@@
可据
试试看
4.7%
前列腺
738
马赫
观光@@
修辞
GC.13
915
经得起
录入
养老@@
科将
两位数
饶恕
民事法律
色苍白
拉赫@@
大型项目
相对来说
裸露
受孕
艾伯特
默念
该报
底座
更迭
园丁
dro@@
Pierre
数百
财长
振作@@
思嘉
部为
涡
地热
受助
外经贸
兴办
多点
新约
附图
布鲁克林
耳光
汞@@
摇头丸
讯号
型式
并不比
心理压力
Vill@@
劳动和社会保障部
当前情况
6.9
威慑@@
英法
走低
788
重新加入
晶体管
975
暖气
每半年
分销商
多重@@
螺丝
消防员
污染@@
开场
安插
取回
煤炭@@
Sci@@
默默@@
和世卫
1936
In
用功
姗@@
至於
收支相抵
岩浆
XXIV
Trad@@
649
苛@@
可调
专才
解除@@
止痛@@
伊利
真有
ns
不应@@
分拨
流血@@
不衰
群山
杏@@
无一
反演
教育界
编外人员
挖掘@@
数据传输
America
发动战争
渡轮
爬行
髓
打折扣
大吉
甚者
奈纳
预告
Morgan@@
珍藏
韧带
拉布
例行@@
惨痛
070
蒙古政府
诽谤@@
弗吉尼亚州
人口众多
抓住机会
理大
VO@@
土库曼
第三级
厢
Virg@@
七十年代
存留
几只
˙
阿塞拜疆人
风情
苏州
军事手段
783
口腔@@
民事法庭
射流
褪色
一次@@
684
第一线
IDB.21
加州大学
多一些
开采@@
圈套
本段
箔
起先
聪@@
占上风
牧羊人
舔
心满意足
不免
高炉
玻@@
珊@@
差分
反革命
SARS
轴线
走遍
837
净利润
3.2%
Vas@@
培训者
教法
维特
怡@@
旺角
离异
聚居@@
4.2%
违反规定
图西
第三产业
路德
中叶
奈尔
多语种
土耳其@@
新课程
749
数百年
投下
698
ww@@
全文如下
可控
指导作用
侄子
工场
看得@@
847
口吻
老天
康复@@
猫头鹰
ž
Fil@@
扎勒
菲利@@
原位
定位@@
志向
咒语
种种原因
装订
BR@@
3.3%
点缀
抛出
愈来愈多
凄凉
版面
里头
人才外流
公车
千万美元
辨明
海鸟
之音
胶带
饰演
ONUB
恶行
英美
调制@@
宪报
陈腐
表演者
向性
ICE@@
基本准则
单行
共同之处
媚
留着
Kap@@
联合国经济及社会理事会
核禁试
事实根据
医疗器械
扎特
变现
主演
肃
弗利
INF@@
务员
席尔瓦
养家
老练
培训教材
炉灶
梦想@@
曼苏尔
网吧
学习班
十二条
取舍
佳节
湖水
帕尔
七十条
Kom@@
不良贷款
彻底解决
经过@@
油炸
轰击
若泽
eau
爱国@@
美满
口罩
水是
艰难@@
非婚生子
选购
开会@@
纳比
西印度群
帖子
tw@@
TT
商品生产
永久@@
气概
阿曼苏丹国
谬误
免去
无保留
穿著
亚伯
路旁
脚印
荆棘
惯用
点亮
萨文比
地籍
Nov@@
流感病毒
769
弗里
公益事业
BUR
凤凰
告示
肥皂@@
沙尘暴
科托
田里
瞌睡
ision
任性
French
李明博
搁浅
802
原始数据
破烂
而至
克劳斯
驱动程序
Fri@@
禁不住
拴
悬
正像
避孕措施
文艺复兴
经贸关系
公开招标
变卖
ED
花边
驾照
排水系统
腰部
本表
69.@@
经济封锁
叛徒
这架
乳头
MO
工龄
盖住
时请
阿诺德
倍受
官僚机构
鲍威尔
追问
牙刷
人想
农牧业
排入
先导
铰@@
飞鸟
主场
饭碗
大人物
骨质
控器
转机
方程式
兜
围产期
白昼
他州
人权记录
巅@@
兮
完后
unt@@
57.@@
Kaz@@
戊@@
蚓
关注点
多拉
冲锋@@
因而是
遣部队
汉姆
伸缩
人与@@
亚利桑那州
接驳
时须
萦@@
牡蛎
周围环境
sd
Ul@@
二年级
Alexander
文科
zh@@
怠
Mod@@
1888
硫酸@@
尔巴
得奖
龟@@
摇滚乐
据我所知
充满@@
疟
缓期
税务@@
新工艺
翌@@
买单
车载
相当程度
mo
协议书
招来
监管局
家族@@
克雷
长辈
呐
解剖学
瑞斯
已予
几十个
同仁
煞@@
生物群
见习
上风
博尔@@
随时@@
之春
斯皮@@
时针
抢掠
埋伏
⑤
命令@@
滚筒
rip@@
古城
eur@@
716
毙
相加
ussian
总的@@
无线电通信
切实@@
处方药
aty
拐卖
数控@@
总成本
智障
伯明翰
入场@@
升降
鲍尔
黛安娜
publ@@
被子
fi
ange
一举
上下班
皂
就行
胃癌
负增长
头脑@@
卡内基
另加
多见
多发
楼面
脱离@@
换来
贱民
Manuel
理疗
Gom@@
温斯顿
逐步提高
Jack
检定
饭后
报税
急性@@
特殊要求
居住证
举办活动
禽鸟
断断续续
创新@@
航天中心
ool@@
文物保护
943
anna
摩纳哥公国
水肿
粗糙@@
拟备
刺激性
无可争议
照常
斯达@@
沧@@
女权@@
一盒
外溢
跳过
幸亏
azz@@
僵尸
探求
会考
外汇市场
741
和蔼
Stre@@
默哀
Pos@@
状体
恶梦
女权
Ahm@@
GC.22
多彩
图像@@
异常@@
查处
主轴
Za@@
Jan
新纪元
植物保护
造成危害
睑
确认书
来犯
分水岭
第二十五次
拉尼亚
穿衣服
大餐
Sor@@
毛皮
程序设计
Ig@@
远洋
新进展
务处
柬埔寨王国政府
驴子
任教
书包
操心
辱@@
事上
分布@@
开源
Iv@@
解放党
两眼
下个星期
瓶装水
交易法
雨天
发炎
Engine@@
804
国所
鸽
电信公司
施政@@
诊室
新闻出版
非地区
大好@@
失措
普惠
桑戈
口水
分批
横田
Edu@@
留驻
民意@@
凯莉
组中
养家糊口
甲状@@
中等学校
多件
民主制
各自为@@
常见@@
搜捕
模拟器
枪声
717
酰氟
1203
分布图
取款@@
shtml
搂
妥@@
3.6%
悔恨
屡
家庭保健
脸庞
前人
代谢@@
调情
有限@@
打中
星云
睡不着
廖@@
烧掉
808
谢克尔
骑士@@
拉各斯
萨科奇
遐@@
天桥
引来
工会@@
磅@@
胸口
伊斯梅尔
台湾同胞
Shin@@
联同
少年人
关系紧张
榜@@
Just@@
无一@@
眩晕
掘
运入
肥力
会来
到手
肆@@
WHO
互动性
太慢
热带风暴
燕
ios
城门
3101
类药物
秩@@
隔阂
嘟@@
库存量
沉迷@@
角处
小河
粘性
根据地
出纳
石灰
加省
豫备
勒姆
特地
讨人@@
命中@@
邻居们
灌溉系统
艰
光学@@
琐碎
方程@@
名誉@@
694
赠与
ius
673
堪培拉
Red@@
中立@@
MAR@@
揣@@
希刺克
拔出
黎巴嫩@@
跟踪@@
不值
木匠
放大@@
接战
此行
elli
贝勒
一百四十
赶不上
强者
阴沉
本可
车手
移走
盗贼
uez
镜像
计划外
塔里
拭
梅尔@@
755
柔
所选
del@@
强烈@@
Nasiriyah
出奇
直面
煽@@
忧心@@
电化学
本地化
59.@@
难事
扶手
131.@@
洼@@
铣@@
committee
ave
Park
明了
喷气式
文本处理
西帝
录象
哪位
跳出
神庙
眼界
诺尔
SEC
哀
活得
真谛
统一标准
睿智
脉搏
钢丝
kar@@
教育学
饱满
应允
日新月异
诉人
无味
万年
心碎
红军
中继
一英里
由此@@
马里兰州
773
耐药性
违法犯罪
国内@@
看得
餐桌上
114.@@
飞机场
无情@@
水瓶
化为@@
厄瓜多尔@@
SR.3
开动
鲨
皮鞋
噜
关系人
东边
宽限期
荔@@
应尽
呵呵
刀剑
漂移
Contr@@
两性@@
盔@@
租赁@@
氢气
没人会
④
奥利
烟草专卖
转业
跨国企业
蹈@@
794
踩@@
杜阿尔特
楔@@
杉@@
街角
纽约大学
009
喜庆
雷蒙德
754
分款
斯汀
缭@@
驱车
维持下去
都是
925
恙
追求@@
拿下
临床意义
呜@@
统筹兼顾
清洁工
中型@@
招供
透析
良性@@
细菌@@
搞错
软件系统
饮食@@
负担过重
管署
体液
格莱
1939
询价
一串
表示慰问
投票选举
飞涨
珍妮@@
仲裁法
粗俗
一卷
通关
离心
腕@@
四章
拒绝执行
勋
早晚
ASP
抗氧化剂
走高
实际困难
留级
瓦内
年生
pos@@
巨大成功
当即
热切@@
庸
猴@@
第一行
709
语用
钼
菲律宾@@
煽动性
渠@@
格罗
中除
储藏@@
林斯
内华@@
讫
机翼
脑中
琵@@
反补贴
最短
泰德
生物物理
信号处理
更多人
业余@@
David@@
反作用
预算案
768
马戏团
拌
eral
克服@@
零增长
中国移动
PD
支用
集体所有
整体而言
719
核废料
如是
工业贸易
艺术节
采摘
仅供
微米
每组
在城镇
流派
4B
卡姆
第二十六次
多州
尼古丁
巫婆
返乡
Tab@@
798
有色金属
傀儡
补助@@
身分@@
734
烹@@
石英
可信@@
人才库
冲压
子里
贮器
就会
扛
ROM
803
狡@@
戊
人子
Syst@@
Christi@@
充其量
意志力
昨@@
ITC
md@@
万国邮政联盟
缤纷
兑@@
工人阶级
阿伦
蹲@@
多钱
第四段
丢脸
翻译出
计数器
消沉
1904
塞夫
远足
未确定
目表
牛群
挪
账号
王宫
奥斯汀
新闻节目
意味@@
我心
松动
先期
逐项
anb@@
三组
霆
躲开
环流
Kim@@
海湾地区
ram@@
悚@@
商业区
单兵
书桌
A2
鼹鼠
趾@@
私事
XXII
枕
壳体
令人欣慰
监听
瑞郎
嗓@@
855
应运而生
离奇
742
琢磨
敢肯定
好了@@
警卫@@
武器库
dg@@
格林斯潘
防控
该岛
外层
窦
泣
脸红
生锈
管理水平
闲聊
莫夫
无可避免
米洛舍维奇
俄勒@@
受性
Sheikh
率低
摩天大楼
籽@@
夺目
民主主义
繁华
阿拉伯埃及共和国
World@@
无烟
0.05
经第
入职
被调查者
煤灰
仁川
显示屏
索赔@@
直率
焰@@
之光
以上学历
摇动
莱纳
心率
就班
无政府
高油价
与其说
Mustafa
PN@@
心脏@@
136.@@
___
Sham@@
另一类
广东@@
体形
河北省
之行
二十日
供方
行销
铲
缺乏经验
外资银行
人造卫星
贵重物品
疏松
L.64
泽斯
影星
管束
好听
斯科普里
假发
碳酸
橡胶@@
贾拉@@
ition
卢卡斯
单凭
from
大块
发行人
拉梅什
新年快乐
体格
顶层
手杖
如有
764
大力开展
十七条
细腻
成正比
抖
人力@@
86.@@
当之无愧
管理学
支部
课外
努力创造
家里人
招标书
NI@@
763
性化
西姆
深表@@
热衷
啶
修订稿
绝妙
机动性
耸
正当权利
犊
工程建设
悖论
Wach@@
里边
一脚
需用
恭维
International@@
大雪
发球
粉色
歉
歉@@
终端@@
实际汇率
争相
筋疲力尽
在读
寓言
莫拉@@
斯说
生命统计
免疫力
overn@@
二十五日
浩劫
深爱
AC.198
逗号
注射器
圣殿
Ze@@
增资
记起
内膜
Deut@@
其受
伯顿法
计算机软件
划归
换上
ign
气馁
一天天
班加罗尔
一提
729
见见
希拉克
一再强调
虚幻
发展经济学
796
CFSP
里尼奥
权柄
意欲
托尔
年仅
淫秽
虞
极性
对核
时有发生
达尼
11A.@@
母性
多国公司
选派
操作程序
既得@@
两根
诊疗
第六款
Den@@
磁铁
不屈不挠
图谱
第二任
货单
合共
Son@@
一株
Coop@@
移动式
雌激素
答辩@@
全天候
商业价值
多得
财政司
韦尔
乳酪
stein
十次
参战
徒步旅行
留任
cr@@
长期趋势
数据表
窘迫
819
纸箱
鼓起勇气
保障机制
彰
穿孔
孤立@@
亚穆@@
潜伏
或本
好书
相距
舍尔
presid@@
出纳@@
事事
后半@@
报到
喝彩
眼部
埃塞俄比@@
回旋
努力完成
色彩@@
XP
修整
菩@@
嗅
方向盘
户籍
惑
及本
恤衫
推断出
无缘无故
个月
change
Deb@@
欺骗性
兰花
西拉
无言
茁@@
过分拥挤
长江@@
Nich@@
Lam@@
公共建筑
空话
数百个
镰@@
瞎子
戈马@@
个人行为
L.63
枷@@
防御工事
讲讲
百分数
包租
帐幕
赤裸裸
强烈抗议
里尔
大到
抓起
利耶夫
苏格拉底
切实落实
病虫害
文所
咸
090
更衣@@
自筹资金
棵树
x365
发布命令
鳏@@
Clar@@
避风@@
淤泥
冲出
门将
Martin@@
印地@@
纽斯
效性
敌百虫
刺痛
归属感
驶过
去处
竖立

芜
孢
浮出
los
东盟国家
eni
各市
差异性
梗
Ib@@
广播局
栩@@
噪@@
军用物资
不满情绪
肋
Fund
其内
伊莎@@
重复使用
792
归纳@@
照旧
DH@@
两句
手柄
院士
一桶
数据结构
流速
桑迪
class7
总体经济
烙印
替代@@
eu
蟑螂
Word
畅销书
房屋@@
alth
军费
僧
诧异
毫无用处
餐饮@@
935
精制
迪亚洛
英汉
心室
子民
bek
均会
倚靠
胳@@
若想
无处
第三句
徒劳无益
病历
伴奏
特克
膝关节
磨削
部门@@
三只
游戏规则
海道
地区冲突
精心设计
协作关系
庇
烟民
塔斯
拉瓦
哈里@@
生根
外墙
互联互通
针灸
小人
新生@@
摈弃
卡萨布兰卡
拖鞋
沉积@@
自我管理
Mass@@
无望
832
脾
一盘
海湾@@
疑犯
泽西岛
寄居
装作
ield
市辖区
发至
杀菌
新泽西州
鱿鱼
提起公诉
宇宙飞船
蛾
微量@@
Hil@@
神像
显明
INFCIRC
轻伤
ram
不好@@
伦理@@
列席
扫帚
摘取
排练
无虑
芬奇
fo
对华
2021
She@@
东方@@
谈不上
881
生理学
处女@@
耗竭
签订@@
退货
违禁@@
简单化
Adobe@@
头等舱
可亲
内在联系
Dal@@
esh@@
物质利益
WSJ
巨大损失
Geneva
强加于人
千方百计
民航局
ovia
4.4%
老院
任重@@
无神@@
公子
容积
断然拒绝
Gro@@
勘@@
嬉戏
比例@@
闯进
道远
蠕虫
act
收藏品
可及
起首
Canal
交易日
避难者
国际奥林匹克委员会
确性
亚丁@@
显着
中所提
杏仁
扶轮
委员长
世世代代
趋于@@
0.0
惊愕
Stud@@
贵州
机关枪
芭蕾舞
现代性
幼稚@@
MIN@@
外交部门
Cit@@
但他却
残余@@
储户
蜥@@
散落
突显出
其是
有制
燕子
75@@
104.@@
商业机构
斯托尔
挣脱
缪
可延长
天平
矿山@@
明文禁止
669
黄蜂
深圳市
差劲
巴利
此法
瓷砖
地笑
南希
萨马@@
拧@@
对空
偿付能力
Iz@@
Jorge
西海岸
撒切尔
讲求
叔
逐
ente
13.1
付账
dal
茫然
头子
oud@@
会想
私募
当真
湖边
第六十一条
被誉为
电子计算机
占优势
另行通知
很想
第五十六条
绷带
allo
体字
兹堡
感应@@
睡得
商业机会
字段
无踪
817
某件事
ABB
提防
偷偷地
崎岖
生态平衡
下水
支护
参加@@
离心@@
描
造船
789
西北@@
面向对象
侥幸
不利条件
狙击手
战犯
Philip@@
101.@@
萝卜
丫@@
纳西
农庄
竿@@
出演
KA
兵团
三氯
1132
葱
期货市场
租住
车夫
一包
吉普车
保留区
高年级
装甲@@
吧@@
编订
传道
主力
卵石
干涉内政
瓦哈@@
小康社会
地面积
贩卖@@
难以忍受
超音@@
只字@@
幼童
HTML
涌向
因地制宜
司令@@
私有财产
实施办法
榴弹炮
布罗克
马力
一帆风顺
平淡
混在
类中
熊市
玻璃纤维
上周四
水费
助人
同届
里程@@
起草者
卡罗琳
腌@@
化器
007
锡安
低得
流亡@@
课上
冲向
降落@@
差值
胶水
这么久
石油部门
冰激凌
下发
eno
Huss@@
精准
Pu@@
den
要钱
17A.@@
旅行支票
悔改
旅游景点
把持
西斯科
驳
和克
期待@@
搅拌@@
透明化
六十年代
大局
北亚
完成率
肿块
万平方米
出狱
体格@@
hay@@
宪制
卡瓦
篝@@
虑@@
预科
yst@@
乔杜里
Agu@@
奥组委
俱
产期
任凭
不言自明
784
治外
三件
并分
舞者
塞尔吉奥
议会@@
马尔科
渗流
辟@@
各种@@
男同性恋
谚
因有
烘烤
曲棍@@
快照
茸
阿纳@@
聊天@@
斯堪的纳维亚
毫
噪声@@
襟@@
问起
荣誉@@
吉祥物
车牌
游轮
拉大
为时@@
避孕@@
玩游戏
塔尔@@
绿色革命
风趣
惭@@
铸件
渺小
HT@@
贯彻@@
创性
人身@@
报告@@
期货@@
颁奖@@
梵@@
泻@@
会员@@
姜
掸@@
桅@@
创始@@
监会
ein
目标@@
甫
踵@@
巴拉@@
克里斯蒂@@
起草@@
une
DG@@
ournal
追究@@
嫉@@
钨
四分@@
矛
适用@@
鸿
全国人@@
眨
拉迪@@
潦@@
西亚@@
lv@@
舵@@
Aug@@
僻@@
对话@@
各项@@
瞻
蕴
Phil@@
歪
咕
悴
穆斯@@
克萨@@
琐
然不同
胱@@
痢@@
移民@@
闯
完整@@
说得@@
嘎
卦
定位系统
盹
般@@
统筹@@
案人
肚
Mahm@@
不懂
稠
含水@@
竿
议事@@
传染@@
吨@@
尼克@@
悍
赘
遏
既往
蒿@@
划署
勿@@
产权@@
膀@@
膜炎
掀@@
海中
葱@@
伽
钝@@
孪@@
妞
苔
违
evelopment
坝@@
狮@@
入量
烛@@
扰@@
钛@@
憔@@
状况@@
丽丝
镁@@
祀
拓@@
舒
TRA@@
搐
吏
oci@@
峭@@
黯@@
稠@@
自足
苟@@
骂@@
健身@@
沫@@
高尔夫@@
彭
惶
奢@@
提出@@
晋
托斯
巨
莹
瑜@@
蚯@@
徐
卡萨@@
剥
普及@@
寝
注目
西西@@
性别@@
漠
移动@@
彷@@
姓@@
法索
囚@@
贸易组织
榈
Fed@@
刨@@
请求@@
牵
锌@@
Ｂ
解放组织
齐兹
科威特@@
魁@@
ustaf@@
忡
狐@@
官僚@@
俘@@
波斯@@
哗
唬
稻
钝
竭
凿@@
赦@@
牡@@
99@@
矗@@
书记@@
邱@@
佼@@
袭@@
蕊
明显@@
选择@@
管人
卯
寸@@
小型@@
仕@@
吝@@
蔑
慎
哥伦比亚@@
龈
蜕@@
斤
宇@@
屁@@
罩@@
瘤@@
占领@@
主持@@
竞
无核@@
蜴
N1
硼@@
嬉@@
忡@@
方人
狠@@
通行@@
簇@@
轩@@
琥@@
阅读@@
炙@@
舷
考古@@
肘@@
骄@@
以色列@@
焰
沿岸@@
澡@@
应邀@@
远远@@
遂@@
非婚@@
攒
怠@@
窑@@
暴力@@
淬@@
如其@@
垮@@
馏@@
编制@@
Window@@
僵
深圳@@
手无@@
窦@@
镀
大幅度@@
资格@@
泳池
劾
回忆@@
镯
调查者
椅@@
暧@@
奥利@@
锂@@
捧@@
袱
鲤@@
厢@@
克劳
沉重@@
竖
俺
强制@@
蜘@@
钮
汁@@
惫@@
徒劳@@
宏观@@
⑸
ency
匪@@
聪
管制@@
﹑
巴布@@
储备@@
尔德@@
兰政府
秃
庇@@
中外@@
葫@@
督
履
绥@@
奥会
另行@@
吡@@
秒@@
婿
券@@
壕
啤@@
当今@@
头等@@
拧
篡@@
苍
溯@@
斤@@
挠@@
虾@@
馑
更有@@
人际@@
媚@@
退休@@
DC@@
僻
俸
喇@@
麦当@@
纵
结为
董
Adob@@
撬@@
Chin@@
生日@@
茉@@
呐@@
原状
兔@@
安的列@@
Á
毕
黑塞@@
锐
潜
标志@@
抵抗@@
尧@@
央@@
踌@@
韧
购买@@
有害@@
Glob@@
嘱
徇@@
焕@@
踱@@
礁@@
行政区域
诅
Alexand@@
侦察@@
茧
簿@@
绣@@
臆@@
奥委会
蔼@@
帝汶
依存
Add@@
提琴
盏@@
恳@@
Pap@@
狐
水器
规模@@
胀@@
疟@@
斯堡
谬@@
捂@@
技术上
郑
砾@@
所为
续性
诫@@
轻重
额外@@
褒@@
潇@@
蝶
产阶级
迪斯@@
嗤@@
搀@@
迄今@@
兄弟@@
雄心@@
啪
吉卜@@
ã
Off@@
发援
今天@@
昧@@
Ｗ
筏
糕
筐
烯
吻@@
颁布@@
瞥@@
贯性
妊@@
违反@@
格达
槽@@
绅
硼
铬@@
斯勒
ｉ
們
诺贝尔@@
啸@@
不复@@
东南@@
分离@@
特别行政区政府
毗@@
皂@@
Ｃ
流感@@
屯@@
高棉
焚
★
琳@@
梳
践@@
疚
敕@@
比勒
宵@@
龋
篪
TR
访者
谣@@
酐
一再@@
胁@@
榨
波利斯
股东@@
圣马@@
inal

碌@@
时性
鳞
洲@@
any
不起@@
敛@@
噶@@
俊
绑架@@
迂@@
戈尔@@
枣
字符@@
剽@@
巫@@
易事
赘@@
濒@@
某种@@
侍
奥林匹@@
马斯
团体@@
堕@@
鹏
辅导@@
弥
阑@@
缎
坞
ï
原体
苣
纲@@
审查@@
性恋
誊@@
食物@@
海事@@
击手
凹
螃@@
周期@@
不经@@
迸@@
西岛
观察@@
嬷
巡逻@@
住宅@@
Vict@@
互通
亚太@@
文法

障@@
布什@@
§
舆@@
长足@@
姻
锰@@
纪律@@
俏
巴基斯坦@@
尼亚共和国
娃@@
卢旺@@
不大@@
à
ission
定书
芦
奄
朔@@
姐@@
些@@
耻
粥@@
特派@@
燥
盥@@
涕@@
薛@@
舅
最大@@
输出@@
策略@@
汶@@
林顿
秘鲁@@
橙
膳
害人
胚
俣
鹫
晾@@
那州
签字@@
躯@@
澄@@
瑙
亚政府
单元@@
栗@@
榴
爱德@@
吁
坛@@
军用@@
穗@@
湘@@
垦
UR
Joh@@
ahim
收率
豁@@
养殖@@
崖
卓
经贸@@
着眼@@
伶@@
腕
莺
固体@@
化铀
苇
芝加@@
欺
夕@@
蹈
羹
固醇
㈩
棘@@
熔
骇
晦@@
挫
Associ@@
多斯
Naq@@
外活动
阿勒@@
斯马@@
捅
钮@@
敏感@@
WS@@
挑战@@
连锁@@
拂
蛤@@
掳@@
炖@@
洽@@
蹋
■
寐@@
咎
招待@@
布卢@@
哝
邀@@
谤
翡@@
釉@@
圭
繁
颚
Micha@@
旷
七届
评论@@
evelop@@
泞
公交@@
外部@@
进制
慈
淹
义词
犁
瞭@@
尼斯@@
佑
阮@@
无几
沸
htt@@
匕@@
庞
富有@@
辗@@
扉
斌
炳@@
双重@@
疵
倘@@
哼@@
憾
赃@@
前后@@
胫@@
嗪
恼@@
瞅
Prog@@
瞒
犁@@
糊口
CN.@@
焙
蟹@@
glish
朽
翘
明智@@
不敢@@
╱
啸
勤人员
锢
内容@@
狙@@
锭
汕@@
鳕@@
源码
俭@@
淮@@
攻击@@
癖@@
眺@@
辛勤@@
..@@
枉@@
兴奋@@
暑@@
苏丹@@
学前@@
袄
脐@@
党人
瀚
Rum@@
缎@@
不在
捏@@
十几@@
椒
檐
授权@@
‰
嗜
禅
崽
禀@@
帕特@@
打字@@
妖
靡@@
攒@@
化妆@@
ight@@
诱
继承@@
大地@@
蹑@@
娠@@
榻
菱@@
盾@@
Hass@@
ø
酶@@
坚定@@
催化@@
熄@@
波罗
拘
稳步@@
内陆@@
γ
禁核@@
纤
丹麦@@
吠
邃
哺@@
岔
不分@@
薯@@
熙
婊@@
居住@@
獭
资讯@@
边境@@
咧@@
脯
傲@@
蛀@@
抑
艾哈迈@@
潢
eph@@
嚷@@
挠
海地区
印度尼西@@
ｃ
豫@@
人节
榆@@
兮@@
赵
馈@@
关联@@
荆@@
绍
履行@@
捐助@@
厩
沼
Stan@@
前所@@
冤
扩
浩
不决
她@@
汪
负担@@
逢@@
塞尔维@@
不在此@@
青春@@
酿
冻结@@
坤
油价格
瓣@@
安提@@
集成@@
侬
缅甸@@
区政府
说是
们@@
葡@@
禾
毅@@
叛乱@@
卒@@
以上@@
灌溉@@
劈
寄生@@
比利时@@
苷@@
奥地@@
饶@@
及时@@
周边@@
慈善@@
吕
筵@@
饥
嫌@@
穹@@
常务@@
嘘
Thom@@
吱
学率
霾
鼎
普惠@@
叼
慑
惚
缅
含糊@@
荚
殴
广泛@@
提供@@
得多
达成@@
蜚@@
交所
刺激@@
绷@@
瘸@@
募
励
之以
铂
昔@@
堪
吉奥
嗒
外籍@@
货人
基金@@
纫@@
袤
杭@@
浚
多边@@
多巴哥
孢@@
嘻@@
亚历山@@
Not@@
拌@@
笃@@
密集@@
南斯拉夫@@
鹤@@
稠密
凳@@
男子@@
慌
巴尔干@@
倦@@
ikh
立法@@
匣@@
制冷@@
疲力尽
￡
亦然
邸
勉@@
装箱
Tw@@
為
魁
藉@@
特网
俏@@
蒜@@
鞑@@
➢
庇护@@
注射@@
哆@@
彬
骷@@
莅@@
瑕
化成
诘@@
躬@@
东南亚@@
埔
驴@@
敝
榷
笺
措
居室
解释@@
孳@@
蓿
焙@@
莴@@
协作@@
负责@@
嫂
辆@@
讹@@
Oz@@
铢
械@@
观主义
茄
帘@@
蘸
照明@@
而知
牺牲@@
重复@@
最新@@
比拉
娼@@
监视@@
涟@@
恬@@
姚@@
工人@@
裕@@
有不同
感染@@
倔@@
奥巴@@
蹭
坟
襟
猝@@
瓦纳
哒
厥@@
DD
消耗@@
Kaf@@
趾
赈@@
谊@@
勺@@
噬@@
酮@@
溅@@
恣@@
牟@@
贝基
茵@@

藜
矣
磕@@
攀
嘀@@
苟
吾@@
远程@@
极端@@
叽@@
婶
一整@@
艘@@
咱@@
Anton@@
臼
氦
呕
姻@@
赊@@
卡梅@@
贱@@
理查@@
楠@@
蜗@@
Ｓ
坷
簧@@
枞@@
醛@@
基层@@
浊@@
批准@@
电联
腈
莽@@
体化
膳@@
冕@@
殡@@
禄
侵
侦
茸@@
苜@@
窿
炫@@
Sing@@
驱逐@@
贮
流层
玲@@
叨
阿卜@@
旋转@@
鞍
Will@@
斯洛伐@@
矩@@
护理@@
掐@@
利政府
罗斯@@
鄂@@
玫瑰@@
孺
Supp@@
啃
蛙@@
引起@@
姬@@
尉
意料
主妇
祢
赛尔
忽
丈@@
印机
虹
UB
Fac@@
﹣
羧@@
一惊
挽
杏
因于
政策@@
谭
承受@@
惟
治疗@@
拭@@
斓
抓住@@
瞳@@
缪@@
腓
翻译@@
ube
廿@@
pd@@
线图
国主义
itter
酋长国
谓@@
格拉斯
斯洛@@
秸@@
允@@
窜@@
stit@@
风险@@
仲裁@@
桁@@
搓
漪
知名@@
多巴@@
虔@@
养费
吸烟@@
巴士@@
扒@@
扪
倘
铆@@
獾
烃@@
多元@@
扛@@
鳗@@
年龄@@
狄
釉
悼@@
腆
喽
蓉
诙@@
郁症
镶
TO
個
菇

爱沙@@
锄@@
牒
彻底@@
住脚
蹦
ocum@@
不如@@
一块@@
民主共和国
炯@@
允
怜
篷@@
讨论@@
浏览@@
太平洋@@
苛
弊@@
霹@@
晶体@@
蝴@@
撼@@
波兰@@
瘢@@
灼
藓
讽@@
igr@@
猕@@
翱@@
麟
绩@@
尼西亚
疙@@
斋
摄
有色@@
XX@@
警报@@
妒@@
卿
毡
茹@@
谱法
里斯@@
汝@@
搪@@
拷@@
髅
屹@@
屯
一下@@
道义@@
录音@@
熨
伊拉@@
罄
拣@@
涯
蚁@@
不见@@
瘪
渤@@
镣
事无@@
尽量@@
筹备@@
gle
获量
布赖@@
198@@
游戏@@
滓
爵@@
一夫@@
豚@@
亚特兰@@
倪
论性
密性
德意志@@
轶@@
媳@@
不觉
快速@@
尔瓦
加利福@@
投入@@
殃
las
华尔@@
褥@@
VD
绢
年人
静静@@
氡
炔
法人@@
归根@@
澎@@
哉
双边@@
占有@@
誉@@
隔离@@
榴@@
亵@@
坪@@
疮@@
实习@@
佩克
辄

祷@@
歧
湛@@
馅
蜻@@
禧
ute
苏尔
绯@@
WH@@
踉@@
鲍
桶@@
漾
深感@@
峻
茬
chin@@
利益@@
嚣@@
妻制
拮@@
诵@@
喙
制性
缉
鄙
干涉@@
箍
跛@@
啉
猬
预算@@
发现@@
既定@@
窟@@
钡
上述@@
瘩
辈@@
搜
二届
拎
权力@@
沪
嘲
靖
祛@@
贻@@
漠@@
廓
芹@@
袁@@
观者
颐@@
骚
蔓
南克
驶
兰经
馏
美利@@
觑
钠@@
−
仕
赐@@
绷
宣布@@
谧
衍
扪@@
亭@@
ullah
经常@@
眯@@
举办@@
赞助@@
雌
冉@@
蹊@@
悲
Manag@@
一十
猿@@
国公司
谩@@
记名
疤
尔夫
箴@@
肥胖@@
况@@
崇高@@
捷克@@
踝@@
Mic@@
窘
蚕
邋@@
秦
朋
遢
闪闪@@
销商
丝网
赫勒@@
粱
凤
僭
酌
冀
利润@@
栓@@
动荡@@
赎@@
咭
啜@@
萍
洗钱@@
花旗@@
骡@@
信仰@@
吠@@
哩@@
鸵@@
粹@@
蹩@@
FP
荟
布隆迪@@
大型@@
通知@@
廓@@
瞄@@
杜马
娼
蔬
渴@@
巴塞罗@@
魅@@
钨@@
¾
巩@@
疹@@
恪@@
瑜
咳@@
机密@@
斟@@
北省
瞒@@
湮@@
十年代
俐
同情@@
舷@@
喷气@@
沼@@
奋
索托
黝@@
麻黄@@
喀麦@@
唯
豹@@
印件
枣@@
钒
加拿大@@
Ｍ
江省
特许@@
为一体
鸥
描绘@@
跤
洙
彦
瞩
腼@@
柚@@
夷
钽
溃
檐@@
樟@@
强奸@@
利息@@
操作性
非同@@
可靠@@
钵
肋@@
碧
芪
笃
靖@@
秤@@
诺斯@@
韦斯
护者
压器
疣
腑
漂
骏@@
致于
艾哈@@
出人@@
邝@@
會
换器
⑹
棕
蔷@@
加丹@@
忆@@
亲节
來
共体
市政@@
瑰@@
罹@@
鄙@@
安东@@
合乎@@
芸@@
珊瑚@@
蜓
直布罗@@
扒
阿姆斯特@@
撮@@
癣
烟草@@
经社@@
乌干@@
记者@@
首席@@
Sect@@
瘀
数以@@
漱@@
摺
豚
癫@@
讼@@
偎
景气
姥@@
ivers@@
锹
葺
说明@@
体上
蹬
文森特
不入
非常@@
日制
痤@@
为人@@
咀
邂@@
经纪@@
集团@@
〖
确保@@
获取@@
酣@@
介绍@@
朽@@
懦
桎@@
妾
每人@@
祟
修正@@
结束@@
浪费@@
胞胎
有者
梏
ml
安纳@@
厮@@
涓@@
摇滚@@
搂@@
褪
灶@@
恢@@
必不可@@
赤道@@
汇报@@
科尔多@@
禧@@
熄
话说
新兴@@
嬷@@
槌
测定@@
进行@@
掺
Gon@@
栋@@
骋
衫@@
萘@@
法特
害性
惴@@
而上

臃@@
卡斯@@
枉
相抵
克林
婶@@
相关@@
桩@@
勘
〗
壕@@
楞@@
跆@@
赃
坊@@
赦
咪@@
钥@@
耽@@
挟
Tech@@
麻风@@
霓@@
璀@@
坯@@
袒@@
册@@
魇
躯
周知
波器
蕃@@
奖者
酵
葡
琌
窥
佃@@
跨越@@
峦
封闭@@
戳@@
仑@@
寥
渥@@
达尔@@
汛
戛@@
巫
丰富@@
攥
耙
Ｎ
酥
未经@@
iel
侮

壤@@
旭@@
匠@@
阿卜耶@@
辫@@
初始@@
利安
º
啥@@
歼@@
撕
佛得@@
纾@@
惦@@
殃@@
丸@@
克逊
郝@@
靓@@
负面@@
崎
啰
私营@@
逅
工伤@@
Moham@@
森纳
洛杉@@
凛@@
羟
蹴@@
雳
闺@@
达姆
谢尔@@
驹
ril
寨@@
三章
溥@@
剔@@
支出@@
镍@@
叩@@
廊@@
札@@
內
拙
冀@@
虱
无线电@@
昙@@
优越@@
一试
五届
计值
纭
垦@@
麝@@
圆满@@
禾@@
铎
铛
鹑
﹕
荨@@
绸
Ｐ
ict@@
薰@@
世贸@@
炖
ｅ
天文@@
约束@@
孝
邹@@
Ｇ
魄@@
褶
乞@@
圭亚@@
Ｈ
雁
议者
突破@@
Alex@@
楠
哺
安道@@
天主@@
药物@@
譬@@
褛
太平@@
剌
鳃
惰@@
漓@@
牧业
亚利桑@@
利比@@
哈姆@@
领先@@
矶@@
置信
骆@@
四川@@
关税壁垒
疡@@
溺
昵@@
布宜诺斯艾@@
穹
争议@@
冶
个世纪
颖@@
参赛@@
※
噩@@
轩
从业@@
脐
锆
意性
物业@@
哇@@
说家
米尔@@
切尔诺@@
蚜@@
椭@@
损于
菅@@
芹
日趋@@
迄
褴@@
萧
撇
呱@@
酥@@
爵士@@
唧@@
驮
刨
愉
眸
哥伦比@@
疝
得起
蝉
躇
油机
狭
耘
淆@@
沓
â
人道@@
原子能@@
志愿@@
偿还@@
海岸@@
酪@@
歹
朔
颖
埠
诀
桅
缸@@
旁观
羟@@
衍@@
褥
媒体@@
辐@@
汹@@
动者
马克思@@
注意@@
咱
孰@@
卡因
羁
批评@@
售货@@
锑
琶@@
人听闻
sein
遗
涎@@
渍@@
依赖@@
恸
Ｄ
媳
率地
熠@@
楣
嚎@@
腥@@
可口@@
掣@@
啻
喇嘛
贝克@@
棘
鳟@@
挟@@
惺@@
悖@@
冗@@
璨
痹
开发银行
垠
Č
利昂
琦
布伦
缰@@
新年@@
寂@@
mart
格鲁@@
桔
ぃ
刁@@
甫@@
斯主义
阿尔及@@
董事@@
陡
咫@@
蒜
委内瑞@@
浙@@
羚
初级@@
淀
・
轰
马萨@@
鼬
匣
嗣
驼
马格里@@
涎
考察@@
眩@@
萨摩@@
么@@
烘
骏
激动@@
钎@@
殖
鞠
啪@@
慨
里人
嘟
晖
石蜡
煞
匙@@
楷
蛹
叨@@
总统@@
机动@@
斯里兰@@
拦
不久@@
藻@@
虱@@
膦
牧羊@@
兢
收益@@
罗尔
透明@@
仲
公决
揭
搁@@
偷偷@@
节性
内在@@
CAP
日内瓦@@
丁斯
鬣@@
不管@@
嚼@@
世代@@
自相@@
骰@@
庸置疑
堰
薇@@
螯@@
煌
湃
亢@@
匍@@
掣
显微@@
搜索@@
潭@@
显示@@
踮@@
摹
啄@@
吟
鼾
时宜
诣
留物
阿卜杜@@
毛里求@@
鳄
翩
自卫@@
谟
文献@@
玻
蝠@@
辖@@
贸易区
鹌@@
杭
怦@@
卡罗@@
无论@@
上加@@
馨
临时@@
灿@@
凌
捐赠@@
寮
壑
皙
甙
窍
书面@@
推广@@
利尔
拖拉@@
成就@@
Lyn@@
蔻
web@@
鹭
嚣
冢
旭
踞
袜@@
妨
◆
候选@@
蝙@@
麋@@
侠@@
缀@@
瓢@@
巾@@
工事
巍@@
棺@@
壤
堰@@
蓓@@
债务@@
呜
迄@@
脲
尽可能@@
糠
塔那@@
波利@@
巅
嗝
剃
收入@@
娜塔@@
恺@@
制片@@
干旱@@
俨@@
琉@@
巴勒斯坦@@
劳务@@
睾@@
私有@@
褪@@
戈兰@@
捻
遛@@
耿
铉
受灾@@
加德@@
Ş
弛
遵守@@
隼
嘘@@
在我@@
瘙@@
钶
絮
卫者
稚@@
壶@@
撰
撩@@
迩
传递@@
羡
啬@@
亚太经@@
Brow@@
崔
馈
▲
啃@@
摁
蟋@@
萨利@@
敛
屿

曦
曹
恃@@
资企业
粕
ｄ
粟@@
脓
氧化剂
嘻
润滑@@
毛泽@@
烛
呛
擂
ô
′
哈根
马丁@@
如说
侵权@@
野生@@
喏
成员@@
举行@@
播放@@
拒绝@@
琢
ital
密斯
弭
蟀
Ｉ
摩天@@
狸
怖
Eng@@
跨国@@
驿@@
可图
夏威@@
对照@@
啾
弘
此机会
摧@@
牲
啼
匐
纳尔@@
今年@@
委托@@
强加@@
明尼@@
谦
龛
巴马@@
俞@@
rom
弛@@
妃@@
娇
奕
安大略@@
〞
斯特罗
有点@@
哮@@
鸠
揪@@
金正@@
荼
喱
±
刽@@
烙@@
哺乳@@
崧
婢@@
蟆
镣@@
莞
攘
维吾@@
垩
麼
喳
Ö
研讨@@
ourn@@
拴@@
唧
鳄@@
园里
掏
瘀@@
中之@@
个别@@
圣马力@@
肼
遵
缜@@
咋
空局
内心@@
改善@@
蔓@@
近几@@
伫@@
蜗
崭@@
习惯@@
卢森@@
落实@@
雁@@
婷
夯@@
isti@@
②
边缘@@
更生
戟
结核@@
蜢
蒿
腐败@@
芭蕾@@
腌
愣
沪@@
揪
喃
星人
过滤@@
搔
忻@@
桦@@
蕨@@
土机
自主@@
崽@@
貂
谄@@
喹
威士@@
沦
基督@@
捣
夭
嫦@@
妒
总务@@
零年
坳
耦
馨@@
盂
道路@@
数据库@@
噻@@
负着
残疾@@
驯
感器
营利性
缩略@@
期付款
锻
厘
六届
无休@@
裘@@
枭
Ž
墟
叭@@
瞄
哽@@
伦西亚
特里亚
染色@@
澜@@
巴巴@@
提款@@
精力@@
琐@@
砰@@
膺
谙
苞@@
道而@@
考虑@@
感谢@@
空军@@
昵
作主
塞浦路斯@@
奕@@
樽
缕@@
人人@@
馒@@
唠@@
缛@@
佯@@
蚱@@
钽@@
雍@@
讷@@
苞
铯
蝎
视察@@
莫罗
潺@@
蝗@@
痴
赛义@@
糠@@
幽
讪
秧@@
lad@@
怎么@@
咏@@
淹@@
毂
貂@@
忐@@
聚集@@
奥塞梯
睽@@
危地马拉@@
莫桑比@@
跄
隧@@
完成@@
最小@@
加勒比@@
薰
ｎ
多米@@
琶
遮
逝@@
牲@@
无愧
性人
恳
睽
本科@@
撵@@
呱
靼@@
ｏ
悄悄@@
霖
垛
阿尔巴尼亚@@
奥林@@
暹@@
寰
鸠@@
斯堪@@
docum@@
顷@@
辘
不足@@
桦
魏
行道
有利@@
μ
薛
镳
擒@@
忒
一想
寥@@
甥
棠
贫富@@
热线@@
鄂
膀
畸
翰@@
还价
腭@@
俄亥@@
涯@@
共和@@
炬@@
197@@
JI@@
壹@@
Ć
嘧@@
evel@@
嘿@@
噁
烩
莱曼
吸毒@@
祠
Inv@@
跛
涝@@
举报@@
吭
豫
吭@@
邓小@@
荟@@
惘
腭
布达@@
厦
聂@@
芜@@
棱
沥
克共和国
咏
通性
崖@@
卤
Ｅ
啊@@
髻
唁
蔡
掷@@
霄@@
揽@@
胁
优质@@
‛
尔多@@
槿@@
渭@@
巿
实体@@
鲱@@
鳕
晦
尹@@
默德
湎
破产@@
彝@@
邵@@
黜
э
关节@@
厕@@
啄
⑥
糙@@
阿鲁@@
幺
汀@@
自给@@
剿
开普@@
是如此
乞
羯@@
在实践@@
浣@@
贬
隙@@
榔
阐@@
英译@@
茎@@
″
粹
昭
臀
♦
补救@@
绎@@
ept@@
郭
镛

琅@@
隅
汲@@
糜@@
违规@@
嘶
跻@@
荞@@
摧
勉
孤
甾@@
Ⅱ
骚@@
黏
平线
特立尼@@
阉@@
逮
咋@@
樊@@
攘@@
茜@@
阮
颞@@
孽
浓缩@@
Insp@@
aul
零零@@
竞选@@
恢
⑺
仗@@
尼日利@@
矽@@
铈
砜
渺
鹊
谅@@
蛊@@
分之二
拈@@
鞣@@
贼@@
新华@@
姊
臻
嗖
侃@@
悸
锶
Mohamm@@
哈佛@@
叮
梧
桨@@
痒@@
踝
判断@@
敖@@
褐
森特
基里@@
不齐
科索@@
佣@@
诿
同工@@
闽@@
漓
风雪
民航@@
阡@@
壹
袍@@
柿@@
无处@@
马普@@
痣
抽样@@
垣
饲
彤
不惜@@
金山
簧
主权@@
妩@@
喳@@
网膜
哎@@
肱@@
为数@@
格陵@@
砷@@
加油@@
予以@@
带头@@
米洛@@
竞争@@
愉@@
颐
皂白
叁@@
桐@@
经济合作@@
勋@@
拚@@
亚哥
霰@@
搔@@
腻@@
唆@@
疸
诩
箕
眨@@
和谐@@
入点
文物@@
姥
丫
西比
麓
桐
加州@@
辘@@
瘫@@
觎
秽@@
篡
生人
鼾@@
枸@@
沈
饼@@
嗡
测性
痘@@
滥
翟@@
弈@@
枫
掸
有增无@@
讷
SAS
俑
寅
惕@@
马尔代@@
Ibr@@
蚀性
关注@@
藩@@
#@@
袅@@
鑫
潺
幌
圣多@@
意志@@
霎@@
蝌@@
阿拉木@@
协助@@
跷@@
津巴布@@
躇@@
应急@@
榛@@
焉@@
克里斯托@@
亢
国政府
蚪
麸@@
忖
癫
邢@@
瞠@@
拗
氩
海上@@
冽
唤@@
挛@@
粽@@

吮@@
昼@@
轿@@
俑@@
骸@@
暮
傀@@
幔@@
萼
妇女节
忑@@
捎
姊@@
儡@@
狈
合实际
填补@@
帜
呤
鬃@@
煲
糯@@
博物@@
Dist@@
动不动
九届
玺
憋@@
岐@@
矜@@
极其@@
佛罗@@
Muhamm@@
冗
汹
囔
逍@@
奚@@
瘟
媛
哌@@
耶稣@@
◎
一站@@
踹
衔@@
觊@@
跷
御
普勒
成千@@
居高@@
喀里多尼亚
奠
瑟夫
擎@@
矸@@
莎白
箔@@
下一@@
犹豫@@
嘌@@
膊@@
霭
布林@@
妥善@@
切尔@@
瑙@@
倌
WC
缚
徙
特种@@
淳@@
搽
有线@@
岖@@
腔镜
娱@@
海洛@@
血病
付息
撬
集会@@
大吃@@
秸
鬃
讳@@
姨
疲
蜱
兀
飙
马里兰@@
偕@@
加尼
万计
芥
晾
绺
砧@@
蝉@@
渊
吮
钯
一夜@@
蓖@@
蜃@@
耶路撒@@
铍
骤
纳税@@
当家@@
牛仔@@
提起@@
不移
钵@@
慵@@
象征@@
氰
侃
滇@@
指标@@
鸡尾@@
虔
茹
水力@@
中继@@
诏@@
猖@@
煌@@
缇
璜
螨@@
辰@@
诃@@
螳@@
漉
肇事@@
迪瓦
寇
孰
同意@@
资银行
牦@@
混凝@@
梧@@
寓
试者
杂货@@
提取@@
蕉@@
锄
娟
螂
劫持@@
再生@@
踱
ｔ
醺
Ｆ
裘
愚
噼@@
半数@@
榄
见性
摒@@
ｓ
轨道@@
苇@@
舀
鸽@@
楂
此类@@
不在@@
煅@@
腮
理工@@
维加斯
互助@@
別
炯

▪
缥@@
霄
桉@@
讬
俭
氨基@@
小儿麻@@
埃塞@@
髁
知情@@
å
Sach@@
伦堡
楷@@
Progr@@
唷
洗手@@
镕@@
亥@@
戾
Vir@@
交道
改叙@@
镭
同位@@
包商
务部
约法
鹃
傍@@
灌木@@
荪
尽其@@
一和@@
开庭@@
杞@@
几内亚@@
铣
箫
首脑@@
葆
阱
乒乓@@
岑
官方@@
襄@@
瞟
揩
祗
蝇@@
努埃尔
册子
⑻
糙
湘
赝@@
栈@@
嘱@@
龋@@
孜
嗖@@
珑
É
口头@@
呢@@
比利亚
锲@@
缦
匡@@
芋@@
斩
裴@@
马达加@@
幂
确认@@
癞@@
波里
呗
幼儿@@
微波@@
克省
浑
延到
疽@@
矶
皎@@
莽
镐
娓@@
疥@@
姚
互联@@
viron@@
瞬
进攻@@
列支敦士@@
盼@@
骼@@
蒋
傢
差别@@
邱
铋
人解
杂项@@
漉@@
上千
ISH
贿
诺德
库尔德@@
加入@@
糖尿@@
耷@@
徨
沁@@
磊
怅
中美@@
峋
蛛
嫂@@
醺@@
胰
沙尔
釜
嶙@@
大常委会
在一起
朦@@
砼
楞
作出@@
夥
需品
莹@@
猩@@
修道@@
擘
弩@@
呎
祁@@
嬗@@
锗
稽
专卖
加共和国
便携@@
定会
困难@@
诧
硂
助于
疱
巴比@@
氓@@
龚@@
刚果@@
娶@@
萨马
站不@@
武器@@
鲈@@
遁@@
捎@@
徕
烙
膈
鳌
蜀@@
挎@@
炬
俩@@
眺
咔@@
搓@@
安达
监管@@
陋
缈
分裂@@
镓
菁
伙人
分辨@@
歇尔
联络@@
入式
斯特拉@@
巳
亘@@
氏度
马萨诸@@
嚎
马哈@@
阪@@
衷
寇@@
酊@@
希米
口处
缔
综
蒂纳
遨@@
憋
泣@@
薮
Smart
脖@@
持久@@
棺
光度@@
毛里塔@@
闰@@
＠
韶@@
靼
咧
苹
陆战队
独家@@
鲭
帑
鲁特
DL@@
蛆
花岗@@
樱
逞@@
孱@@
樵@@
经理@@
砺
唑@@
徜@@
狎@@
继任@@
刹
惆@@
娱
庐@@
蚝
谑
磡
搡
匝@@
心病
坍
oup
加拉@@
沂@@
推销@@
姗
磊@@
呕@@
谬
安理@@
沛@@
gan@@
篓
湍@@
纪元
阄
鳌@@
矢
匈@@
坩@@
蛀
铠@@
铌
桡@@
之无愧
绞
汰@@
民国
悯@@
所罗门@@
陋@@
醌
承租@@
大马@@
婉
雯
成人@@
梅纳
挞
芩
可供@@
迴
马绍@@
渝
与会@@
蜇
蚤@@
筐@@
蛾@@
泾@@
汝
不足为@@
通报@@
廖
满意@@
篱@@
咚
煦
罂@@
渎@@
荆
蹶@@
理所@@
糜
摩根@@
波罗的@@
彪@@
摞
海盗@@
肽@@
掐
刍@@
处死刑
臀@@
孟
演唱@@
之急
恺
钍
祟@@
淅@@
霞@@
锇
自来@@
抯
爹@@
波罗@@
听闻
东盟@@
赈
√
庶
札
瘁
核素
践
唆
羯
埚
跺
砥@@
說
痂
理事@@
金刚@@
桁
酩@@
阜@@
恶性@@
狒
了当
榕@@
蒲
派出@@
外线
啁@@
撼
赂@@
琅
揣
悼
殓
鹳
斯德哥尔@@
卟
示威@@
痔@@
洽
垩@@
谆@@
Ø
门户@@
飙@@
铤@@
巡
相比@@
危急@@
赫勒
岬
氦@@
免权
和平奖
甄@@
波士@@
高尔@@
茴@@
町
虞@@
失业@@
小儿@@
蚌
莞@@
啡
杳@@
恕@@
外务@@
辐
颞
馀@@
郡@@
定期@@
掂@@
洱@@
宣誓@@
杜古
捶@@
债权@@
枢
凰@@
尧
砝@@
添加@@
捻@@
于人
睾
earch
徉
滔
邑
沙特@@
儆@@
噗
瘟@@
立陶宛@@
绽
佝@@
殷
vir@@
苄
嚓
淖
鹏@@
狒@@
柚
Ⅰ
氙@@
置之@@
瑶@@
啡@@
窒@@
赣@@
赅
弘@@
皑
柑
因果@@
狈@@
配置@@
惭
深深@@
连串
粟
携带@@
尼诺
惜@@
兀@@
奥林匹克@@
暨@@
咦
绰
科纳@@
要地
讧
豺@@
＞
炊
尓
自语
愣@@
畅销@@
定式
犷
各行@@
燊
槐
а
峨@@
取得@@
秉
矗
国际海事@@
Ｘ
邯@@
暇@@
堑
国际贸易@@
锣
尼亚人
筏@@
ｒ
衣裙
僚
丁二烯
热烈@@
杞
啧@@
祇
辫
蟒@@
不为@@
肓
存者
鳖
皿
诚地
有钱@@
戚
不锈@@
惠国
膊
萼@@
辩护@@
探矿@@
故障@@
彦@@
乒@@
撅
饺
紊@@
致命@@
升降@@
诟@@
蟒
席会议
富尔
喵
時@@
雇佣@@
过渡@@
克什@@
睬
绅@@
运兵车
自明
髂
宕
铿@@
戎
应付@@
于此
博茨@@
不及@@
鹭@@
峨
ş
痫@@
尊重@@
腈@@
惺
Goo@@
摹@@
幂@@
茧@@
铂@@
趸
阈@@
涣@@
這@@
璇
颧@@
剁
﹒
芭
当事@@
吆@@
失败@@
印花@@
长久@@
亥
饯
颠
正教
眯
次于
纳森
⑦
避免@@
靛@@
加班@@
噎
涧
榄@@
磋
力支持
麸
铵@@
鹃@@
埔@@
周围@@
罗德里@@
防火@@
叟
國
坂@@
鹦@@
讣@@
课堂@@
瑶
摺@@
莪
长的
一览@@
籁
Conven@@
隋@@
争取@@
伱
镊@@
归根结@@
外商@@
情节@@
钧
芮
澈
灿
跋@@
宙
肯尼@@
炫
魅
沐
地政@@
掮@@
墨尔@@
镌@@
佔
特立@@
脲@@
沐@@
潍@@
榉
伊朗@@
唛
蜥
＜
伤风
ā
烬
腱@@
余时间
淤
孚@@
铰
蓟
胥
羽毛@@
髌@@
懑
馅@@
高新@@
褓
鳗
痿
殖民@@
妨@@
饵@@
忒@@
跺@@
戋
陌@@
擞
裱
辕@@
失踪@@
侣
間
不失@@
ė
生生
马诺@@
场主
芮@@
觐
缄@@
入学@@
行业@@
痼@@
對
泯@@
庐
毡@@
汛@@
昼
臼@@
监护@@
了婚
阎@@
沽
娄@@
​
亲密@@
缮
布隆@@
导航@@
胍
沽@@
定量@@
穦
啤
筲@@
谀@@
一团@@
葆@@
岱
璧
佤@@
弋
妇幼@@
氚
印度尼@@
蜈@@
Pier@@
钞@@
嫉
毯@@
诮
支持@@
膛@@
蓦@@
本地@@
兑换@@
噬
年计划
卢西亚
鳟
比利@@
素福
嫣@@
斯洛文@@
浃@@
眶@@
鞘@@
箍@@
臊
麒@@
萸
骸
đ
实现@@
焕
皑@@
訇
痫
全民@@
不用@@
鲑
新几内亚
瞰
尔科
槲@@
嗎
纂@@
舶@@
螈
胄
刈
叛
偎@@
襁@@
绮@@
瘸
堕
妍
阿塞@@
遽
阿特@@
沓@@
蚣
得其@@
沛
沁
氙
胛@@
蛤
扈
贲@@
宕@@
ｍ
士们
亘
联合共和国
无止@@
烽@@
Wind@@
碴
Oct@@
塞舌@@
∙
私家@@
利伯@@
砧
胭@@
聚力
丁堡
惰
塞雷@@
二烯
搀
维埃
骶
脆弱@@
枷
忱
渎
睿
硝
妳@@
羰@@
誉为
牍
菸
出乎@@
禀
燎@@
┱
鹊@@
噱@@
韭@@
蕉
不挠
唉@@
溯到
常任@@
戎@@
所欲
联盟@@
部长@@
建局
靴@@
狩@@
格勒@@
鍊
鹬
汰
谍@@
阈
巴拿@@
囗
咙@@
沃尼亚
偕
加达
氩@@
傍
原则@@
马耳@@
⑽
蹉@@
褂
乓
栀@@

叽
钹
⑼
佰@@
淬
梵
竺@@
灸@@
俯
蝗
倩@@
碉@@
蚂@@
拉脱@@
萌
巍
雏
上万
来得@@
蒽@@
伎
丶
次世界大战
臻@@
轻轻@@
炜
铟
莓@@
龊
攫@@
胜利@@
菱
伦比
拄@@
顽
娄
瓦努阿@@
龌@@
螯
喹@@
遁
谋杀@@
ｐ
澍
嵴
ｌ
无上
赭@@
楔
Broth@@
转让@@
%@@
猷
CCC
Ñ
矾
麾@@
鹉@@
冲突@@
蝮@@
胫
自尊@@
玛格丽@@
为重要
南极@@
囿@@
＃
寺@@
不知所@@
议书
約
绦@@
飕
ㄓ
秧
匾
除此@@
擒

此时@@
绉
玄
发援@@
隧
稼@@
写字母
ebook
帖@@
岑@@
弹道@@
ğ
钕
圣彼得@@
苏黎@@
扦@@
跄@@
橱@@
＄
畴
无关@@
淑
恃
夙@@
鲶@@
钼@@
璶
机关@@

剁@@
衙@@
椿
讹
巴托
﹚
痔
暄
确凿@@
七八@@
磕
始至终
憨@@
囤@@
贾德
保障部
呷
淮
珐@@
骶@@
迳@@
咀@@
抗力
麟@@
热点@@
擂@@
而下
古巴@@
领事@@
赡@@
诘
菲特
突发@@
传真@@
天花@@
斯加
建和@@
蛰@@
袅
不负@@
知识产权@@
转折@@
通力@@
Mustaf@@
蚜
掬
哌
狰@@
髋
鬈
龚
矾@@
ember
二章
捶

哔
涮
篙
救护@@
侄
璃
皓
前例
识字@@
谛@@
鲷
黍
泮
百万计
扮演@@
ⅹ
ited
意向@@
呀@@
Ü
藜@@
撷@@
琛
写信@@
禄@@
下而上
懵@@
蒡
飕@@
撵
异构@@
蝽
抡
ı
俺@@
呻@@
黔@@
﹖
啰@@
试用@@
擤
凛
痍
汾@@
熠
怦
殒@@
殴@@
袂
比性
羌@@
狞
克力
正比
傣@@
焓
纳维亚
圄
馥@@
р
蚴
鑫@@
绶@@
遛
ぐ
镂@@
ｈ
憎
元前
硖
随者
е
曳@@
蝾@@
址@@
時
艮@@
墩@@
虫剂
冥
水土@@
波多@@
互为@@
皓@@
硷
佑@@
冰激@@
耆@@
戍@@
Ç
酊
還@@
ights
骁@@
◇
螟
啕@@
镎
蜀
氖
外围@@
囹@@
佻
蚌@@
蒺@@
异于
犸@@
沙姆@@
蝓
愆
釜@@
辑@@
汐@@
药剂@@
纰@@
加迪@@
百慕@@
灸
平民@@
俪
朊
匈
柩
保加@@
病学
眸@@
舐
邮联
娴
增值@@
簌@@
盹@@
﹙
南非@@
蛞@@
斟
飒@@
濑@@
掴
柬@@
遏@@
壬@@
舔@@
地铁@@
坤@@
有条@@
激励@@
汉堡@@
慨@@
倡
脯@@
燧@@
倏@@
鹕
衅
氪
黠
伯尔@@
我爱@@
陇@@
谴@@
钧@@
掰
沒
桀@@
咩
捍@@
红色@@
呦
拇@@
閒
喱@@
癸@@
碞
憩@@
坍@@
洪都@@
棗
劵
满情绪
荐@@
铑
镭@@
蚱
簌
噎@@
埃及@@
蕈
意识@@
卡塔@@
隽@@
鲈
停止@@
ò
唐太@@
巴基@@
鹈@@
捲

Τ
蝠
讓
必行
笔钱
庚@@
驭@@
嗬
锉
哧
芷
莠@@
莘@@
卡塔尔@@
晷
踵
办事@@
殊
彪
与时@@
姣
复燃
谙@@
浜
之而来
iPh@@
计数@@
滂@@
呸
荚@@
笵
悚
捂
酪
咚@@
小康@@
碇
着重@@
蜷
平稳@@
磐

尘暴
垣@@
彀
orge
寞
炙
羿
瓮
蜒
佘@@
利害@@
鲨@@
源源@@
抠
畦
叵@@
禁毒@@
婷@@
弩
亚美@@
掀
逍遥@@
圣地@@
诛@@
偻@@
蓟@@
抑制@@
婀@@
埗
馋
蔑@@
选为
甬@@
犀
撂@@

該
旨@@
漱
仟
癸
锵
科特@@
蠡
从那@@
鬓@@
闆
轼
澄
杈
毙@@
挚
苄@@
璐
靓
娑
吋
喀什
榭@@
&@@
居留@@
垄@@
耦@@
公民@@
莱坞
焉
让你@@
件人
培拉
怆
怔
候补@@
蛭
焖
发挥@@
桡
出发@@
隽
巴勒@@
壑@@
嫔

嗑
î
镧
揄
小小@@
淇
专递
炳
犄@@
葩
睿@@
未人
喇
竣
怅@@
张正义
咎@@
而言之
好了
徳
多伦@@
筷
烊
鲜明@@
法西@@
铧
т
曼哈@@
寐
衆
飚
蕨
晌
噜@@
昴
蜊
襄
垢@@
碾
桓
剿@@
榫
胧
全文@@
秩
啷
协商@@
资会
轿
特兰@@
稱
發@@
殆
捋
碲
从来@@
о
伺
鳐
袁
噶
莨@@
苯丙@@
杵
廉政@@
姣@@

迪西
虏@@
颏
耙@@
螅
麂@@
婢
央
铒
﹡
再接再@@
揶@@
學@@
变动@@
萎
柞@@
筱@@
桢
Ⅲ
发动@@
蘖
殡
鼓舞@@
一刀@@
嫌疑@@
饨
粤
铊
与世@@
犒@@
雅各@@
倡导@@
澈@@
笠
辊@@
吲@@
谗@@
实在@@
匐@@
鸳@@
Amer@@
养家@@
莪@@
芷@@
跎
峭
槭
ｕ
憾@@
Ｋ
数以千@@
夏令@@
垄
娅@@
贰
马戏@@
铱
鲫@@
涤
燎
庵
稔
鲔
嗳
橇
簸@@
￥
彰@@
疝@@
奂
芸
棂
脊椎@@
抿
⑾
药性
惴
蹼
睑@@
觉到

遴@@
不言@@
罗拉@@
嘹@@
蛔@@
鳍@@
避难@@
鲤
唬@@
起重@@
叭
除术
晤@@
Ｕ
苎@@
渺@@
家宝
吩
粼@@
鲟@@
战队
汨@@
威廉@@
ICM
忿

缰
都会
侗@@
阿根廷@@
儆
妞@@
皖@@
⑿
锃@@
缚@@
與
湛
旌@@
锉@@
珐
僚@@
拷
娩@@
阡
濒
铛@@
荽
遑@@
钇
癜
汩
到困难
嘭
哚
毗
況
郸
奉献@@
托人
余力
职者
萃@@
肄@@
擢@@
悸@@
毓
新奥尔@@
叩
小伙@@
STA
大致@@
倪@@
特别行政@@
萜
氘
汩@@
换句@@
全心@@
法权
咆@@
难说
证明@@
仃
別@@
臭氧@@
胬@@
帜@@
鄱@@
н
噩
現
獒
歹@@
冠状@@
甭@@
甥@@
業
荼@@
潴@@
虻
窈@@
继续@@
眈
坨
Ｖ
参与@@
沏
犸
瓢
觉察@@
槛
戮
是非@@
尽所能
愫
藕
鸪
跋
話
与此@@
防腐@@
龈@@
鲎
毓@@
粼
决权
萄
鹜
闵@@
脒
礴
淄@@
掖
漳@@
闭幕@@
栎
埂
抰
笙
眈@@
樣
扳
槐@@
恻@@
Citigr@@
蔫
视性
子孙@@
æ
､
愛@@
讶@@
身心@@
锏
鞅
岚
伯利@@
蛆@@
cast
觐@@
糅@@
筝
诨
住民
瀚@@
¹
拢@@
陷入@@
籁@@
饕@@
菪@@
ω
淘
教科@@
岐
玷@@
沼泽@@
咖
韬
阻燃@@
¨
真是@@
﹗
蛰
梢@@
赣
镅
肱
蒴@@
應
潇
自筹@@
篾
涓
鸶
泸@@
编译@@
普里@@
δ
內@@
豉
殚@@
ś
匝
馄@@
睹@@
断然@@
芫@@
卿@@
伊丽@@
颚@@
胥@@
胧@@
迢@@
汕
筵
叻
濯
鞣
拘留@@
〃
南方@@
沏@@
杜里
五角@@
格迪@@
庖
沆@@
蹭@@
螫
烽
狞@@
铮@@
嗷@@
己烷
‵
陲
産
娴@@
捱@@
堑@@
镫
沱
長
佗
玖
瀣@@
喧
塾
造成@@
噙
帛
iriyah
鸯
癜@@
鬓
伉@@
馊@@
￭
诀@@
锵@@
醣
雉
睦
峁
疵@@
矽
嗽@@
行
楝
岱@@
羹@@
盅
庶@@
俸@@
晤
檗
給
或多@@
颓
书亚
桠
玫
剑桥@@
上而下
舜@@
颍
祠@@
苓
锆@@
爱好@@
肟
捅@@
俳@@
榔@@
敝@@
掰@@
Ｒ
乌兹别@@
钜
腋
哈瓦@@
Đ
怏@@
崴
尹
呋@@
他性
哔@@
吝
愕@@
鲽
煨
徏
湄@@
热窝
黝
撷
于事
倩
妁
新月@@
媾@@
多尼亚
骄
涟
膨
荻
嬴
檫
衍生@@
鑑@@
域网
電@@
博会
咛
马其顿@@
戌
⑧
裴
汲
晟
當@@
過
應@@

斯大@@
慑@@
胛
ń

伯利
鹧@@
RIG@@
形态@@
职能@@
孑@@
可视@@
俐@@
骜@@
谔
赞成@@
玮
進@@
吡
狸@@
妲
齐下
植树@@
痉@@
骺
私权
荃
據
檀
А
ī
餮
在生活@@
隶
傅
开展@@
育龄@@
叱@@
精神病@@
眔
睦邻@@
敖
密尔顿
晌@@
õ
蹙
渚
隘@@
伊斯坦@@
二苯@@
嫡@@
敞
驱动@@
金字@@
瞳
鸬@@
炽
影响@@
蚧
蠹
厄尔@@
苋
芍@@
挝
来源@@
amme
裆
至终
摄像@@
屐
夯
笏
胴@@
ㄆ
岚@@
ｇ
嘛@@
禹@@
棵@@
常设@@
ネ
⑨

ň
稚
利物@@
擀@@
İ
益于
等同@@
一席@@
秘书@@
呛@@
自为@@
郴@@
放射性@@
腩
旖@@
呃@@
衪
⊙
鹚
帚
啲
玻利@@
咝@@
犊@@
钣
刍
鲆
白雪@@
斯亚贝巴
格丽@@
裡
見
濡@@
资源部
舶
谏
捺@@
載
Ｙ
孽@@
†
一贯@@
纠
﹔
忱@@
堇
斯蒂德
柠@@
ら
Α
槃
艇@@
擅
揩@@
顷
枇@@
咿@@
胯@@

服于
拗@@
洱
胪
胼@@
痞@@
倭
淡淡@@
攫
匮@@
Ｌ
蹿
糗
篆@@
鸢@@
町@@
峪
菁@@
纔
Janu@@
梆@@
尔群岛
鳅
缮@@
槁
酉
焗
宦@@
羸@@
帷
珲@@
产资源
寰@@
囤
隘
陪审@@
巯@@
其妙
崂@@
梵蒂@@
箝@@
篑
忏@@
聂
膈@@
種
資@@
掂
阿方@@
祺
萱
с
辋
偌@@
泓
劇@@
蒐@@
萜@@
の
纂
怂
杜洛@@
淌@@
沂
区别@@
镗
穆罕@@
贯注
瞅@@
條@@
腴
芎
民主主义@@
吗@@
涮@@
榭
珏
内罗@@
蓉@@
獠@@
戍
明治
よ
纷
侈@@
噤@@
璋
卅@@
舛
琢@@
展开@@
蹒@@
茬@@
竺
鳝@@
杓
鲣@@
蛐@@
谍
装水
迢
靥
禺
佔@@
哞
猾@@
濠
蜉@@
玫@@
俱增
镦
舀@@
啮
镗@@
西雅@@
舜
耽
偃@@
荤
客气@@
囧
谴
亩@@
蚋
秽
讦
瘴@@
俎@@
钡@@
剜
翎

菇@@
阜
辽
骅
則
先决@@
笙@@
ý
天候
阙@@

朊@@
腥
蘸@@
灵敏@@
拄
滇
不耐@@
黩@@
ｙ
咻
兩@@
鸨
偻
鲟
г
員
苹@@
旎
埸
金沙@@
塞内@@
ß
反对@@
⒄
惧@@
聆@@
汊
刺克
雳@@
捩@@
汾
可不@@
锺
睚@@
硐
骛@@
務
宥
棣@@
隅@@
禹
卓有@@
窠
拉梅@@
酞@@
菖@@
失所
恸@@
闰
嗄
並@@
啧
沒@@
太子@@
蕃
感恩@@
荀@@
诶
伊斯兰@@
跚@@
愕
ł
屎@@
嘅
茗
舫
淳
中秋@@

將

卡扎@@
之角
肛
浙
哥本@@
一谈
骐
奬
帶
愈来愈@@
科多@@
學
卞@@
砚
囗@@
讲习@@
甑
虏
増
离乡
飑
蔚
柿
啐
时有@@
罄@@
诌
蟾@@
噤
诰
祯
寥寥@@
隶@@
熹
奥塞@@
會@@
姘@@
试看
ð
限性
片机
胀率
茏
髅@@
辍
化验@@
嶂
蝣
铱@@
藿@@
登革@@
毁灭@@
啭
卉@@
么样
蓣
钌
缄
‧
忌惮
＆
榛
莆@@
飒
結@@
歼
谛
瓮@@
闽
琦@@
膘
動
薏@@
疚@@
點
舢@@

哆
菲律@@
LCA
路由@@
力于
桓@@
中非@@
岷@@
い
笔记@@
籴
脖
徒步@@
稼
準
跤@@
Ó
嵩@@
酣
卦@@
嗤
爱滋@@
幽默@@
力所@@
阑
瀑
诂
实施@@
钸
谀
海牙@@
ⅰ
锭@@
⊿
婕
瑁
窕
莺@@
蘑@@
谟@@
趔@@
谢谢@@
嘁@@
缬@@
碁
荏@@

加迪沙
瓦多
鲛
ｗ
协同@@
閒@@
剖
解剖@@
蓬勃@@
癔@@
跖@@
裱@@
藩
經@@
砒@@
鳃@@
复活@@
仄
將@@
谒
在此@@
烁
幄
芍
郝
+@@
劳工@@
规范@@
更为@@
踯@@
酞
愠@@
掇
萍@@
蹿@@

訴
豇@@
待于
翳
憎@@
無@@
怔@@
懵
孤儿@@
る
彗@@
吏@@
息息@@
髯
潸@@
urah
痰@@
啜
笈
淙@@
馐
可用@@
不

岬@@
萨科@@
國@@
牟
陌
蹙@@
控股@@
請
塔吉@@
础
牛津@@
有素
寅@@
甭
绉@@
那不@@
З
赁
镬
臭名@@
靛
躅
菅
埋场
角度@@
ì

忸@@
荻@@
瑕@@
椽@@
麵
荤@@
饬
｡
祐
Morg@@
抠@@
阿尔特
上型
觞
镂
釆
沱@@
橛@@
蠓
极管
祁
评估@@
灭绝@@
∑
翎@@
艉
˚
裾

戕@@
乌兰@@
扉@@
钊
搡@@
媪
傧@@
理
鱲
锒@@
龃@@
荇
难性
鳝
關
漠化
趸@@
镯@@
淙
邹
诳@@
摩罗
計@@
沮
馬
吉祥@@
碜
圩@@
藓@@
⑩
雹@@
龉
无能@@
驮@@
聒@@

茔
機@@
龇@@
粳@@
鼬@@
阖@@
醯
遥感@@
衲
經
富兰@@
梓
瘿
渲@@
均收入
數@@
嗥
澳大@@
厮
氓
俚
過@@
亚伯@@
胝
靳@@
岿@@
年
彤@@
捱
僱@@
ｘ
鹩
谵@@
苒
淼
鹂
辖市
嵘
窖@@
髡
槿
盃
迳
雯@@
瘘@@
椐
Tube
Lt@@
大洋@@
捌
哥大
椿@@
或缺
橹
赛人
镊
那样@@
豢@@
他命
分支@@
互动@@
蛟@@
開@@
痨
能及
年纪念
艮
籼@@

脍@@
ｋ
祢@@
帧@@
梅德@@
藕@@
蛉
玳@@
伶
科伦@@
黉
摈@@
恋者
衅@@
杷
類

輋
θ
酗@@
潛@@

趄
盂@@
趴
襞
滁@@
详细@@
轫
梆
懈
芎@@
鲇@@
筁
INAL
伎@@
辄@@
昊
髂@@
痢
戟@@
區
行之@@
纛
苑@@
л
弱势@@
榻@@
镰
如一
俞
員@@
逮捕@@
標
绢@@
琏
臭名昭@@
批判@@
滴滴@@
丝绸@@
栎@@
艏
悌
大理@@
脊髓@@
娣
谕@@
翟
轾
泯
音机
挎
噘
楝@@
烨
ō
瞑@@
產
傑@@
凋
ˉ

踟@@
跖
联体
菂
学金
徘@@
榆
胰岛@@
劇
唏@@
祈
舂
多国@@
燠@@
钬
栉@@
π
噔
轭@@
窠@@
巴塞@@
忾
猁
睐
骡
布干@@
专员@@
墨西@@
独角@@
馋@@
俾
索瓦
卅
魔术@@
佢
箩@@
撂
ř
晰
О
怩
┮
身份@@
△
讥
抎
咝
в
璐@@
代之
睇
酗
Ω
睛@@
論
ǎ
姆林宫
渝@@
佬@@
衩
咔
南桑@@
蹬@@
Ο
к
赀@@
期限@@
鹪@@
蟾
琵
鲂
镱
黔
骛
ε
嶦
竒
氐
侥@@
或少
辍@@
霓
キ
猞@@
嗦@@
稣
戌@@
蠊
诧@@
捺
項
宫颈@@
抿@@
福克兰@@
普林西比
椹

Ð
嗥@@
悭@@
嘣
認@@
尉@@
娲
利雅@@
华德
貉
斛
刁
瞿@@
瘪@@
原教@@
璃@@
⒀
切实际
蝰@@
吖
以色@@
钗
缓急
卯@@
阿比@@
橼@@
❑
一对@@
裳
不穷
℉
晏@@
宪法@@
惚@@
互补@@
迸
д
☆
裥
曝
槲
ă
布兰卡
菏@@
ｖ
篦@@
馍
最终@@
电离@@
钰@@
甾
羡@@
嵋
瓤
狺
魟
茯@@
幢@@
伯利亚
劾@@
Å

菀
费尔南@@
穑
续续
昊@@
哧@@
倔
朕
当地@@
芘
炕
秕
吉尔吉斯@@
ū
鲱
屠
发放@@

娆
BES
盎
郸@@
钴@@
犰@@
⒁
唰
痞
峪@@
挲
亚于
辎@@
壬
公信@@
罅@@
钋
喑@@
匾@@
沙姆沙@@
峇
冼@@
嗣@@
咩@@
語
牡

制宜
嘀
麒
臧@@
羔
凄
Ä
愎@@
槎

顺序@@
怙@@
孵
榫@@
畿@@
ecos@@
腘
大西@@
ober
珞
凯克
怂@@
瓿
嗔
撩
谲
噌
防止@@
揿
绀
椽
霆@@
肮@@
ぷ
墅@@
雍
峥@@
璧@@
碛
冰淇@@
浒@@
逞
老挝@@
逵
宛
霏
愀

些时候

製
屹
蚝@@
嫖
現@@
聩
禮
哥尔@@
纨@@
歎
反倾销@@
肯尼亚@@
SPL@@
诠@@
辕
剐
祸首
集思@@
垛@@
裟
慷@@
投标@@
給@@
泰晤@@
聿@@
鲢@@
〝
铷
奢侈@@
抟
苤@@
缭
_@@
昨
坷@@
畲@@
孀@@
梓@@
油厂
诏
Ｊ
Orig@@
沌
霭@@
刑犯
尚早
阿曼@@
铢@@
С
外科@@

钅
羚@@
泗@@
夠
讴@@
狳
洩@@

兵队
莳@@
赳
玎
橡
骥
須

丝特
基米尔
骠@@
囫@@
虬@@
缒
结果@@
產@@
鲕
黯
鸫
箩
疥
侪
靳
蛭@@
一些@@
中东@@
稃
粱@@
黑山@@
ㄇ
佃
冉
铳
藿
砚@@
耆
袢
萨兰@@
咁
谒@@
呓@@
孺@@
小心@@
亞@@
俱来
易斯
隹
佰
珩@@
忤@@
徊@@
鲯
瞰@@
場
本杰@@
郅
爰
猡
亳@@
剌@@
铄
灰质炎
安非他@@
安圭@@
縩
髌
м
弈
向于
ｆ
PCN@@
饪@@
会议员
阉
娈@@
释放@@
羲
壅
斯潘
曷
各不@@
․
瑰
昕
铮
缨
锨
笆
茉
绦
許@@
忪
Paper@@
刑警@@
抦
运人
呣
之不易

几建
抻
耶和@@
瑟琳
摇头@@
僮
擎
阪
Σ
條
そ
呶
朦
曜
ù
诲@@
實
沵
氣
疭
峙
≤
湍
氛
conom@@
曜@@
郴
鹬@@
可预@@
阙
瓯@@
胳
ª
蛱@@
瓦努@@
抣
诡
ㄒ
冇
泱@@

實@@
缁
羔@@
稗@@
芡
氲
蕙
瞟@@
㎝
悻@@
燊@@
塬
徙@@
嚓@@
伦萨
證
糯
參@@
马恩@@
匮
處
方药
奢
曩
玑
棣
俄亥俄@@
亳
坂
学龄@@
矍@@
τ
齣
菟@@
ⅲ
κ

沭@@
鳉
纣@@
錢
预警@@

芾
哈兹
蹂@@
殇
众所@@
麝
拋@@
茁
楂@@
⒉
遠
韬@@
≥
除草@@
洩
聽

茱
辜@@
戡@@
南南@@
暧
舆
赂
凇

俣@@
乌兹@@
歡
樟
涐
亚利@@
椋@@
辇
馁
苡
烁@@
佯
荞
嵩
痹症
羲@@
锑@@

ǐ
附带@@
铆
焯
氟烃
斯德@@
莠
噗@@
璞@@
俱乐@@
冼
痹@@
绗
侩
從
咂@@

髑@@
痱@@
加勒@@
匆
赳@@
逡@@
颊@@
餍
稷
黑塞哥@@
可得@@
构成@@
徊
恙@@
安哥@@
←
忑
逖
布基@@
焯@@
竣@@
拇
樊
短短@@
沙咀
峦@@
缔约@@
虺

糸
丞@@
铼
ench
角落@@
雉@@
渭
卡拉巴@@
踊@@
滓@@
醫@@
妪
匡
尔蒙
绮
滦@@
大西洋@@
嗔@@
粮安@@
濮
迂
瞭
懋
皲@@
敎
铙@@
鲡
蛊
總@@
裆@@
у
筝@@
螫@@
颀@@
务人员
滥用@@
咣@@
Δ
趟@@
Ⅳ
本国@@
敗
覺
媛@@
蜕
當
倭@@
证会
辜
奁
剔
萦
強@@
煸@@
睫
傭
面面
UNCT@@
│
泔@@
饺@@
腑@@
車
飨
¤
咂
祜@@
璞
處@@
俬
Í
猭
∠
撸
楦
嗫@@
牝@@
喁
窸
归属@@
⒂
缫@@
立
蔗

堀@@
懿
钆
基尔@@
连选@@

嗷
谩
哐@@
的放矢
鸵
運@@
钜@@
铕
驿
倨@@
凫
ا
拚
不足道
痉
埕
作曲@@
鹋
绫@@
屙
铨
涔
辗
б

濑
肟@@
枰
變@@
褂@@
噘@@
醪
简明@@

法兰克@@
嗽
蓼
蟠@@
驭
丹利
缤@@
筘
娥@@
泅@@
飞速@@
鸸@@
榕
п
谢您
瑾
幷
遽@@
桉
識
犟
美联@@
ノ
焘
铪
В
柢
墉
摂
鲵
黒
粑
菸@@
这样@@
主管@@
聘者
矜
栉
赖于
囵
東@@
方方@@
婺@@
靜
薹
俚@@

囿
領@@
界人士
總
嫦
悻
磬
憨
奧@@
幻灯@@
攸@@
沧
鲫
⒊
ocs
復
箨
爿
体系@@
蠓@@

貿
大幅@@
蕊@@
濮@@
眞

兒
禗
恻

²
竽@@
篓@@
裏
墒
蜓@@
卉
缟
缙@@
仨
宙@@

淇@@
だ
斌@@
嵊
帚@@
蔼
砣
报率

炜@@
齡
氵
耄@@

爱迪@@
視
髭@@
勞@@
準@@
硪
蟮
琉
營
胨
標@@
÷
瑛
題
曙@@
Φ
嘤
挛
牾

京群岛
這
枳@@
狨
鄯@@
佚@@
悄
就此@@
妍@@
ᆼ
嗟@@
囔@@
幡@@
犭
鲉
猩
體
許
慕尼@@
臾
毽@@
傣
鲦
糅
狯
同性@@
歲
痪@@
桧@@
谪
根深@@
玮@@
璁
嫘@@
以人@@

У
铐@@
凱
啕
澹
笋@@
體@@
绔@@
猓
壆
病率
飨@@
徳@@
睨
形容@@
钕@@
簸
邬
岀
莜@@
箕@@
揆
废弃@@
嗓
蓓
際
布卡@@
蹰@@
恪
挈@@
蓊@@
Ⅴ

老挝人民@@
擘@@
疖
≈
轻重@@
大相@@
û
㎡
愎
撙@@
記@@
土木@@
钎
痧
ţ
旮@@
纫
讪@@
裝
陕
颔@@
稱@@
禁飞@@
缢@@
擀
旯
機

惮
袈@@
計
玷
勰
發
弑@@
镖@@
證@@
璸
宸
橥
は
直升@@

浠
骰
班加@@
瓴
疸@@
懿@@
辦
羣
卡内@@
ě
猾
蛹@@
Feb@@
煜
萬@@
芑
圹
力学@@
鄢
皎
帼
呲
豔
強
椋
巴布达
参差@@
堇@@
蕙@@
ぱ
窨@@
栢
酢

垅
湟@@
減@@
鳖@@
荠
涩@@
瘢
枚@@
罟
氤@@
羧
嚅
镧@@
呯
惘@@
扼
咻@@
σ
兒@@
哉@@
篆
唢@@
褊@@
啶@@

薅
睦@@
壅@@
黢@@
啬
喽@@
栾@@
註
拯@@
ウ
绥
驹@@
瀑@@
漕@@
髭
颍@@
氖@@
並
問@@
鼩
ず
鲁大学
邬@@
曲直

箸
ل
奇怪@@
橄@@
恚
珉
蔺@@
カ
褫@@
啖
數
肫
垭
佚
荠@@
眦
瀛
发制人
aysh
赀
钏
吖@@
掼
傩
绎
过身
笤@@
遑
幡
な
袒
み
氅

跶
窕@@
怏
ٱ
阿布扎@@
特立尼达@@
編
鸮
抳
笺@@
翊@@
两可
溘@@

聚氨@@
ㄈ
竦
≡
侈
惩罚@@
停机@@
卻
椭
暸
簪
镝
莆
樂
業@@

尼古@@
蚬
я
笷
篦
脘
禬
韪
鸷@@
鲑@@
踽@@
籼
峒
阿尔巴@@
泾
刋
胯
彷
邝
笫
疳
槌@@
玟
媾
碏
楸
褒
诓
ˋ
恬
睪
戮@@
ヘ
贝巴
溟
皒
击者
癬
咐
瀛@@
袮
慊
﹁

Ы
Ú
饯@@
訊
渌
褔
圬
祆
報@@
鄞@@
親
馊
娩
势在@@
间盘
钐
什蒂纳
鸢
鹞@@
罔
彼此@@
力
印度群
為@@
馥
续费
窣
涔@@
⒌
衢@@

ы
蛐
砑
求是
燮
褔@@
獺
號@@
兖@@
П
孬@@
疖@@
饕
各业
CEDA@@
马铃@@

黃
仞
颦@@
炔@@
浒
姝
網@@
弼
砩
可行@@
椰
蠹@@
涪@@
要性
№
滘
蚬@@
戕
書
髹
稗
Н



咣
搪
溥
聲
锝
構
衮
绻
闵
欺骗@@
憧@@
维的亚
泓@@
苋@@
馔
檢@@

觸
⋅
岘@@
制度@@
郯@@
碴@@
卟@@
哋
砭

肮
髒
鲷@@
峥
芴

變
砟
轲
瓦卢
滿
猝

跗


護
帏
锺@@
科威@@
灏
ж
铠
銮@@
館
昙
格格@@
日内@@
恿
龄化

颏@@
堺

戶
矫
H5@@
巽@@
睢
＼
碲@@

徹@@
法兰西@@
琨
水系统
挢
伊赫
虮
俟
红十字@@
濛
诅@@
糨@@
檄@@
й
醚@@
荸@@
秣
滢
组委
万国@@
鳔
砭@@
臬
阒@@
決
嘈
狻
榉@@
蛄
笹@@
怼
维夫
瘠
泠
阓
丟@@
鞑
丌
镐@@
河系
钪
魆
纨
付出@@
蹊
鲼
阛
嵊@@
劃
奘
ē
潼@@
眖
Θ

骈@@
诛
⒈
伧
生素
傳@@
酐@@
隍@@
弑
铽
鹮
親@@
甶
岫@@
鸩@@
ő
邊
呔
不言而@@
胝@@
瘠@@
皖
憧
赊
圮
椴@@
茛
鲐
谏@@
例
精算@@
∪
層
鲲
衢
烹
て
疃
浏@@
牵涉@@
銮
栲@@
桧
眦@@
谌
怙
噻
乇
风俗@@
罟@@
煲@@
榧
方说
圾
隨@@
凌驾@@
椤

氰胺
掖@@
泮@@
玥
布卢斯
竽
咤@@
疤@@
樨
雙@@
鞯
泌
罗河
跹
忻
搋
屆
酉@@
仃@@
娌
丕
丞
自力@@
葜
稞
韭
獴
橇@@
獎
颉
纡
祛
拉罕
號
微分@@
邢
拉图
笆@@
∥
蹼@@
邑@@
惫
廿
鸲
恹@@
赡
唾
ア
記
恹
逶@@
系物
協
び
黴@@
逻@@
耘@@
迤
幫
疣@@
晰@@
ㄤ
師
阿富@@
襻

査
∧
硒@@
鹑@@
饴
孛
鳎
ρ
埠@@
奚
叱
鏖@@
範@@
斡@@
荔
貝@@
娓

备金
沅@@
鮨
鹳@@
毋
嘬
偌
亞
帼@@
佟@@
胂
笔记本@@
挞@@
規@@
巩
阖
邵
Х
游乐@@

骜
匦
秈
模块@@
嫣
︽
淄
垃@@
美阿
缢
罴
專@@
褡@@
呑
菩
荏
钒@@
亍
豁
CHW@@
高峰@@
Ф
睐@@
邸@@
圣基@@
冢@@
屬
霰
浣
來@@
哮
文信
忖@@
蒙得@@
供货@@
枳
裨@@
谘@@
脔
痨@@
セ
λ
з
塊
蠕

妓@@
統
纪录@@


潟@@
锕
車@@
↑
戗
肇
女
萨雷斯
配器
￠
ぇ

劬@@
拿破@@
CIRC


瞌@@
棠@@
姹@@
佤
唁@@
〆
礚
凼
邋
覃@@
相成
汆
胙
乒
波多黎@@
覺@@
谶@@
豌@@
唳
試
◊
酋@@
乎其@@
椟@@
蹇
腧@@
锍
議
狦
⒋
轶
聆
铿
鲎@@
嗐
鑑
說@@


請@@
衞
韶
娑@@
節
蔔

纶@@
鹞
璨@@
嚏
段性
‡
皋
翕@@
拎@@
費

鸯@@
刎
黢
膺@@
⒃
料
筠
決@@
濟
菝@@
唿@@
加拿@@
嘚


莱达@@
辚
農@@
裡@@
枱
揖
谆
跟鞋
運
必要@@
接种@@
さ
缛
陇
掇@@
艽
錄
環@@

溏
遯
颔
瘛
布公
萬
庾@@
桑给@@

皈
箫@@
娟@@
嘞
热衷@@
怩@@
庖@@
憬@@
悒
蒽
瞋
涣
美利坚@@
恏
苁@@
绛@@
咴
耄
哥伦@@
厩@@
夔
粲@@
執@@
凖
立医院
员国
霏@@
毘
勐@@
も
ACM
桤@@
胱
硌
筴
フ
捩
►
槁@@
採@@
曙
柰
镙
唠
價@@
鼢@@
赝
柠
彝
珩
達
辺
蜮
ゞ
饴@@
玡
こ
崾
茂德
出入@@

嫒
怄@@
吔
沬
癒
滟
泞@@
ㄊ
舨
Ч
喔@@
́
杖@@
椴
过分@@
茭@@
痊
赭
↓
裨
芰
帙@@
稜
闫
羌
蠖
鋈
钰
瞿

砆
哂
孓
逅@@

迥
郞
Б
芨
熹@@
晏


謝
⒅
安息@@
禺@@
Ⅵ
玖@@
地解决
疴
亚贝巴
劭
進
其量
∞
鹫@@
洞察@@
倏
跚
磴
赫纳
逦
連@@
屌
∫
诃
镨
骞
獭@@
昱
ン
醣@@
闺

漯@@
豺
悳
赧
乜
珙@@
￮
鬟
斡
違@@
ゲ
醮
爾

轳
峩
欤
ㄏ
加紧@@
菈
尴@@
可危
綦@@
留
較
搐@@
宦
鬣
臆

鎏@@
妊
囯
壓@@
誰
刈@@
丨
ミ
悫
­
兴高@@
李明@@
言论@@
厝
稹
た
鲹

織
呓
举目@@
卜拉欣
乜@@
對@@
呒
谗
蜣@@
挹@@
幌@@
驷@@
庥
莰
秭@@
岣
圩
髦
個@@
毀
憷
褚@@
銀@@
狀@@
戽
﻿
絲
膘@@
ľ
奧
薷
踅

湜

⒆


杷@@
度
佟
孀
納
鹄
樯
沮@@

腙
煽
獎@@
剀
布宜@@
负有@@
葚
铩@@
杵@@
鱿

鰂
漩
紅@@
鲇
统局
盿
啵
熟虑
砻@@
献身@@
紈
崛@@
陽@@
嗉@@
愛
啫@@
屉
七八糟
诽
褓@@
砀@@

砵

埃及共和国
ゎ
晟@@

報
滿@@
叟@@
肪
耋
呤@@
庵@@
〜
闳
殁
Febru@@
咄
眞@@

轱@@
則@@
照灯
笱
篾@@
伯明@@
饧
傈@@
蠃
痍@@
賽
す
鹱
還
Т
鸻
无家@@
電

溞
迩@@

銷@@
χ
蓑@@
⒇
に
虛@@
氘@@
洮@@
問
蚺
濠@@
矸
鲢
氣@@
馐@@
三聚@@
傥
鲲@@
醅
鎏
詈

鸾
嵬
饽
殭
級
開
獲
關@@

醍@@
罡

沅

抒
溼@@
ǘ
耵@@
epts
麓@@
楹@@
藐
洹
っ
癎

煩
甄
辙@@
闫@@
利
資

偉@@
鄄
翴
辏
⒎
蝻


礛
昕@@
Г
緊@@
爾@@
怵@@
ų
菘
芡@@
蓿@@
傳

嬴@@
铡
螬
缨@@
屍

蚶
簪@@
蒡@@

吒
援国
幾@@
炀@@
尬
瓯
濛@@

チ
黧@@
仟@@
嫔@@
嗲
锕@@
萋
骟
湯@@
决定@@
鳀
无亲
郇@@
畿
獨@@
瘩@@
贽
崛
勸
蛴@@
笕
十氯@@
ゅ
聍
權@@
せ
蘑
眬
铤
ą
雅温@@
┘
楤
貿@@
臧
歷@@
熺
萤
铡@@
攷
胤
偈
ｊ
柒
魁北@@
藐@@
М
滦
马达@@

惋
浏

禮@@
隈
œ
風
忤
傢@@
弹炮

缏
镞
ο
逻
怵
煳
廪
組
囟
坭
缬
課@@
大使@@
基桑@@
国罪
動@@
鱿@@
内政@@
托邦
麥@@
葶
稦
拈
醐@@
惕
¿
ㄚ
抺
殉
凱@@
臓
拯
ǖ
ま
马其@@
合众@@
ジ
垸
紙
阍

澧@@
溫@@
粿
檬
缤
耋@@
龇
骼
螟@@
寶@@
獐@@
節@@
圖
为力
屉@@
ー
ⅶ

創
栖息@@
聿
受制@@

咗
圜
狥
赓@@
祺@@
ę

備
珞@@
透社
數
蟠
轉
樂@@
庑
蜴@@
圆桌@@
妫
畦@@
童子@@


煅
倜@@
敕
衿
璹
盍
泠@@
杳
圣节
镲
莒@@
成百@@
芨@@
箧
迤@@

潼
頭
裢
裝@@
胗
湫
底特@@
蠵
珲
調
㏑

撺@@
酽
去年@@

斫

蟥
喺
视而@@
伥
鼢
劢
磋@@
و
參
啓
悱@@
霎
墒@@

┰
合议@@
饽@@
孖
魈
恁@@
毬
喀尔
鳢
夢
續
痷

价比
僳@@
铩
无动于@@
虢@@

珑@@
鈎
栀
蹰
教科文@@
∝
维多@@
嗳@@
脷
诟
歡@@
蒎
晗
タ
錯
樾
廢@@
遒@@
大会@@
Ｑ
痳
ш
瞶
蓑
召集@@
各斯
蛏

昀
色色
適@@
ㄘ
蘩
媞
勢
潔
蚵
ё
说服@@
買
擞@@
誌
Ｚ
渤
華
踮
頟
楹
觥
江苏@@
蹚
┑
跫
線
婧
刂
骋@@

權
嗟
鼙
见惯
鲀
煸
驸@@
檩@@
镏
陨
搽@@
辔@@
崚
徉@@
娉
¸
И
沤
選@@
ǜ
珂@@
剎@@
钤
鹦
牺
咿
粽
佈
吥
豢
語@@
蚩@@
槟
Р
橐
恁
骆
豸
枞
書@@

肈

嵘@@
﹢
摈
燈@@
Э
碓

毎
蜇@@
状及
哥斯达@@
職@@
幫@@
諾@@

窒
³
Е
昰
罘
聯
集思广@@
怛
維@@
哦@@
蔻@@
ό
遊
鲮@@
蟑
菪
劳动和@@
癘
仅如此
彿
龅@@
狎
蠡@@
К
心所欲
Щ
懽

苺

毛里@@
蛸
茚
٬
麂
湄公@@
煜@@
朕@@
椁
嗰
蜻
鲛@@
ｚ
遺@@
祉
暝
費@@
羅@@
腦
镕
尼派
鲠@@
猥
蛲@@
峤
榀
ど
特快@@
浼
癞
讚
財@@
魑@@
弁
謇
ㄟ
晖@@
錾
遣队
捭@@
砘
驗
鐘
相似@@
芠
Χ
想象@@
牍@@
痈
義
琍
虢
攸
尋@@
舉@@
烩@@
渲
邡
艹
炕@@
ż
罅
栾
拽@@
骊@@
汜
了
蝼@@
阿让
鹗
貨
柢@@
籔
€
衙
Д
鬍

鸬
桕
⒒
踫
馕

ㄠ
尢
铨@@
侥
柄@@
小板
佞
圴
菰
嫫
確@@
綮
垃
捍
厝@@

郵@@
ي
傭@@
嗾
屄
绾
俦
槠
蛟
風@@
鲳@@
編@@
缱@@
嗒@@
≠
Γ
導
法塔@@
櫃
秆@@
務@@
嬉
信片

點@@

羸

樽@@
厍
ゑ
各族@@
鸷
舄
惦
喑
頭@@
孬
婪
馗
哒@@
没了

隋
聲@@
淦
彌@@
宓
内障
芊
ゼ
毂@@
∈
し
寧@@
缷
願
岜
辚@@

更
苻
侣@@
ꎪ
噹
侗
曛

弋@@
安非@@
穝
漩@@
新加@@
顧@@
泷@@
运兵@@
涞@@
該@@
奭
缶
ة
熱
怍
ユ
蔺

鲅@@
逹
鲾
苫
挈
粲
鹪
斷
蠼
尼亚胡
eph
鲶
れ

蛎
颦
誤
沣
輕
淞@@
而然
桀
蓇@@
鸹
張
飲@@
係
出庭@@
猢@@
炸机
銷
苤

亟
巳@@
鰕
蛳
阗
確
衾
葖
責@@

歙@@
齡@@
古屋
思议
蝥
県
鳊@@
両
檠
眾
澎
痲@@
鳙@@
提条件
鸥@@
鲃
瑚
煊
辔
ь
酙
｜
锟

茕
炝
戥
牯@@
覧
潋@@
嵇@@

跗@@
绨
岷
Μ
孪
罙
∩

坨@@
荨
鹘
談@@
殛
薩@@
パ
昶
遠@@
绔
埼

昄
ㄕ
吩@@
蝈@@
搧@@
丐@@
薜@@
ㄖ
畴@@
靈@@
龖
贰@@
悃
砻
區@@
仝@@
筷@@
審@@
豿
锛
汴@@

葙
誕@@
茍
阿斯塔@@
萱@@
顸
懋@@
換@@
宾夕@@
酡
釋

现率
镴
并论
锾
譬
儘

驽@@
僅
罰@@
贻
幺@@

涿@@

妗
茗@@
討@@
首当其@@
デ
雎
根于
俳
闾
蒌
丕@@
泗
旒
葸
嚒
発
◦
ű
治外@@

文比
嚴@@
柬埔@@
崆@@


谊会
膑
Я
漁@@
燿
荧
鼱
陂@@
麋
汐
衽
妯@@
遊@@
镟
锴
沤@@
Ⅷ
潦
創@@
碭
莸
訪
鎚
和睦@@
痈@@
ت
嵋@@
稰
ㄧ
啟@@
镡
美和@@
鈥
旣
旃

抉@@
磐@@
诽@@
镏@@
纥

嘌
壞
蓠
潞@@
約@@
憶

诓@@
磔
蒯@@
壯
凈

堋
裰
嚯
夂
習
踉
卞
钿

淖@@
硗
衄
玂
م
義@@
訊@@
金
耧
Ⅶ
優@@
煺
吉隆@@
絋
樹@@
窨
庫@@
蓁
採
塡
餾

嗵
榮
滞不前
貘
绐
溫
侑
鑞
鲣
并发@@
講@@
玆
橫@@
胊
谝
衲@@
国与@@
决于
恍
壸
退伍@@

茕@@
離@@
柘@@

奥林匹克委员会
樵
栌
φ
兩
闶
瞻性
皴@@
艿
聖@@
葭

痲
値
視@@
打下@@
穌

Ⅹ
颡
✕

丄
脫@@

庠@@
陛
陟

ر
嵯@@
Sept@@
峄
螂@@
箐
疳@@
睨@@
高加索@@
忝
榖
讶
开诚@@
暾
絡
ⅱ
揇
き
蔘
廸
漳
如前@@
魑
樓
蝥@@
涠
で
興@@
彙
煙
阕
┅
詞

诤@@
袼
淩
菀@@
榧@@
诎
琮
響
皋@@
樨@@
恶作@@
阆@@
蔟
赉@@
濡
歆
钣@@
評@@
謢
硄
ね
炱
拋
援助@@
晔
维也@@
尬@@
纡@@
紹
焐
蔫@@
∘
鏊
喆

蟆@@

璎@@
鹎
毽
盱@@

縻
翮
掮
锷
壼
醪@@
嗝@@
吕斯
婵
玳
婦@@
釐
洫
罘@@
複
沌@@
悭
ヴ
汊@@
诳
嬅
煊@@

臁
Ψ
來
醴@@
弌
柁
屍@@

帙
圳@@
綫
┯
淸
觥@@

筿
剛@@


屣
永逸
⒐
畚@@
鄣
倖
颉@@
箬
尕@@
缟@@
晞
訪@@
杲
於@@
搵
卮
绛
ビ
ˇ

燧
訂
笠@@
胡锦@@
滗
塱
鳥
巉@@
雜@@
枭@@
ĉ
碣
丅
痤
笞@@
谌@@

隳
ч
湄
單@@
上帝@@
帶@@
眇
苚
绫

廠
倥@@
岿
療
郧@@
ɑ
扈@@
貼
贵重@@
貝
谚@@
┎
虼@@
»
噫
分水@@
細@@
葉
洇
飲
肷
慵
霁@@
欸
測@@
锱@@
帛@@
調@@
け
嗲@@
湧@@
輸@@
偃
徇
咤
蟑@@
翱

殺
幹@@
婵@@

殚
貴

觋
旗国
蕈@@
诂@@
政司
伛@@
岫
卍
翦
量
島
痴呆@@
難
癳
路
眉睫
狓
窮
洮
坻
擔@@
印第@@
佛罗里@@
诒
虜
幣
醴
婊
贫民@@

粳
﹜
瞩@@
芟
┏
埰
鸨@@
伲
瘌@@
を
鎴
馬@@
牴@@
趿@@
狙
Ш
一如@@
ю
睥@@
戰@@
禆
蘖@@
綜@@
旎@@
枧@@
顚

狝
丐
谄
暻
窺
臫
戻
螋
錯@@
纉
ゴ
対
缍
扊
谰@@
筦
蕤

濯@@
荜@@
骅@@
轉@@

願@@
絔
瘰@@
嫡
穫
凼@@


ㄎ
隊
安提瓜@@
┤
謀@@
嚥
菏
蕞@@
х
钊@@
預@@

暄@@
郯
旿

飾
章制度
凫@@
負@@
蒹
聖
満
耶路@@
垜
罹

稣@@
西州
裼
一揽@@
戶@@
範
噍

樗
堞
莼@@
簡@@
趵@@
嶙
搦
黎加
橼
郢
滹@@
恤@@
剤
無
術
梣
嬖
稅
狀
蓋
愠

鹜@@
呋

铙
闾@@
西班@@
燮@@
碼
賓
曰@@
剘
觯
晡
邰@@
疠
邨
飯
飛@@
郿
柃
娉@@
柞
杓@@
忸

稞@@
Ś
筠@@
俅
钤@@
蒴
蠔
陬
牖
囡
萁
ぎ
葺@@
浵
酫
阋@@
珏@@
砥
鸩
蹴
魉
垌
棗@@
苊
汔
所作@@
缱

種@@
癿


臌
ㄗ
碚
分裂症
賓@@
旬@@
荦
睲
踐

團
诤
鮟
杌

凰
蹓
娊
褰
筮
く
È
侵者
聯@@

見@@
菡
湟

塞建
埴
啟
幵

淅
⒔
湲
粝
庫
謦
栁
涧@@
芏
糴
谰
苘@@
泱
趺
坶
傩@@
东道@@
藁@@
谥
笩
铖
厄立@@
藨
摰
陽

訏
ｑ
筱
與@@
帏@@
诠
蚩



鄢@@
土耳@@
險
臟
悒@@

麈
‑
蛔
ع
鐨
囵@@
巴布亚@@
鹀
乩
負
甬
尼加拉@@
岈
鼹
锶@@
痪
莼
溧@@
ψ
离破碎
ⅳ
瞀
畛@@

苴
眢
迺@@
里兰@@
趄@@
锪
儡
囬

譯
試@@
祕
黟@@
舐@@
謝@@

蘭
一无二
榅
殒
鬚
恣
穆沙@@
特朗@@
猖
揠@@
巯
晩
鲻
誊

多样@@
慷
獲@@
鉨
終@@
ル

逋
婪@@
膠@@
僞
誠@@
傑

流程@@
麼@@
鲁滨@@
不容缓
洌

拮
郄
哐

铥
绲
灏@@
伫
頓
厣

鱇
攝@@
郏
監@@
舾@@

薜
邕

Ю
绡
笥
埭@@
昉
帯
¡
幹

鼋
齑@@
覽
濂
硏
興
鸱@@
認
Л
硎

峙@@
埝
歴
柒@@
谑@@
俱进
扃
朐
癣@@

隍
裉
墁
谖
噹@@
艄@@
鳏
利美
浔
媸
邕@@
瞤
詢
在眉睫
怄
ぁ
ÿ
桫@@

蟋
畑@@
仳
歐@@
ъ
渖
圍
▼
儋@@
谥@@
廻
蜿@@
僦
狟
菫
瓒
灞
芊@@
铗
卝
嵛@@
好奇@@
缫
列
箅
廳
餸
黙
甯
鮭@@
骝
岢

蹁@@
蚚
肪@@
妤
領
談
多瑙@@
邈
╯


芗
楮
頒@@
无济@@
檎
蔷
紀@@
ك
盢
矪
鞒
⇒
缧
熳
扺
渥太@@
廔
ĕ
桲
獗@@

茲
悖于
澧
捋@@
婦
緒

堃
郦@@
從@@
ㄉ
琰
赜@@
逺
镘
大哈
設
態
龅
砞
楸@@
跬@@


羨@@
鼐
頁
狲
彧
繫
⊕
膻
ㄛ
畫
｀
ス

枨

年青@@
绶
倜
蓁@@
总有@@
賀

祀@@
Ï





荩
蕻
砀
豉@@
秨


瘿@@
旄
颢
婺


溼
鲅
红柿
獻
∽
鼋@@
昃
恰恰@@
ッ
ORIG@@
青红皂白
鲠
漢@@
蔸

枙
摩纳@@
魚
陉@@

唏
衝@@
扞
皊
組@@

蛴
剋
喟@@
伽利@@
蹶

嘧
敍
砉
と
袗
締@@
彘
塾@@
彊
方案@@

坲
岙@@
悛
覃
炘

糌@@
赧@@
狲@@
颧
ⅴ
觜

説
祚
蘼
娠

签署@@
枓
阎
異@@
ф
輪
誸
痊@@
芄
医护@@
崭
ť
翕
瘴
滏@@


茚@@
價
蟻

論
堿
砦
癚
搆
扌
謹
郫@@

诨@@
魣
⒏
潞
馍@@
驽
犟@@


陂

敂
菽
漾@@
鹈
满为患
邳@@



劃@@
ittee
嗨@@
酎
腚
骹
腍
蒙罗@@

睒
蟛
搧
妲@@
熱@@

圻
犍
難@@
浞

獐
繼@@
前进@@
懷@@
愀@@
佷
擇

炷
卐
魚@@
锻炼@@
氎
闼
壓

绀@@
阊
疒
氾
眏
嬛
牝
赓
愦
滙
蠲@@
毀@@
麇
发指
﹤
当其@@
窭
蓍
甪
異
戆


侑@@
俪@@
慮
ע


項@@
雠
疋
鲌
埭
蟲
η
漕
柽@@
枥

杔
蛘
牆
枋
憬
顯@@
风顺
苫@@
課

淝@@
勫
聒
崞
__@@
鬅
ヰ
四氯化@@
ц
識@@

酢@@
饣
蓍@@
玺@@
玘
剝@@
瓤@@
飛

講

載@@
囱
濉
皈@@
瑪@@
ㄢ
聯
庀
妏
伢@@
戲
潲@@
幇
併

徑
萩@@
畲
喟
י
ダ
暸@@
ァ
ď
檬@@
饔
菔

掬@@

墬
連
結
輕@@
⒘
魯@@
盡
峽
┄
怎样@@
洵
祼
洄
梿
舛@@
踬

哝@@
瑈
苕
啝
蠋
硑
蝰
槔
嚟
｛


畢@@
膂@@
荜
週@@
鐵
窳
恵
缯
孳
繇
髦@@
塚
委内@@
内斯堡

橄
苌
庋
偏不@@
啁
蜃
ו
一成@@
鍪
琩
噯
搿
廛
抏

鍙
伹
亻@@

畀
仵@@

衮@@
蔴
僱
魨


蜊@@
髀
傷@@
痿@@
餅
颟@@


钔
漸
僟
赜
礎
碣@@
剜@@

琁

驣
隱
巴勒斯坦民族@@
烨@@
赛因
笄
徼
納@@
噸
金枪@@
浬
沭

隊@@
吿
苡@@
醢
臷
岵
黨
秣@@
俄罗@@
耨
楦@@
┈
嵛
隠
厖
凃
纒
ι
寤
佶@@
矍
运载@@
僖
砏
琊
ꏡ
修订@@
離
刿

姹
轕

与众@@
ά
腦@@
擢
拉
轇
钗@@
駡
嬗
顔
葳
袛
巉
橦
鹟
娈
盥
布琼@@
谮
蘭@@
諸
揖@@
承建@@
維

迨
靜@@
蛞
腸

翌
選
囟@@
杼
毖@@

厶
媽
疔
伊拉克@@
棹
唼
鍒
岖
庳
戆@@
順@@
佥
防范@@
昶@@
⒖
埽
诼
佸
反之@@
螽@@
設@@
杧
嘗@@
钫
ㄑ

雖@@
土穆
ぶ
手旁观
阇
讠
搠
别于
缥
专属@@
攵
庠
炆
箝
蛑
繧
缡
ِ
巽
籤
鼹@@
蕞

釴
嗍
´
煩@@
玱
德培
饫
渉
補@@
忏
┦
愍
薄弱@@
聼
え
葑
蝈
肴@@
郃
搛
蓐
酝
诬
檩
絲@@
尼泊@@
噼
蛎@@
赉
彈
阚@@
樑
鄉
布瓦@@
剥夺@@
紅
聰@@
锸

¯
┪
獗
炻

賴@@
済
姪
艶
荬@@
铧@@
礶
涪
禊
璟
臊@@
︹
侔
堅@@


Ł
瓠
楫
荀
鏡
暌
塄
妁@@
吒@@
紊
翼翼
桠@@
骊
廝
蒥
鳜@@
噚
狍
哏
僖@@
淨
論@@
▇
糞
砼@@
聃
莘
Ż
幛
谡
細
跎@@
憍
轫@@
﹥
阿密
鄉@@
麗
頂
亽
돘

讀
瞇
阂
喸
岽
寫
鬘
鉆
樹

箇
趱
❖
黥
揾

聱@@
旆
咎于
忽职守
嵯
昱@@
弼@@
舉
旻
経
柺
Ĭ
屽
솸
邗@@
耒@@
絬
蒂固
矬@@
廝@@
棰
綷

辶
帳@@
塔什@@
卷风
勝@@
囨
繷
艨@@
膦@@
ب
谲@@
蚣@@

颃
羭
瑾@@
棼
軍
餘
諾
瘃

覓
媲@@
糍@@
枧
溉
祜
橫
偱

淞
銆
笪
灣

贲
뻘
扥
扦
秖
損@@
嗙
墅
蜿
龌
舯
糵

廚@@

馒
狷

莶@@

Õ
髮
锎
咲@@
珣
尅
搌
缙
ㄥ
濸

韫@@
΄
稓
龢
韻
簅

╰
漿
个案@@
틘

轻女
螩
話@@
蠔@@
苈
見
诋
圜@@
═
淉
羅
貔@@
蓊
笳
论会
漪@@
俜
塞州
唸
硷@@
兂
谤@@
曦@@
踌
篌
吆
栊
竜
朮
猗@@
霧
囹
粦
菔@@
鵟
湎@@
侪@@
鳚
獸
Ë
祘
绚
訾@@
樣@@
糍
щ
窈
醡
⒛
ⅵ
蚨
镌
尙
律
槓
サ
槓@@
顧

糁
椥
锖
萄@@
黍@@
隱@@
碚@@
積
羛
枱@@
淠@@
亻

蕖

崦

頣
阐
巴厘@@
妺
畍
崁
豨@@
燐
若
搟

恫@@
討
癀
吸血@@
安大@@
剛
袷
醵
瓿@@
⒍
镄
築@@
锃
碛@@

掛@@
崮
殘@@
줸
累斯@@
湪
擁@@
嵗
深思@@
夲
鍚
骎
灞@@
蘇
劉
红十@@
鸾@@
癯
笢
魍@@
◯
Ц
導@@
苓@@
鲮
單
霹
護@@

黾
猵
珈@@
蹩
掊
骒@@
喬@@
蔯
阒
灠
莅
琬
助产@@
訢
骱

┷
艟
菠
日复@@
璇@@

漠不@@
秂
溲
貯
旻@@
稔@@
趵
観
Ã
陰@@

殍
洓
大韩@@
瘳
蛱
飓@@
磙@@
Â
豕


宮@@
梃
便
歙
谶
┒
詐
峒@@
Ô
愰

劦
牺@@
坰


盡@@
쁨
簀
廋
襯@@
関@@
锔
釪
全神@@
舧
偬
︺
惬@@
鬯
コ
丆
唿
緊
由来@@
貍
钺
浈@@
稷@@
詩@@

鲥@@
貔
敦士@@
貅
姘
絶
冊
浐
邡@@
葉@@

諈
﹏
茺
礅
逍

畑
溱
饪
熘
規
碿
穩@@
貓
場@@
寘
碡
ん
坼
嫚

衝
邶
駕@@
埘
眅
挐
ふ
ュ
萂

徬@@
别忘@@
伯顿@@
夙

臨
歩

栲

柰@@
疪
笉


黃@@
蹀@@
榇
燭
淼@@
锲
擊@@
門
り
圪
囦

觚
藝
亊
籵
∆
蒻
脍
茲@@

琚

蝮
萏
額
晁@@
沣@@
陟@@
臘
珇
窣@@

睃
轮社
璓
須@@
遙
鵥

﹀
ه
炀
簋
兩

滅
仄@@
鬆
祉@@
參
⃝
瞽
ꩨ
獶
彆
ن
以赴
坌
矇@@
巻
ش
吶@@
砃

捯

贊@@

骈
袪@@
נ
紗
ㄣ
┆
奘@@
絕
瑿
檔@@
適
谂
倫
内卢
詳@@
仫@@
弗吉@@

敗@@
镞@@
鮋
结社@@

言人
孑
庾
囯@@
┣
梠
踊
褊
倨
羈@@
託

燒
荾

犤
鲗
鲳
褚
箂

þ
陛@@
鮰
当务@@
據@@

喈
㻈
镪@@
兲
觀@@
綘
蛝
勐
臌@@
珅
璘
飧
妣
מ
为患
耪
槍

歷
┕
绱
較@@
爐
迓
忭
纭@@
鏂
貸

焱
貯@@
硇
箪@@
訟
墜@@
┚
專
栱
ㄔ
垡
囝
躞
肵
鼯@@
褫
氽
鹄@@

鹇
魃
厗
茘
癡
俨
怃
镪

犛@@
暴者

蓥@@
楜
寫@@
邛@@
闱
鰓
聞
窀
垭@@
加太
恧
瑗
螳
濞
相辅@@
辯@@
镥
禲
茈
菖
俰
泫
渓
シ
戝
璺
撚
桴
茛@@
埤
耞
驷
喥
Ý

揚@@
砹
┗
彗
淠
艄
Ъ
遲@@
冖
茼@@

矹

暱

籲
¶
舻
兎
笲
睺
曽@@
凵
钭@@
玭
訂@@
Ê
·
仡@@
桴@@

紀
罣
勵
陸@@
墻
郓@@
ņ
秾
籠
枘

膻@@
藷
﹟
噐
袪

麾
铈@@
ⅷ
锞
繻
谠
ㄩ
ザ
灘

潆
缂
煦@@
屾
嚴
淚
怫
寛

雒
ξ
妝
ㄌ
鐘@@
鳙

搣
圍@@
诙
嵫
髻@@

百计
甓
霁
惱
ひ
苎

髯@@
行使@@
芫
漸@@
廟@@
潢@@
倰
琥
斨
聽@@
戰
惡@@
換
鑒
潘基@@
眙
藥@@
亲善@@
比勒@@
骥@@
慝
習@@
顰
酃
┍
ぞ
曵
Ж
觳
鐗
繕
⒑
類@@
佼
叙利@@
禫
俎
蠟@@
瑄

ㄝ
痁

嚐
殄@@
撃
嫲
士丹利
賀@@
歛
摩纳哥@@
濂@@
簟
琇

岌

リ
栝@@
貉@@
增无@@
祼@@
煥
購
朐@@
跻
┐
抨@@
锘


甮
養@@
而易@@
餘@@
茇
様
휨
蜚
か
鏻
确度
圖@@
疲力@@
单亲@@
単
Β
臸
廣

暹
儲@@
喏@@
倢
穏


跣
揎
⒙
特丹
缜
璜@@
瞑
ث
鴴
簽@@
譽
吢
ピ
痾

養
鱆
鮈
杩
盞
﹪
炅

╃

└

军备@@
岢@@

旷日@@
撅@@
滉
槛@@
言之
吲
犦
上市@@
掃@@
訴@@
ツ
霈
䅸
鼗
一帆@@
鸰
锢@@
南部@@
惪
玓
羰
葫
邺
樂

瑛@@
箇@@
舭
眍
敉@@
汨

氛@@
剎
糷
焖@@
職
輭
葎
滾@@

浄
▷
鋅
榱

犍@@
砒
掴@@
熵@@
駐@@
毳
愆@@
喚
揟
獀
狶
猷@@
堠
尒
脢
捌@@

綠@@

ŕ
珺
溚
黜@@
渫
潟
芟@@
鹣
呼米
漥
薑

粜

畠
ざ
楽
ퟸ
镔@@
棄
躄
滹
揍@@
毵
籐

桎
懷
蔹
哓@@
郗@@
媽@@
醍

廟
惸

箎
哸

厲
旮
殑
関
毖
擋
獠
璽
士尼
灐

楙
表水
א
볨
餬@@
痼
淦@@
缳
紐@@
Î

逄
蓘
盓
芈
塲
闀

哘
哽
良
郦
鎌
趑@@
샘
堍
ᑘ

埌
榮@@
賦@@
驚@@
嬑
洨
胈
泺
✓
意大@@
鬲
順
酏

林
軟
ブ
閉
┓
型期

翹
竚
炤
罸

裣
圏
垤
卣
夢@@
㖸
ġ

∮
傺
菹
竡


╣
褡
敘@@

婕@@
Υ
樓@@
妅
劧
«

笮
甁

衡量@@
通货@@

䳈
鞫

觌

戛
瑚@@
輸
筨
潲
塍
窾
農
粅
స
不利@@
⒚
逑
鼷@@
得出@@


裑
㰸
遄
鍾
礸

芗@@

ޘ
塔利@@
穀
歃@@
涫
不及待

が
浚@@
謊@@
诜
焜
嗌
俉
篙@@
ﻘ
圃@@
園@@
⋯
撫
達@@
鸺
舄@@
桿
々
苧@@
乓@@
痙
瘐

计长
面试@@
袓
ﲨ
髙@@

們@@
縨
偈@@
ぜ
颀
吳

砫
谪@@

鏀
;
柘
粢
丟
د
傘
哕
碹
廴
ꥈ
堀

羘
鎯
স
玢@@
儸
姆林@@
潔@@


額@@
月会
υ
䰨
齧
І
張@@
敫
䠘
砯
榘
虿
軌
睱
跡
长国
枘@@
崤
璚
螚
恽@@
頼
囉
㶨

垚
畉
東
〒
淆
쑈
泸
ᄈ
鉑
裡
鞥
瞷
六方@@
閉@@
浔@@
華@@

抉
삘
ェ
Ⅸ
罵
蟓

岙
ド
趕
质炎
祚@@
恆
粈
旅
蒺
塗
崆
収

縳
仂
齑
ㄋ
֨
ᢘ
东省
珮
雞
蠎
玾
ς
稲
涞
嗪@@
飾@@
縱@@
瀹
硉
鳽
耒

ዸ
╁
磝
餮@@
℡
원
噴@@
二恶@@
熸
ㄦ
后天@@
牗
侞
桤
四次@@
繞

切
靑
苣@@
秕@@
侶
骀
酆

扙
畟

뀨
笏@@
罱
堙
嘢
筚@@
繩

铍@@
ꋈ

肆无@@
酋

收容@@
奻
葰
虷

跩
肭
稂
唸@@
袤@@
ハ
闩@@
蒌@@
ת
鉄
嘏
轹
ї
遷
胩
翦@@

擊
徖
薸
᧸

舦
함
韨
绲@@
绡@@
圉
猗
藴
椇
踺
廇
臥@@
㧘
꩸

繦
箅@@
餚
AWG@@
鄯
緾

叵
骃
磲
法罗@@
擕
驸
箬@@
觇
蠲
┲
佞@@
渚@@
嵝

埂@@
牯

嗑@@
郈
杲@@
鳊
僨
垠@@
㑨
喪
鹡

卲
櫥@@
暫@@
Ȼ
ỷ
亂@@
ᣨ
狹@@
卽
鲧
溇
綼
檞
貨@@
箜@@
廨
慣
稅@@

襍
僕
廣@@
訾
ઘ
匕
远镜
䤈
紙@@

跐
郾
饍
嚰
識
ト
硸
說
劍

懊
讟
⾸
鯷@@
顼
里约热@@
荥@@
環
潸

笾
酘
萊@@
抔
Ĉ
阆
厭@@
ﺈ

皴

倫@@
⌒
刭
獨
瘉
瞞
繙
ů
碳氢@@
궸

誏
瞢
∴

ご

殼
闈
鋳
陰
啞
痠@@
略

铄@@
郵

봸
嫱
芖
放矢
柝
狀
宄

鈈
步声
玍
辯
貫
碦


苾
‥
亓
鯊
腞
や
閘
鳇
≌
乊
姒
遙@@
嚇
勝
圪@@
滁
纐
玢
檳
否是
欎
畛
痦@@
擡

蹯
氺
毞
斱

篁
╆
顛@@
渃
紝
質
贏@@
肏
┥
菟

醫
窰
ォ
誈
ロ
ⱈ
鴷
庅
窿@@
晈
樻
桿@@
涘
肒
獹
連
篨
曉@@
謒
碸
臨@@
╂
龊@@
﹊
揾@@
趼
戾@@
玎@@
効
塗@@
勞
獘
迖
踽

篈
ヨ
糾@@
繨

ᒈ
כ
摒
癵

㧨
崨

ב
捸
崄
呖
莨
阗@@
翊
籣
莛
澤@@
伕
௨
耷
߸
锬
明文@@
愈烈
诿@@
羼
莳
遈
諒
ਨ

惋@@
棈
簆
艱@@
陸
Ě

斪

螵
閤
ħ
鎮
舸
婨
禘

率
揿@@
礇
滾
藁
等离子@@
哓
龕
冊@@

嘨
矚
约组织
師@@
闢
편
洏
䀸
뮸
綿
琨@@
士革
減
樘
爛
者说
鈷
厼
羙
赱
擔
誠
応
賣
▽
鼯
寬@@

篼
豊
婃
퓘
┉
鳇@@
吽
鳰
枵
琂
哂@@

憤@@
圞
岘
囙
℅
螲
䌘
苁
ガ
珨
琜
沔
糽
栩
殺@@
燭@@
鐖
星期@@
忈
椪
쨘
랸
陳
수
贾梅纳
ョ
勖
槪
繝
菥

濬
彈@@
藥

測


昇
摭
叆
眤
渻
杪
筌
،
开场@@
覶
橋
纇
⊥
圳
职权@@
囩
統@@
眀
籇
夀
铎@@
侏
埜
╳
仈
呫
䧈
Ι
┶
竘
㊈
忐

楓@@
肀
维网
餧
狡
ᕘ
亁

珵
有价@@
拉圭
戜
鰩
緣
穞
愽
自闭@@
矣@@
傾@@
筆@@

陔

萛
犏
茆
祧
齉
蛩
౸
谇
楊@@
坳@@
誼
埏
北
蝴
落
蕲@@
伛
婖
覊
蹤
靈
녨
‐
䒘

瘖
嫘
粋
蔌
脈
埙
恥@@
국
蝨@@
実
辭
頫
喚@@
ヾ
螭
洳
牻
湓

匏

큨
閃@@
醑
ǒ
怱
鐵@@
歆@@
昝
憂@@
瘰
袴
珰
昺
輪
甕

偸
ט
瞵
猶@@
卋

歨

鬻
尥@@
녈
橛
彲
想方@@
鐪
螞@@
赆
眕
倶
Þ
園
屺
璩
鍏

浰
嘦
擠
不紊


排行@@
悅
╟
繖
縡

畃
赽

緑
牐
鎳
傘@@

̀
恴
夤
狩
⦈
髙
耑
犷@@
騙
捨
皞

꼸
蕹@@
彳@@
س
溆@@
翚
翑
渖@@
誱
瘜
逖@@
ᚨ
컘
殆@@
视着
坻@@
築
泺@@
癶
曬
流
擆
戀
胬

瞣
埯
滯
逋@@
笸
儗
擬
鲥
荑
糘
氁
뉘

購@@
鹨
杸


舊
証
琎
䄨
诋@@
邯
㺸
璈
殽
勸@@
斯堪的@@
ĺ
鑨

蜞
柝@@
陉

俋
功于
鵐
勅
茴
萨兰国
迕
煈
ģ
ⴘ

ち
滝

極
ꗈ
戯
馓
襌

篖
鲴
佉

冏
呖@@
砱
蚨@@
┋
縫
｝
硈
Ő
蚍@@
腨
靿
玠
墉@@
辷
籃
掱
诖
膄
ר
妎
ほ
罌@@

唣


怈
ĭ
薩
䛈
蜮@@
恂
枸
庨
禣
綇
揆@@
鑰@@

학

威士兰
惆
陎
꾸
誥
珎
禳
闳@@
ꏣ
跹@@
璂
瞦
責
偑
觀
伉
地中@@
尻@@
嬬
┼
絤
糢
簑

侓
䆨
髎
薤@@
鹐
勁

貸@@
湅
杜尚@@
渼
骷
鹁@@
̈

堔
亅
纘
法轮@@

籌@@
喎
疐
掘业
ǔ
婠

遐
顏@@
嘩
ከ
疬
㺨
騒
啉@@

鄄@@
镆
媄
惡
鴉@@
▅
圓@@
ج
螘
褀
慶@@

ﮈ
桑比@@
遝
棓
傷
钏@@

猀
密院
寪
蛲
饹
偲@@
Ù
ᦈ
﹠
욘
灬
扖
螽
叢@@
あ
觏
盪
撜
Û
ᤘ
镒
决书
嫨
Ā
儉@@
ㄐ
聨
轸
ͨ
׃
缣
炻@@
綠
洐
᧨
ﷸ
ﺸ
反倾@@
綝
뫘
禱
岌@@
㒘
鎻
Ν
厭
砙
乌克@@
癔
鰤
尷@@
∷
狍@@
圉@@
钲
劑
袝
鍗
顗
鞿

爭
ᚸ
吘
柸
漶
澌
帀
詢@@
驟@@
蝲@@
库克@@
碉
柙
ズ
錨
全意

撫@@
遞
椼
던
酝@@
儀
⚈
飄@@
蕺
髑
麪
捄
弭@@
脫
晢
饸
猊
隒
烕
诔
癹
桷
攍
冨
禨
居们
濕
ᝨ
弇
鶲
逡

謎
屇
幤
媨
‖
窆
㇈
胲
摏
躏

莶
쮘

椌
嗞
夾
骘
엨
真寺
缐

禔
搇
悶
薓
פ
閿
顸@@
軟@@
渁
黑兰
織@@
瘔
ຸ
拊
夼
沢
騎
皘
轵
仝
薏

鳯
奷
纰
攨

련
鐣
莂
綈
重男@@
芃
協@@
げ
↖
新泽@@
㉸
蠛
┳
殻
忨

龉@@
毬@@
霈@@
蟷

鏉
駐
冮
盅@@
僅@@
遒
沖
扠
繡
棑
駸
浘
欻@@
阌
欐
甧
穖
뗈
路里
瞌
噓@@
委员@@
賣@@
踞@@
終

議@@

閱
蓖
繸
笅
珙
头鹰
妀
麹

鸱
痱
珓
誘@@
爻


㠨
鏈
鹆
駛

歷
旌
棄@@
뛈
嗉
吶
鼽
樸
⒓
曽
尌
櫸
하
Ȩ
皤
됨
緈
문
泶
擧

搥
鸸
寳
㏄
錾@@
蹒
法委员会
菡@@

爛@@
瘌
篜
ば
苕@@
用人@@
蒗
瑷
髸
戲@@
轄
鷟
竊
蚂

誕
睏
摯
饩
禤
邙@@
喋

墿
楮@@

錄@@
僳
纣

詴
鍜
谯
制人

諒@@
憔


无与@@
芔
腼
亓@@
࿈
槊
硇@@
澹@@

瘊@@
巸
僮@@
謙@@
瓠@@
陃
驕@@
珿
䣨
恅
卜拉@@
竧
グ
辦@@
ح
揥
镢@@
螵@@
␈
鹛
郧
暌@@
儅
杛
賴
鸳
縫@@
栝
繐
إ
堟

猕
捥
勳@@
鳡
垳

蒟
賭@@
啠
訓
鹾
鴞
長@@
㎏
寃
誃
葳@@
╇
惝@@
陣
磳
競@@
钖
念
頑@@
╧
怸
蹵
バ
鲩
愈下
ﶘ
倮
瓨
䭸

取而@@
艾滋@@
骧
畒
佶
堎
滂
峯
쪸

À
兖
帳
鐩
粧
芩@@

ㇸ
搖
봈
߈
Ṩ
豬@@
岃
ᗸ
衖@@
뚈
儈
廱
懾
琾
翡

牽
逯@@
醬@@
祯@@
攺
門@@
땸
荛
鎮@@
끈
ਈ
麴
椨
자
燉

牤
๘
綏@@
婂
聃@@
綞
氕
癍
垧
缌

徦
苝
篥
暋
鳜
俶
遜
崃
䤨
鈊
栳
つ

塜
処
ボ
驗@@
绯
觸@@
孅
鎺
௸
勪
온
瓁
メ
豋
┠
雒@@

딨
鞨
亼
績
穘
├
ⵈ
緘@@

刳
惝
띘
偊
跡@@
緍
淺
緃
畢
돨
鬻@@
浠@@
畧
蟲@@
Ө
爻@@
糬
刺
瓸
謂
線@@
樈
翺
趈
逘
營@@
晸
亜
∏
専
藋
圵
屺@@
Ǩ
誤@@
垆@@
妟
舳
峧
촸
肕
噱
घ
腽
藍
铇
所罗@@
刼
濶
陴
娒
厓
媲
ࠈ
検
֘

㲈
ف
笥@@
湰
蟊@@
藠@@
擈
䮨
홸

礽
郜@@
縉
貓@@
珪
岍
狺@@
侉@@

회
鋆
礡
爨
鉓

㥈
醐
猧
Ă
酆@@

셸

鏅

謄
覽@@
雰
蘨

Ŝ
梈
揃
不止@@
ⴈ

六
埜@@
틨
蟀@@
뀈
짨
䙘
蕲
ᣈ
紒
峁@@
㽨
篩@@
鈡
쾸
篠
㛘

儀@@
䏘

挘
۰
笿
恽
䩨
숈
睢@@
ソ
赟
鹉
憕
嶢
먨
塨
儍
日程@@
휘
辵
⟈
琈
덈
銜
澨
醂

ꉨ
垆
鎶
綁
尕
ঈ
趕@@
뚸
畹@@
壽
⇸
喫
搴
車
䴨
汴

慣@@

氷@@
繼
核不@@
䇨
玦
賠@@


菝
鶵
犠
魳
旸
뱨
自言@@

砈
劭@@
藍@@
猳
籈
磬@@
盧@@
꩘
偁
䓸

櫵
磴@@
성
벸
缧@@
俵
┡

爍
劯

咛@@
䯸
䜈
紆
衈
徹
桢@@

સ
貙
收支@@
幪
䦸
㕨
妯
锊
埵
鶪
睘
멨
滈
殳
咙
﹦
殂
堃@@
蘗
屢
渦

眘
軚
㎜
淂

礢
糇
岥
Ƙ
跈
屿@@
裵
瘗
鲏
聴
躝
簍
║
舴
偍
㛨
纳法索
晷@@
Ε
樫
際@@
♥

訝
冋
籓
钑
畫@@
褴
薮@@
嵆
莙
笊
倆
閭
┌

„
昐
簕
쬨
軸
䔘
ᦘ

嗈
Ј
丗
贈
寸铁
꺈
Ȉ
ق

鄕
茏@@
纖@@
쵨
사

腳
忳

撿
찈
欄
燈
竓
न
漈
盤
玸

㲨
擾
畄
牋
둘
拫
雸
껨
ଘ
巇
磈
骠
梘
Ⲹ
기
筅
琋
蹑
庹@@
과
鳠
胭
̇
棻
먈
補
趡
紡
祎
椂
奼
痃
⡨
훨

撧
잘
藬
篴
賺
蜾@@
崒
앸
琊@@
Ꮘ
崃@@
濊
滢@@

夔@@
麗
蹐
؛
俴
簡
綦

鹓
ꕈ
⒨
積@@
悗
털
㸘

裔@@
踨
桝
⌨
優
ㄍ
趑
軘
赒
瑆
甀
麗@@
絪
慘
埳
岡@@

橈
菉
剈
湧
趺@@
侐
퇨
剡
絏
壺
伋
囘
響@@
팈
糨
Ꝩ

嗫
闡@@
熀
淒@@
ケ
訛@@
夤@@
潵
俿
ㄡ
屸
驟
哙
エ
藦
輔@@

ⰸ
遗症
쐸
畋
瑀
加杜古
椹@@
斄
プ
ג
塵@@

웸
鶯
鍾@@
禦

蝨
犾
蘧
ל
钷
晁
鮘
檸
褲@@
顨
五入
攠
練
䱸
鳸
穂
墍
お
䣘
訽
缲
楣@@
┫


婀

闖@@
紛
叾
께
魷@@
ホ
㬈
乪
簍@@
ಘ
腇

鲋
偅
铏
〨
Ꝙ
匯@@
豐@@
ᙨ
牀
矇
ਸ
笴
畂
咜
詞@@
闁
秙
羀
逄@@
裎
皙@@

帔

舡
伙伴@@
鞲
譯@@
颱@@
聅
檔
璟@@
䦨
玙
羮
煐
웈
ᰈ
尪
鋘
瞓
璠
㸸
潤@@
좨
贛@@
薢
險@@
Ǹ
姩
璀
蚓@@
엸
鉛@@
骐@@
桕@@
渌@@
涑@@
粂
溻
阄@@
鳆
ई
黺
劂
渶
Ⰸ
瑫
湃@@
쬸
怹
ꑈ
骻
瞴
ﳨ
莩
׳
簈
ꐘ
洖
坘
癟
碝

峘
鳓
榈@@
佹
薾
⏨
骢
鎝
袂@@
廾
맸
高无上
墀
ﾈ
斲
譜
貎
齈
뼈
苐
싘
၈
ㆈ
湁
寢
鎖
砗@@
麑
藹
钘
㟨
毨
菿
胔
偾
襸
瀏@@
紮
牆@@
郛
鴘
階@@
廍
ǿ
彳
曈@@
楘
藝@@
笹
衊
ҫ
躨
꿘
缃
仺
䟘
億
ㅸ
罺
勬
佘
撄
╈
癲@@
艙

㔨
龆
蠂
˸

Ⅺ
㼸
檯
韓
蟊
毌
簾

鐐
ᴘ
犳
啱

鸘

瞯
鱂
袸
铹
弢
坜
몸
窎
喓
眄
欹
隻
跘
龍@@
屬@@
슨
ꖨ
翋
郐
犰
㳨

臜
戀@@

彡
擴@@
鄞
巴解@@
쏸
Ꭸ
牽@@
⇨
鳁
륨
涶
劻
龀

瞘
➤
昻
鋨
颛@@
无天
嶋
ゝ

璄
縛
慖
봨
灑
㸈
獄

録
螸
阋
蕰
鸊
唘
҈
續@@
伈

涑
┝
喪@@
㯈
烚
朲
椟
蚰@@
徭@@
禜
杮
헨

苧
▘

マ
旯@@
筲
瘭
煙@@
镸
ﵨ
∵
烝
鳴
尴
공
绁
管辖@@
鳔@@
슸
碔
勳

総
審
ј
惢
へ
䴘
쥸
瑅
祫
浟
踺@@
ﲈ
焗@@

ꟸ
⒕
屜
杶
畀@@
鐾
鵘
Worl@@
㴸
裚
屦
槑
튘
钇@@

簻
믈
匸
أ

讵
旛
夾@@
糧
櫃@@
掾
碨
洧@@
춘
旰@@
杻
Ѩ
雲@@
撈
祙
獈

蹘
擲

砓
퉸
漿@@
舎
勲
閞
剽
赻
ᘘ
堘
瞍
氹
⾨
瞏
涫@@
椀
姮
讣
ꦈ
芏@@
薆
撘
饘
質@@
奪
ṧ
吣
컈
坢
溆
︱
遞@@
嬪
ᅘ
鎗
殺
鍓
評
礙@@
礐
ɸ
饨@@
凾
茳@@
伢
취
荦@@
雞@@
ሸ
본
館@@
索
鑷
鍧
薱
鍑
燹
斿
뽈
徕@@
蘿
囓@@
牴
ꁘ
̧
뽨
彵
ꓘ
稂@@
ס
鰨
䯨
酩
窩
倈

娸
溡
ˮ
罈

筆
㾨
鷦
ݘ
閳

衃
鷉
類
ɨ
涼
㧈
嬭
笤
秏
暼
㎸
嶕
骁
葇
褛@@
睜@@
蕸
財
宮
孱
킸
幓
뛸
≯
瀉
蛏@@
憃
穚
가
啋
⦘
鈇
녘

狻@@
垓@@

Λ
擠@@
䃨
鞴
쫨
䪘
珟
洸
涸@@
鴿
猟
鍋
밸
摵
地区@@
忓
衛@@
쎨
渑@@
緄

湯

垝
嫳
꧈
桝@@
揸
ヒ
ﻸ
籄

ఈ

蹂
老汇
哅
ꚸ
㠸
⧘
趨@@
筩
砋
㰈
傛
獯
侘
盱
丵
➔
업
詘
懼
豕@@
枃
輪@@
鄭
髈
Ꙉ
腠@@
뒨

槻@@
貋
榍
他妈@@
乄
᥈
㓘

퐸
棶
銻
濫@@
薁
똸
镘@@
斈
蹠
ả

鏸
筳
崀
脇
⬘
矬
ᨈ
愍@@
臵
宥@@
俍
菴
砬@@
﹍
銀
蠨
俓
耚
兿
偨
覚
牦
側
䯈
輝
跸
ᓘ
徫
髟
郇
㹈
┨
ᇸ

礻
毸
宅

龃
魸

愢
⾘
甕@@
陧

謔
槸
痺@@
鰎
燨
縮
韘
⒗
邔

풸
島@@
栒

茭

鐜
賤@@
銳
ポ
쌈
㟈
韫
ଈ

釡
徧
夋
鄰@@
璉
膔
涿
備@@
耜

楬
勨
摲
籥
軍@@
糒
鴿@@
ꐈ
暈@@
僇

㟘
飆@@
㘸
Ⳉ
⣘
ה
営

寈
虓
겨
橶
주
驵
法院@@
↘
蒐
贗
欻
掽
砗
沩@@
麘
楗

埻
刪@@
脣

㍘
多米尼@@
邁@@

尋
諸@@

ፘ
箘
乭
嚜
鰐
迮
妸

빸

蘄
呙
燠
縒

鄚
苖
楈
⺘
䡸
윈
競


ﰘ

텘
唈
끨
朓
ퟘ
᠈
ם
ﲘ
萈
鯘
薨
ꢸ
術@@
孭
諮
韈
鍦
⩘
衖
浫
竕
佲
탨
컸
抭
殍@@
亂
緻
猢
ꇨ
緬@@

脬
銶
礫
砺@@
潻
垓
慉
囍
靨
怢
蜉
苨
꽸
臘@@
搶
嘔@@
Ⲙ
爂
丿
畎
鍵
안
侩@@
間@@
锜
呶@@

胤@@
Ì
踔
冾
铓
憑
浯
邏@@
ŏ
薳
誺

跣@@
降
姍
靺
谳
忾@@
墟@@
撴
™
脝
鷀
薤
撺
桋
鷨
腫
俔
壘
浥
纀
瀘
襦
탘
賞
曚
倮@@
甡
㏨

ﰨ
ꏢ
紇
釋@@
篏
귘
嚆
⭈
凅
怃@@
愪
巣
豳
劬
撲
䝈
✸
尯
萊

ᗘ
寶
橐@@
煉
釀@@
團@@
臾@@
髫
䊘
⼘
秫@@
痄@@

뵸
穎
䭘
畈

皯

貭
茌@@
佧
枑
쬈
红新@@
曞
眙@@
徘
篊
萳
跏
隰@@
처
ᯘ
ೈ
ꓨ
琿
麥

鎓
쩸
凓

饎
熤
ꊈ
︿
ஸ
었

ꈸ
岺
檊
韻@@
砟@@
緣@@
佮
䑘
褟
무
償
喾
寔
紘
蝘

䠈
拰
湫@@
ո
妘
鐽
侸
ꤨ
䁈
诹
侢
潑
粔
뿈
孥
ᡈ
㤸
珹
禿
傈
鲚
嶄
鱀
㋸
匚
꼈
╗
禍
懮
億@@
誡
螣
沲
昜
敵@@
網
琬@@
玕
脞
颥
鳥@@
ෘ
諥
⿈
鏘
졨
苶

滆
澍@@
滌
瘕
縂
鹵@@
铫
剞

Ꮨ
訓@@
慆
襝
攝
붨
庹
獚
鄹
Ṹ
䞸
褦
橹@@
즈
袘
剧性
昫
鎵
ኘ
ض
渨
撣@@

ぴ
펨
쟘
臉
乂
跽
視
楖
銧
鐢
濹
蘋@@
㠈
鷯
摀@@
翥
郤
痩
邊@@
缂@@
µ
溝@@
샸
垟
꠨
柌
계
︸
閱@@
蘅
潴
锿
࿘
葩@@
┙
剰
跾
羑
萚
죈
渧
缊

脣@@
걈
違
縢
佺
谫
蓂
墊
睈
钭
沺
瀣
攞
曈
鐶
閙
Κ
錸

菾
뫨
窽
蹉
嘹
綽@@
履
牂
ぬ
搾
籹
婓
儚
弄
汣

鼷
儎
魍
싨
歳
维的@@
瑭
蟼
㓸
卙
浃
纟
䛸
癲
犑
旖
┛
銘
賢
亚的@@
榚
枵@@
繤
珴
饋
壍


乁
潕
蓰
鑱
慓
袴@@
檵@@
烏@@
垿
釣
Η
覂
鬢

扞@@
獣
揎@@
勥
婌
楓
蝸
鉶
熡
鎿
悎
戡
う
嗱
噾
鮀
兘
⊈
鹢
離
猯
鯛
惉
멈
Ģ
妠
衛
瘡
瞠
ྸ
盨
穎@@
糈
望值

偺@@
闊@@
鯺
␃
̃
齮
辿
병
薘
ɡ
罜
褙
罰
ꨘ
珼
垹
笻
心满意@@
琕
桻
冴@@
晉@@
揢
獻@@
錼
淵@@
鳋
袱@@
ꎸ

鉻
叇
蹻
躪
瑐
̒
怗
ꇸ
橔
奨
怘
鹹
挓
悕
阬
貴@@
薵
裖

釨

ƈ
ꘘ

娲@@
稭
ャ
劰

輝@@
伃
譲
腫@@
鑯
萆@@
荬
縈@@
퐈
魼
燬
宊
蔾
眾@@
ﺘ
賘
斫@@
蹏
婨@@
萁@@
鑽@@
ヮ
陫
髪
璪

崴@@
ן
因地@@
侷
瓝
纎
檄
刽
Ԉ
狰
蕺@@

浗
Ń
绖
恠
萆
欽@@
臉@@
鶅
脹
䍈
®
謴

뿸
홍
団
莊@@

煉
娀
Ẩ
鋁
鐈
龨
閲
錢@@
籠@@
鱵
있
吉普@@
愨
粠

粌
馓@@
姍@@
ئ
鼟

咃
迣
ـ
䌨
력
偵@@
偂
冱


纻
鼫
ሁ
帱
尐
㞸
栛
筂
撶

ニ
㝸
䎨
연
뢸
鋸@@
嗮
￣
전
俈
簦
瞓@@
墼
˨

灒
拤
劊
蝸@@
┾
뒈
嫯
꼘
ŭ
鈾
零
槅
琀
鱏
䁘
鲿
岕
垻
徨@@
壽@@
ឨ
芁
凴
骞@@
ო
誩
鞔
╪
蒉
哥华
卺
俟@@
呺
謹@@
綯
忚
塬@@
疙
枴
荈
冭
儋
凟
抨
碶
铴
廯
鲊
喭
嵬@@
徂
혜
祔
赩
郏@@
贖
竑
債
穙
飢
琛@@

Ò


歭

쏘
辂@@
瘆
斻
輷
佝
剡@@
涗
主党
砬
瞚
聤

鵈
塵
畖
酤
顂
尨
낸
蚷
氶
鈡@@
佭
諧@@
闑
瀞
笰
娿
犻
虬

磙
呴
夌
怖@@
癃@@
徔
贅
イ
緞
镳@@
畯
쏈
緵
怴

琇@@
絜
寑
匉
湊
獽
㫈
餁
寤@@
ᒸ
䚚
擁
垴
頒
氇
泝
饷@@
腎
鵎

什
遨
靈
レ

呂@@
窬
刖
㎎
掟
槻
嬸
懶@@
罷@@
焟
䇸
虨
ᒘ

嫧
槚
瑂
篃
୰
姝@@

墮@@
搒
槊@@
筚
ϊ
嘡

倬
呪
醸
篗
蜞@@
扏
♂
羪
衤
償@@
骯@@
ゆ

蘇@@
覴
呡
惂
鄰

煻
鏁
鈛
幾
ź
墄
谯@@
醭
惱@@
躱
煆

秭
掓
摫

抷
㎘
埬
抮
宒
┩
毪
芤
敘
姸
綅
囡@@
╬
痠
苆
눨
㜈
鹁
瑣
胓
崐
ķ
膒
碩

勭
篛
脤
煋
撹
暠
价还价
ק
洘
人寿@@
贅@@
肜
葽

畬@@
名副@@
尻
ꃘ
峜
톈
嶺
粰
瘂

炅@@
阃

ᄨ
鮙
赙
㬸
賊
綍
聡
䬸
輶
媖
驺
ை
疨
Ţ
聱
櫥
ⱸ
ᵈ
笌
老
犧@@
弝
鈅
内塔@@
囄
臨
越来@@
髄
粵@@
砛
攴
篚
휈
慇@@


踇
ᡤ
褆
埶
䗨
繋
勼
痀@@
攜@@
陣@@
籮
锩
역
馭
嘍
圸
Ņ
식
絫
魾
蒝
⡸

弤
銅@@
ꠈ
㕸

⢘
牅
최
舸@@
梾
緱

⽈
紜
浡
鸑
夊
婧@@
忋
枡
腽@@
ぺ
蟪
躘
仡
靭
珯
篋
鎬
傀
驅@@
駈
듨
惬
ㄅ
咮
買@@
倻
쭘
ヶ
攰
訣
颙
獬
ᶨ
襪
牁
靸
覑
ᶸ
喲
䡘


憭
锫
阏
徬
圓
裇
梮
憶@@
堢
곘
棟
輯
旰
Ỉ
琒
ꎶ
簨
醬
綿@@

氳
蟳
澶
黾@@
砄
涙
辭@@
劁
舣
瑧

嶯
莈
紋@@
宼@@
晙
阷
甦
柊
鳘

鷲@@
‮
忝@@
籀
敉
龍
髣
ﮨ
蚔
飗
憟
噸@@
╲
罨
萹
栥
縯

롫
欑
詋
樋@@
秺
㜨
谡@@
呭
香糖
殄
₤

嚸
◄
糛
肁

䔸
錶
예
ᡨ
霖@@
輛
铔
徴
撖
䠨
璆
絣
佪
駉
荭
搖@@
綛
揘
揷
繆
惛
韆
狁
늹
┞
榦
婹
膠
셈
䊸
眎
皧
哱
ﵸ
笊@@
철
郓
嗬@@
檳@@
劏
嘫
氄
櫽
鉭
锦标@@
枴@@
茿
榟
獿
獃@@
┻
挹
譴@@
獵
轪
롦
豷
咲
檑@@
轱
ᴨ
旃@@
翨
개
桵
憘
稪
演愈烈
⑪
硊
鍔
挿
诰@@
褵
誔
媭
襒
叐
耤
酲
鞌
銘@@
蒯
炡
緿
ʹ
ဈ
挷
隂
聾@@
縐
爭@@

咑
臯
勩
甗
롔
埒
爝

煠
蝲
ꃨ
侕
誷
턈


锞@@
徍
卄
殇@@
佥@@
迊
蠳
淽
癠
嶅
益
祆@@
頻

蝃
鎅
俢
筈
盲率
澗
諳
竤

鯏
叻@@
峳
짘
歺
蜈

㈘
鐄
▊
衿@@
鬶
ƒ
瞔
鈣@@
鈴

癁
袆
盁
枮
閣@@
晳
龑
摗
嘣@@
茑
頗
妘@@

掭
阸
剅
轻而易@@
嬰
谿@@
뢙

垈
觪
࠘

捔
缇@@
鬦
嫝
烀


眫
〘
삨
馳@@
粺
壒
뛔
紛@@
雩
壟@@

絾

絯
鋪
伋@@
謆

獍
讴
뤈
࠸
蚗
療
稨
攌
耔
尟

꧘
繩@@

瘼
鉵

⢨
嬲
辂
笶
ˊ
揂
鶺@@
欶
塈
乨
昀@@
邽
澆@@
鯷
魒
針@@
ζ
闎
뢞
櫍
喆@@
嶈
鮠
╘
壞@@
睚
仸
睥
堈
趼@@
砝
湩
퓚
怉
樓
韪@@
琯@@
颷
蚼
鞁
劉@@
弶
瑍
缵
漖
ꄘ
峟
極@@
飽
耠
떈
鱫
珮@@
邺@@
迚
琖
舁
淈
趖
膙
纗
涇
舘
挻
恗
詪
竨
慄

㒨
溽@@
ፈ
災
厰

尫
餅@@
楀
蟢
藘
玵
Ğ
笸@@
趿
馔@@
邗
嫍
錄
畱
轄@@
도


鶴
遘
嫶
冚
曉
広
蹢
縟
扐
ᬈ
┿
镻
旂
Į
綢
鎖@@
厲@@
迵
ㄜ
訚
惗
溽
ʹ
齄
鎂
韾
｣
帨
莜
浈
司空@@
耱
攮
쭸
黹
㳈

兌@@
蜍
洺
鱷
萣
敤
倂
揞
繻@@
톘
敇
금
櫈
肸
ﱘ
祶
俫
ĸ
栧
匍
頻@@
菢
礙
Ά
꽘
檆
掤
攉
螃
숨
囷
袨
偤
⩈
帬
綸
氆@@
㹉
餽@@
缑
倠
恥
蓦
梼
菑
ᶘ
懔
唵
权票
嘤@@
邅
賭
锱
譜@@
疢


噓
鐭
粬
唲
蚰
宬
不结盟@@
咘
凎
┢
嚇@@
泅
摖
爇
檪
獛
熷
濳
깸
穇
姇
晣
忎
寯
舫@@
湑

涊
蟈
虚会


劼
嵁
暣
璾
痥
‬
硘
圱
繄
┧
瘈
黪
蹱
ᯈ
酦
癮
Ᾰ
精
ㄨ
辇@@
氈
剀@@
臖
丯
陞
滃
娗
鯙

硓
拵
汙@@
犒
㦨

宨
埄
籬
簮
燙
預
鄘
虸
텈
辧
歐
鶩

穰
ຈ
﹎
搢
邠
鱸@@
変
甿
ꄨ
橭
刓
枋@@
覇
ᮨ
ʘ

揻
勻
篲
舺
솈
魽
̸
刎@@
亾
і
无缘@@
萿
ﰈ
臟@@
汎
坈
絞@@
遴
劤
趨
胴
児
퀸
燦@@
篢
朙
累
凙
蟵

沚
侅
墸
쟈
쵈
閘@@
牼
絖
眭
띸
笄@@
迻@@

曀
渳
莖
砪
ⓨ
騷
瓊@@
都
葝
怾
리

碈
鹖
䖨
໘
鋗
畾
ᘸ
为一谈
ᙘ
忯
啍
颴
╒
蝤@@
沆
鳒
硚
鋼@@
糤
佨
顯
枛
穢
垯
榎
┭
棅
ﮘ
噺
聗
鲭@@
゜
練
鏣
髀@@
妩
┟
醶
焠
烜
蔋

鏄
鯊@@
燒@@
‹
墺
핸
羇
啞@@
軽
靯
畤
錬
寛@@
舿
발
綨
牎
驈
疴@@
釒
펈
遼@@
ꛘ
ࠨ
쓸
鹼@@
㒸
ム
鑻
륈
騎@@
詳
炴
倛
규
慒
蓡
됈
婄
㩨
独自@@
洝
䀈
荍
苘
邾

曌
舊@@
郎
鍴
ヤ
霪@@
韷
鶫
瓘
鯭
喌
栦
暈
竂

篹
漢
掅
脕
榶

錮
錵
鎔@@
日俱增
隀
̌
氬
鴒


昋
쀨
靚
碓@@
박
贈@@
ᨘ
脎
鞦
姶
ν
掎@@

뷸
咶
硖@@
槯
饒
齁
蔕

勦
賺@@
筇
梃@@
롃
泫@@
薷@@
溝
跭
藫
鍘
崝
揗
枥@@
䪈
鎭
鹌
直
틸
鵼
坾
鄾
寬
뢘
瘍
馄
嘁
元区
鎊
圥
絃
鹂@@
垘
栻
詑
泷
竸
阝
盋
爺
庝
粞
喙@@
邃@@
沈
█
睍
贏
俧
墜
輿@@
鐛
闗
洑
苼
溷@@
畚
鿈
潛
虉
誐
摑
顆

╝
蟛@@
萩
蟡
露
粛
ベ

懭
鄱
訸
က
檿
瑪
摁@@
敹
╋
Ƅ
嶆

甤
戱
奓
溧
郾@@
챸
镈
娛@@
濾
屻
庡
襪@@
苴@@
偝

庯
埚@@
揀

禛
悊
鈸
甴
迼
犱
偛
祍

鍋@@

囓
楛
ﳈ
僾
几内@@
潋
觊
毃
峠

綠
兙
鍊
怑
焢
痬
㏈
拓
逶
癈
廒
䳘
懯
枺

鼪
揙
莣
傪
茺@@
箷
鲘
貶@@
嫺
鍩
ヵ
虳
睏@@
邈@@
Ỹ
兇@@
ĳ
湼
ꎱ
綔
되
宓@@

齊@@
耹
盜@@
艸
㈱
坋
濉@@
竴
甍
囊团
勰@@
裈
峕
媪@@
翏
ӧ
讀@@
眒
泦
玶
琽
奲
戢
芣
赕

撲@@


偘

貪@@
炷@@
齢
龍
觫
奮
归者
図
鼑
恉

錘

鱘
囫
憂
鑲
秫
娔
䞘

͘
愥
ನ
庥@@
嵖
轟@@
逯
龐@@
㖈
暢
檵
鍝
蜒@@
寣
謊
Ἀ
瓑
恖
柽

蕣
讞
洌@@
簬
䪨
庻
噉
带来@@
琹
怆@@
䳸
ᦨ
ⷘ
桖
邳
ﾘ
祤
礞@@
滪
Ƹ
異
じ

悤
撐@@
紦
玗
雫
槇
徝
敚
拏
睟
彉
厜
ꪨ
倿
ペ
餾@@
忛
彘@@
綤
朢
樝
鲙
懇@@
軌@@
勠
暴
裼@@
況@@
̨
⛈
貐
逜
Ρ
簳
鐞
ứ
溎
嚫
ꏨ
褌
둸

喯
匵
帲
선
麀
鮑@@
嫠
恆@@
裋
緋
琻
馃
嬩
烱
歃
皪

驆
㼈
踭
祑
復
帞
苿
婬
麽@@
奀
璩@@
背井@@
爐@@
碙
㾗
叚
祡
黠@@
丳
寧
膕
閟
櫻@@
蝌
세
忉
聸
簒
櫊
淺@@
甅
構@@
碇@@
胕
囥
禥
韑
甃
憐
┬
濇
㥨
欒
鄸
鬛
甝
棌
傋
摢
루
遌
碽

媤
権
穩
濟@@
Ē
稲@@
哿@@

畵
齰
湴


籍法
〓
猤
軠
͈
菧

蹀
蠶@@
ﳘ
飓
諾
づ
勻@@
᭸
躜
瀡
椘
訹
瓒@@
黴
紾
黟
碊
擩
︾
埈
镮
葙@@

眳
鶘
졈
樺
篕
垡@@
창
홨
鍳
鉧
ز
一劳@@
忘录
츘
殮
昿
玒

缋
賿
省
簎
偣
嚧
悜
采烈
晊
绋
綀
媟
玑@@
輻@@
䐨
領
歸
体制@@
꾨

屲

苪
畹
蘅@@
憖
蚪@@
礹
嫞
気
餗
薊
閷
瑑
쐨
艦
紉

Ξ
氽@@
畓
猌
箞
憲@@
偉
寞@@
莿
럘
囈
鬧
拑
襾
孼
絕@@
崂
揺
僐
Ὸ
徸
┖
儊
조
̄
汭

慸
摪
艋
剸
⭘
仩
虒
玃
稄
堥
芐
ꍈ
続
彐
樞@@

怿
酼
奍
菃
䕈
鍐
鼔
揑
裒
鶹
歒
镚

碩@@
彶
ọ
굨

筢
円
籡
驩
歀
易
厍@@
ȧ
銝
摽
屼
揮
瀬
滬@@
吙
帤
层出@@
陦
疌
紬
煑
閚
ᤈ
ƨ
ꏤ
芉
禿@@
鵜
莊
馡
辥


疈
鋅@@
庈
炰
烈

澫
廰
摩洛哥@@
亇
掵
潽
洎
柵@@
奾
濔

篒
琘

幠
Ⅻ
冞
부
媸@@
우
ꆨ
垨
傆
琤
蟈@@
釹
鬧@@
踦
嗧
暁
匼
翶
霩
﹈
猠
餵
罝
糶
誘
英属@@
䤘
㷸
棸
硔
莢
滳
㗨
稺
籭
愬
繃
慾

綪
瓙
閮
夠@@

⫈
徥
螎
冿
冩
∗
鰳
犺
悧
㢸
半衰@@
飏
亀
誂
抩
暱@@
橞
獾@@
佾
鯆
凨
桊
阮
韮
韌@@
莴
赯
銬
瘋@@
坞@@
ص
赗
쯸
岄
ὸ
狿
雃
墾@@
簖
睋
蟌
簏
ּ
罂

鋤
流离@@
珔
姈
竛
礤
縁
戣

응
淍
喀里@@
蔵
驚
廂
珉@@
笂
푈
誨
瓞
綎
楁
ⅈ
빘
璎
㹨
獢

窱
疎
灣@@

黻
盜
窼
ד

╀
ꅨ
詭@@
腸@@
咰
╄
橾
弪
〤
怓
哿
鎔
危地@@
虍
焱@@
喴
揶
蝙
飯
繪

咆
漯
詏

覸
穣
簠

䑸

锧
臩
ǚ
癐
ᕸ
렾
ˌ
栺
鱘@@
좸
菽@@
邰
闿
烜@@
塞浦@@
榼
盧
麿
訒
晔@@
涾
朿
涼@@
懟
羝
貶
攤@@
猋
曟
訙

撝

ꇈ
儝
雖
戠
⨨
煉@@
ঘ
佽

舳@@
頂@@
閬
膚@@
戬

璊
肭@@

鑚
렣
脩
酖
桯

抇
䅨
鍖
続@@
繊
⤨
犨
峚
鉘
魿

ᾈ
湒
哢
懶
黵
ラ
飬
抅
오
巓
陓
耵
埤@@
銅
笟
垵
승
瓰
惇@@
稢
冹
肎
幣@@
諭
拶
耥
睼
鮭
賌
週
鲞
硭
钿@@
犮
里约@@
瑮
覨
제
炁
厠
宧
桏
䕨
ꉘ
一视@@
鹧
怳
遶
耖
嵚
矞
藸
澱

犛
絚

Ꜩ
鰭
冧

ৈ
噳
懸@@
叏
賽@@
舢
搷

꣸
幐
肄
潃
氤
宭
臃
葭@@
╩
显而易@@
羬
腴@@
斲@@
期日
襲@@
篘
ᅨ
﹋
邛

蝀
儛
勞
ィ
懃
繽
釬@@
ﻨ
簹
ﭭ
浯@@
錓
魘
昇@@
ꈘ
惁
锟@@
麖
箪
隗@@

羈
頞
娭
∟
悝
伥@@
謨
昮
浉
♀
嚅@@
蚖
ٸ
嫀
椚
䣸
穈
珽
호
䘨
┹
樗@@
贊
통
褲
햘
渟
顝
鎨

鵝@@
儙
